{
  "version": "1.0",
  "truncation": null,
  "padding": null,
  "added_tokens": [
    {
      "id": 0,
      "content": "[UNK]",
      "single_word": false,
      "lstrip": false,
      "rstrip": false,
      "normalized": false,
      "special": true
    },
    {
      "id": 1,
      "content": "[CLS]",
      "single_word": false,
      "lstrip": false,
      "rstrip": false,
      "normalized": false,
      "special": true
    },
    {
      "id": 2,
      "content": "[SEP]",
      "single_word": false,
      "lstrip": false,
      "rstrip": false,
      "normalized": false,
      "special": true
    },
    {
      "id": 3,
      "content": "[PAD]",
      "single_word": false,
      "lstrip": false,
      "rstrip": false,
      "normalized": false,
      "special": true
    },
    {
      "id": 4,
      "content": "[MASK]",
      "single_word": false,
      "lstrip": false,
      "rstrip": false,
      "normalized": false,
      "special": true
    },
    {
      "id": 5,
      "content": "[PAR]",
      "single_word": false,
      "lstrip": false,
      "rstrip": false,
      "normalized": false,
      "special": true
    },
    {
      "id": 6,
      "content": "[TAB]",
      "single_word": false,
      "lstrip": false,
      "rstrip": false,
      "normalized": false,
      "special": true
    },
    {
      "id": 7,
      "content": "[DOC]",
      "single_word": false,
      "lstrip": false,
      "rstrip": false,
      "normalized": false,
      "special": true
    },
    {
      "id": 8,
      "content": "[EOD]",
      "single_word": false,
      "lstrip": false,
      "rstrip": false,
      "normalized": false,
      "special": true
    },
    {
      "id": 9,
      "content": "[SPK]",
      "single_word": false,
      "lstrip": false,
      "rstrip": false,
      "normalized": false,
      "special": true
    }
  ],
  "normalizer": null,
  "pre_tokenizer": {
    "type": "Sequence",
    "pretokenizers": [
      {
        "type": "ByteLevel",
        "add_prefix_space": true,
        "trim_offsets": true,
        "use_regex": true
      },
      {
        "type": "Digits",
        "individual_digits": true
      }
    ]
  },
  "post_processor": {
    "type": "ByteLevel",
    "add_prefix_space": true,
    "trim_offsets": true,
    "use_regex": true
  },
  "decoder": {
    "type": "ByteLevel",
    "add_prefix_space": true,
    "trim_offsets": true,
    "use_regex": true
  },
  "model": {
    "type": "WordPiece",
    "unk_token": "[UNK]",
    "continuing_subword_prefix": "",
    "max_input_chars_per_word": 100,
    "vocab": {
      "[UNK]": 0,
      "[CLS]": 1,
      "[SEP]": 2,
      "[PAD]": 3,
      "[MASK]": 4,
      "[PAR]": 5,
      "[TAB]": 6,
      "[DOC]": 7,
      "[EOD]": 8,
      "[SPK]": 9,
      "!": 10,
      "\"": 11,
      "#": 12,
      "$": 13,
      "%": 14,
      "&": 15,
      "'": 16,
      "(": 17,
      ")": 18,
      "*": 19,
      "+": 20,
      ",": 21,
      "-": 22,
      ".": 23,
      "/": 24,
      "0": 25,
      "1": 26,
      "2": 27,
      "3": 28,
      "4": 29,
      "5": 30,
      "6": 31,
      "7": 32,
      "8": 33,
      "9": 34,
      ":": 35,
      ";": 36,
      "<": 37,
      "=": 38,
      ">": 39,
      "?": 40,
      "A": 41,
      "B": 42,
      "C": 43,
      "D": 44,
      "E": 45,
      "F": 46,
      "G": 47,
      "H": 48,
      "I": 49,
      "J": 50,
      "K": 51,
      "L": 52,
      "M": 53,
      "N": 54,
      "O": 55,
      "P": 56,
      "Q": 57,
      "R": 58,
      "S": 59,
      "T": 60,
      "U": 61,
      "V": 62,
      "W": 63,
      "X": 64,
      "Y": 65,
      "Z": 66,
      "[": 67,
      "]": 68,
      "`": 69,
      "a": 70,
      "b": 71,
      "c": 72,
      "d": 73,
      "e": 74,
      "f": 75,
      "g": 76,
      "h": 77,
      "i": 78,
      "j": 79,
      "k": 80,
      "l": 81,
      "m": 82,
      "n": 83,
      "o": 84,
      "p": 85,
      "q": 86,
      "r": 87,
      "s": 88,
      "t": 89,
      "u": 90,
      "v": 91,
      "w": 92,
      "x": 93,
      "y": 94,
      "z": 95,
      "{": 96,
      "}": 97,
      "¡": 98,
      "¢": 99,
      "£": 100,
      "¤": 101,
      "§": 102,
      "¨": 103,
      "©": 104,
      "ª": 105,
      "«": 106,
      "®": 107,
      "¯": 108,
      "°": 109,
      "±": 110,
      "²": 111,
      "³": 112,
      "´": 113,
      "µ": 114,
      "¶": 115,
      "·": 116,
      "¹": 117,
      "º": 118,
      "»": 119,
      "¼": 120,
      "½": 121,
      "¾": 122,
      "Â": 123,
      "Ã": 124,
      "Ä": 125,
      "Å": 126,
      "Ï": 127,
      "â": 128,
      "Ġ": 129,
      "Ģ": 130,
      "ģ": 131,
      "Ĥ": 132,
      "Ħ": 133,
      "ħ": 134,
      "ĩ": 135,
      "Ī": 136,
      "ī": 137,
      "ĵ": 138,
      "Ķ": 139,
      "ķ": 140,
      "ĸ": 141,
      "Ĺ": 142,
      "Ļ": 143,
      "Ľ": 144,
      "ľ": 145,
      "ŀ": 146,
      "ł": 147,
      "Ń": 148,
      "Ġt": 149,
      "he": 150,
      "Ġa": 151,
      "in": 152,
      "Ġthe": 153,
      "re": 154,
      "Ġs": 155,
      "Ġo": 156,
      "Ġw": 157,
      "er": 158,
      "nd": 159,
      "at": 160,
      "Ġb": 161,
      "on": 162,
      "Ġc": 163,
      "ou": 164,
      "ed": 165,
      "it": 166,
      "en": 167,
      "is": 168,
      "Ġf": 169,
      "ing": 170,
      "Ġp": 171,
      "Ġof": 172,
      "Ġh": 173,
      "or": 174,
      "es": 175,
      "Ġm": 176,
      "Ġto": 177,
      "ar": 178,
      "an": 179,
      "Ġin": 180,
      "Ġand": 181,
      "al": 182,
      "Ġd": 183,
      "as": 184,
      "Ġl": 185,
      "Ġth": 186,
      "ic": 187,
      "om": 188,
      "ion": 189,
      "ll": 190,
      "Ġn": 191,
      "le": 192,
      "Ġbe": 193,
      "ly": 194,
      "Ġhe": 195,
      "Ġe": 196,
      "ent": 197,
      "ĠI": 198,
      "ve": 199,
      "Ġ'": 200,
      "ĠT": 201,
      "Ġg": 202,
      "ro": 203,
      "st": 204,
      "ut": 205,
      "ad": 206,
      "Ġre": 207,
      "id": 208,
      "ac": 209,
      "ot": 210,
      "ow": 211,
      "Ġon": 212,
      "et": 213,
      "se": 214,
      "ld": 215,
      "im": 216,
      "Ġy": 217,
      "Ġwas": 218,
      "gh": 219,
      "Ġit": 220,
      "Ġu": 221,
      "Ġthat": 222,
      "Ġfor": 223,
      "Ġst": 224,
      "ĠS": 225,
      "ay": 226,
      "Ġwh": 227,
      "Ġis": 228,
      "ur": 229,
      "ir": 230,
      "ver": 231,
      "ĠThe": 232,
      "ĠA": 233,
      "ct": 234,
      "ith": 235,
      "Ġyou": 236,
      "Ġas": 237,
      "Ġwith": 238,
      "'s": 239,
      "Ġwe": 240,
      "ation": 241,
      "am": 242,
      "ce": 243,
      "her": 244,
      "il": 245,
      "ĠH": 246,
      "ĠC": 247,
      "ri": 248,
      "Ġha": 249,
      "oo": 250,
      "Ġan": 251,
      "ter": 252,
      "ch": 253,
      "if": 254,
      "ĠB": 255,
      "Ġat": 256,
      "ge": 257,
      "ght": 258,
      "ĠM": 259,
      "ould": 260,
      "Ġse": 261,
      "ain": 262,
      "ke": 263,
      ".'": 264,
      "ill": 265,
      "Ġcon": 266,
      "Ġr": 267,
      "pe": 268,
      "##": 269,
      "Ġher": 270,
      "ul": 271,
      "Ġpro": 272,
      "Ġsu": 273,
      "ess": 274,
      "Ġhad": 275,
      "Ġhis": 276,
      "Ġfr": 277,
      "ĠW": 278,
      "Ġor": 279,
      "ol": 280,
      "Ġnot": 281,
      "Ġde": 282,
      "Ġare": 283,
      "ab": 284,
      "Ġsh": 285,
      "ore": 286,
      "ment": 287,
      "Ġ-": 288,
      "ers": 289,
      "Ġex": 290,
      "ard": 291,
      "pp": 292,
      "Ġby": 293,
      "Ġcom": 294,
      "red": 295,
      "th": 296,
      "qu": 297,
      "ant": 298,
      "Ġfrom": 299,
      "Ġne": 300,
      "Ġhave": 301,
      "ĠP": 302,
      "ĠL": 303,
      "ist": 304,
      "us": 305,
      "Ġshe": 306,
      "our": 307,
      "ate": 308,
      "Ġme": 309,
      "op": 310,
      "Ġsa": 311,
      "res": 312,
      "Ġk": 313,
      "'t": 314,
      "Ġ(": 315,
      "Ġch": 316,
      "el": 317,
      "Ġv": 318,
      "ich": 319,
      "ust": 320,
      "os": 321,
      "and": 322,
      "Ġli": 323,
      "ĠE": 324,
      "te": 325,
      "ity": 326,
      "ĠD": 327,
      "un": 328,
      "ĠF": 329,
      "Ġbut": 330,
      "Ġal": 331,
      "est": 332,
      "all": 333,
      "ĠR": 334,
      "Ġdo": 335,
      "ome": 336,
      "Ġso": 337,
      "ap": 338,
      "ort": 339,
      "ive": 340,
      "rou": 341,
      "Ġle": 342,
      "ie": 343,
      "Ġab": 344,
      "ack": 345,
      "ig": 346,
      "Ġthis": 347,
      "um": 348,
      "ies": 349,
      "art": 350,
      "out": 351,
      "nt": 352,
      "Ġwhich": 353,
      "ĠHe": 354,
      "Ġwere": 355,
      "Ġall": 356,
      "Ġwhe": 357,
      "em": 358,
      "Ġthey": 359,
      "ook": 360,
      "Ġwor": 361,
      "ĠG": 362,
      "Ġout": 363,
      "ind": 364,
      "ci": 365,
      "ight": 366,
      "Ġhim": 367,
      "ag": 368,
      "ther": 369,
      "ide": 370,
      "Ġup": 371,
      "ĠO": 372,
      "od": 373,
      "Ġcan": 374,
      "ous": 375,
      "ally": 376,
      "ĠN": 377,
      "ure": 378,
      "Ġsaid": 379,
      "age": 380,
      "Ġpl": 381,
      "Ġj": 382,
      "ast": 383,
      "ost": 384,
      "Ġbeen": 385,
      "fe": 386,
      "ak": 387,
      "iv": 388,
      "Ġtr": 389,
      "one": 390,
      "Ġkn": 391,
      "Ġint": 392,
      "Ġthere": 393,
      "Ġone": 394,
      "?'": 395,
      "Ġman": 396,
      "Ġwould": 397,
      "Ġtheir": 398,
      "ong": 399,
      "Ġte": 400,
      "ice": 401,
      "ĠIt": 402,
      "ck": 403,
      ",'": 404,
      "..": 405,
      "ud": 406,
      "Ġ##": 407,
      "act": 408,
      "pl": 409,
      "ood": 410,
      "Ġthem": 411,
      "Ġwho": 412,
      "are": 413,
      "Ġcl": 414,
      "pt": 415,
      "ine": 416,
      "Ġmore": 417,
      "able": 418,
      "hed": 419,
      "Ġhas": 420,
      "Ġabout": 421,
      "Ġim": 422,
      "Ġfe": 423,
      "Ġwill": 424,
      "Ġco": 425,
      "Ġun": 426,
      "very": 427,
      "ace": 428,
      "ame": 429,
      "ĠShe": 430,
      "Ġgo": 431,
      "ish": 432,
      "ry": 433,
      "ions": 434,
      "Ġcould": 435,
      "Ġinto": 436,
      "ĠTh": 437,
      "Ġno": 438,
      "au": 439,
      "ach": 440,
      "Ġqu": 441,
      "Ġsome": 442,
      "Ġus": 443,
      "ĠIn": 444,
      "Ġag": 445,
      "ake": 446,
      "ven": 447,
      "Ġac": 448,
      "own": 449,
      "Ġen": 450,
      "ĠJ": 451,
      "Ġother": 452,
      "ime": 453,
      "ass": 454,
      "Ġlike": 455,
      "Ġcomp": 456,
      "ber": 457,
      "Ġpr": 458,
      "per": 459,
      "ated": 460,
      "ble": 461,
      "Ġover": 462,
      "wn": 463,
      "Ġro": 464,
      "ite": 465,
      "Ġwhat": 466,
      "ra": 467,
      "Ġmy": 468,
      "Ġif": 469,
      "Ġad": 470,
      "ink": 471,
      "Ġcont": 472,
      "Ġlook": 473,
      "Ġyour": 474,
      "Ġar": 475,
      "Ġper": 476,
      "Ġany": 477,
      "ear": 478,
      "Ġdis": 479,
      "ond": 480,
      "ound": 481,
      "ence": 482,
      "ance": 483,
      "ark": 484,
      "Ġtw": 485,
      "ang": 486,
      "Ġsp": 487,
      "Ġwork": 488,
      "Ġwhen": 489,
      "Ġoff": 490,
      "ction": 491,
      "way": 492,
      "ose": 493,
      "Ġthan": 494,
      "ire": 495,
      "ff": 496,
      "sel": 497,
      "cl": 498,
      "ress": 499,
      "og": 500,
      "du": 501,
      "Ġknow": 502,
      "ary": 503,
      "Ġpart": 504,
      "Ġres": 505,
      "ick": 506,
      "Ġback": 507,
      "ru": 508,
      "Ġtime": 509,
      "ater": 510,
      "ings": 511,
      "ult": 512,
      "Ġfl": 513,
      "ical": 514,
      "we": 515,
      "so": 516,
      "Ġdid": 517,
      "Ġsm": 518,
      "itt": 519,
      "ep": 520,
      "nder": 521,
      "ub": 522,
      "ans": 523,
      "Ġthen": 524,
      "Ġbl": 525,
      "ade": 526,
      "ild": 527,
      "Ġbec": 528,
      "Ġpe": 529,
      "Ġonly": 530,
      "hing": 531,
      "ations": 532,
      "int": 533,
      "orm": 534,
      "ough": 535,
      "ree": 536,
      "vel": 537,
      "urn": 538,
      "ved": 539,
      "ord": 540,
      "ail": 541,
      "Ġlo": 542,
      "ign": 543,
      "Ġits": 544,
      "ip": 545,
      "ue": 546,
      "You": 547,
      "cess": 548,
      "iz": 549,
      "Ġbet": 550,
      "Ġimp": 551,
      "Ġtwo": 552,
      "Ġyear": 553,
      "ase": 554,
      "Ġsc": 555,
      "Ġnow": 556,
      "Ġtoo": 557,
      "ount": 558,
      "ĠCh": 559,
      "ĠBut": 560,
      "ren": 561,
      "Ġdown": 562,
      "Ġshould": 563,
      "Ġspe": 564,
      "fter": 565,
      "av": 566,
      "ition": 567,
      "other": 568,
      "self": 569,
      "Ġdes": 570,
      "Ġagain": 571,
      "ial": 572,
      "reat": 573,
      "ual": 574,
      "ft": 575,
      "ious": 576,
      "Ġunder": 577,
      "Ġpo": 578,
      "ile": 579,
      "Ġnew": 580,
      "Ġfir": 581,
      "rough": 582,
      "Ġsee": 583,
      "Ġpre": 584,
      "Ġind": 585,
      "ople": 586,
      "Ġjust": 587,
      "Ġhand": 588,
      "Ġapp": 589,
      "Ġway": 590,
      "ull": 591,
      "rit": 592,
      "Ġvery": 593,
      "fore": 594,
      "Ġthrough": 595,
      "ning": 596,
      "li": 597,
      "ise": 598,
      "Ġsay": 599,
      "Ġget": 600,
      "ĠU": 601,
      "erm": 602,
      "ect": 603,
      "ens": 604,
      "Ġalso": 605,
      "ons": 606,
      "Ġwant": 607,
      "ory": 608,
      "ather": 609,
      "ward": 610,
      "Ġcons": 611,
      "Ġthink": 612,
      "uch": 613,
      "Ġhow": 614,
      "ĠAnd": 615,
      "Ġwhere": 616,
      "Ġ###": 617,
      "ause": 618,
      "Ġpeople": 619,
      "ell": 620,
      "Ġri": 621,
      "ĠV": 622,
      "UN": 623,
      "hat": 624,
      "air": 625,
      "Ġem": 626,
      "Ġneed": 627,
      "'d": 628,
      "ĠK": 629,
      "round": 630,
      "Ġeven": 631,
      "Ġmay": 632,
      "ict": 633,
      "Ġrec": 634,
      "ng": 635,
      "Ġdif": 636,
      "oy": 637,
      "ced": 638,
      ").": 639,
      "ces": 640,
      "ors": 641,
      "hen": 642,
      "cial": 643,
      "Ġfirst": 644,
      "UNK": 645,
      "ia": 646,
      "ving": 647,
      "ĠThey": 648,
      "Ġlong": 649,
      "led": 650,
      "oss": 651,
      "ĠThis": 652,
      "gan": 653,
      "ĠThere": 654,
      "ked": 655,
      "Ġafter": 656,
      "Ġ[": 657,
      "Ġdon": 658,
      "Ġam": 659,
      "Ġser": 660,
      "Ġcomm": 661,
      "Ġsl": 662,
      "...": 663,
      "ange": 664,
      "ove": 665,
      "ne": 666,
      "Ġwell": 667,
      "ath": 668,
      "Ġmuch": 669,
      "ave": 670,
      "Ġrem": 671,
      "ought": 672,
      "Ġfo": 673,
      "ert": 674,
      "Ġrel": 675,
      "ween": 676,
      "Ġmost": 677,
      "pect": 678,
      "Ġcent": 679,
      "Ġsuch": 680,
      "omet": 681,
      "oth": 682,
      "Ġthese": 683,
      "row": 684,
      "form": 685,
      "ied": 686,
      "ments": 687,
      "ife": 688,
      "Ġmade": 689,
      "ĠSt": 690,
      "ily": 691,
      "Ġcar": 692,
      "Ġday": 693,
      "Ġcour": 694,
      "Ġbetween": 695,
      "Ġown": 696,
      "ty": 697,
      "arly": 698,
      "ubl": 699,
      "ting": 700,
      "Ġgr": 701,
      "rent": 702,
      "les": 703,
      "Ġbefore": 704,
      "ple": 705,
      "Ġ####": 706,
      "Ġinter": 707,
      "ities": 708,
      "ern": 709,
      "Ġke": 710,
      "Ġbu": 711,
      "ew": 712,
      "Ġact": 713,
      "ouse": 714,
      "'ve": 715,
      "Ġgood": 716,
      "ffe": 717,
      "Ġprodu": 718,
      "ents": 719,
      "Ġmake": 720,
      "ib": 721,
      "cre": 722,
      "Ġob": 723,
      "Ġform": 724,
      "ful": 725,
      "here": 726,
      "iss": 727,
      "Ġinte": 728,
      "xt": 729,
      "Ġsub": 730,
      "Ġbecause": 731,
      "Ġhere": 732,
      "ible": 733,
      "Ġmust": 734,
      "Ġsur": 735,
      "Ġgl": 736,
      "Ġour": 737,
      "Ġsupp": 738,
      "Ġsy": 739,
      "ars": 740,
      "Ġwom": 741,
      "Ġbeing": 742,
      "ational": 743,
      "Ġpol": 744,
      "ian": 745,
      "hes": 746,
      "'ll": 747,
      "gg": 748,
      "Ġhead": 749,
      "Ġseem": 750,
      "Ġstill": 751,
      "Ġrep": 752,
      "Ġbr": 753,
      "ittle": 754,
      "igh": 755,
      "Ġturn": 756,
      "Ġright": 757,
      "Ġyears": 758,
      "pen": 759,
      "ont": 760,
      "'m": 761,
      "Ġpubl": 762,
      "Ġstr": 763,
      "Ġset": 764,
      "ates": 765,
      "Ġthought": 766,
      "Ġsomet": 767,
      "aking": 768,
      "ves": 769,
      "ps": 770,
      "cept": 771,
      "ower": 772,
      "Â£": 773,
      "ĠAs": 774,
      "uth": 775,
      "'re": 776,
      "Ġlittle": 777,
      "ock": 778,
      "ness": 779,
      "ool": 780,
      "ĠIf": 781,
      "ob": 782,
      "Ġacc": 783,
      "Ġthose": 784,
      "Ġevery": 785,
      "pped": 786,
      "mer": 787,
      "ative": 788,
      "Ġreg": 789,
      "Ġprov": 790,
      "ale": 791,
      "Ġlooked": 792,
      "ĠYou": 793,
      "Ġdist": 794,
      "Ġsk": 795,
      "Ġinst": 796,
      "Ġinv": 797,
      "Ġev": 798,
      "velop": 799,
      "ever": 800,
      "Ġgot": 801,
      "ating": 802,
      "old": 803,
      "Ġey": 804,
      "Ġdiffe": 805,
      "ared": 806,
      "Ġbel": 807,
      "Ġcome": 808,
      "ised": 809,
      "Ġgre": 810,
      "alk": 811,
      "Ġstud": 812,
      "Ġmany": 813,
      "Ġsmall": 814,
      "land": 815,
      "ss": 816,
      "get": 817,
      "rest": 818,
      "Ġuse": 819,
      "ually": 820,
      "Ġchild": 821,
      "ject": 822,
      "Ġaway": 823,
      "Ġput": 824,
      "ĠWe": 825,
      "Ġused": 826,
      "Ġcle": 827,
      "ĠÂ£": 828,
      "arge": 829,
      "atter": 830,
      "Ġph": 831,
      "Ġold": 832,
      "Ġhel": 833,
      "Ġap": 834,
      "Ġtake": 835,
      "ished": 836,
      "ures": 837,
      "vers": 838,
      "ried": 839,
      "Ġmight": 840,
      "llow": 841,
      "gin": 842,
      "ility": 843,
      "ted": 844,
      "side": 845,
      "Ġopen": 846,
      "ady": 847,
      "me": 848,
      "ĠAn": 849,
      "ffect": 850,
      "Ġdec": 851,
      "ank": 852,
      "Ġend": 853,
      "Ġatt": 854,
      "stem": 855,
      "Ġass": 856,
      "arm": 857,
      "Ġbro": 858,
      "aps": 859,
      "Ġfeel": 860,
      "Ġpers": 861,
      "ix": 862,
      "ĠY": 863,
      "ific": 864,
      "up": 865,
      "ĠHow": 866,
      "Ġlet": 867,
      "Ġbook": 868,
      "Ġche": 869,
      "Ġgoing": 870,
      "ross": 871,
      "uc": 872,
      "),": 873,
      "Ġwind": 874,
      "ution": 875,
      "Ġnever": 876,
      "Ġboth": 877,
      "ener": 878,
      "Ġcall": 879,
      "rie": 880,
      "Ġmark": 881,
      "rib": 882,
      "Ġdevelop": 883,
      "ular": 884,
      "ered": 885,
      "Ġpoint": 886,
      "Ġthree": 887,
      "thing": 888,
      "ody": 889,
      "oun": 890,
      "ices": 891,
      "Ġsec": 892,
      "ram": 893,
      "Ġsame": 894,
      "ms": 895,
      "Ġfind": 896,
      "Ġdoor": 897,
      "clud": 898,
      "ably": 899,
      "Ġlast": 900,
      "aw": 901,
      "!'": 902,
      "ph": 903,
      "Ġcare": 904,
      "Ġpres": 905,
      "Ġfound": 906,
      "Ġcame": 907,
      "als": 908,
      "Ġfin": 909,
      "Ġface": 910,
      "Ġorgan": 911,
      "Ġlight": 912,
      "Ġeach": 913,
      "olog": 914,
      "Ġed": 915,
      "Ġsystem": 916,
      "Ġsim": 917,
      "Ġent": 918,
      "less": 919,
      "Ġposs": 920,
      "Ġhelp": 921,
      "ax": 922,
      "ts": 923,
      "Ġlife": 924,
      "Ġaround": 925,
      "ten": 926,
      "Ġdoes": 927,
      "ying": 928,
      "ner": 929,
      "ched": 930,
      "Ġnum": 931,
      "wards": 932,
      "Ġwent": 933,
      "Ġmod": 934,
      "Ġdidn": 935,
      "Ġpartic": 936,
      "Ġsomething": 937,
      "Ġexp": 938,
      "Ġhouse": 939,
      "cc": 940,
      "ages": 941,
      "Ġcr": 942,
      "Ġmin": 943,
      "cal": 944,
      "Ġcourse": 945,
      "Ġmet": 946,
      "Ġreal": 947,
      "Ġmon": 948,
      "ĠCom": 949,
      "ertain": 950,
      "ently": 951,
      "Ġbo": 952,
      "ling": 953,
      "ited": 954,
      "Ġleft": 955,
      "ways": 956,
      "angu": 957,
      "Ġhigh": 958,
      "Ġdet": 959,
      "Ġdifferent": 960,
      "ased": 961,
      "Ġfollow": 962,
      "Ġgiv": 963,
      "ained": 964,
      "Ġroom": 965,
      "ics": 966,
      "imes": 967,
      "ists": 968,
      "Ġadd": 969,
      "Ġhapp": 970,
      "Ġanother": 971,
      "iew": 972,
      "ĠSo": 973,
      "Ġret": 974,
      "Ġgrou": 975,
      "Ġfew": 976,
      "Ġcur": 977,
      "Ġplace": 978,
      "und": 979,
      "its": 980,
      "ury": 981,
      "Ġdisc": 982,
      "ĠBe": 983,
      "atch": 984,
      "Ġinterest": 985,
      "Ġwhile": 986,
      "Ġconf": 987,
      "ĠBrit": 988,
      "Ġplan": 989,
      "lect": 990,
      "Ġfact": 991,
      "Ġwater": 992,
      "ism": 993,
      "der": 994,
      "Ġstand": 995,
      "Ġcor": 996,
      "elt": 997,
      "Ġappro": 998,
      "ters": 999,
      "Ġserv": 1000,
      "ek": 1001,
      "Ġcount": 1002,
      "Ġbeh": 1003,
      "Ġtell": 1004,
      "Ġeyes": 1005,
      "ape": 1006,
      "ys": 1007,
      "Ġfam": 1008,
      "Ġimport": 1009,
      "'.": 1010,
      "ĠAl": 1011,
      "uring": 1012,
      "Ġproble": 1013,
      "ined": 1014,
      "Ġmo": 1015,
      "Ġstart": 1016,
      "ĠFor": 1017,
      "ened": 1018,
      "Ġshow": 1019,
      "ident": 1020,
      "Ġlarge": 1021,
      "Ġeffect": 1022,
      "ince": 1023,
      "arch": 1024,
      "haps": 1025,
      "iet": 1026,
      "Ġexper": 1027,
      "Ġgener": 1028,
      "Ġexam": 1029,
      "man": 1030,
      "hip": 1031,
      "Ġide": 1032,
      "Ġbus": 1033,
      "Ġless": 1034,
      "Ġagainst": 1035,
      "ott": 1036,
      "Ġmain": 1037,
      "ural": 1038,
      "pr": 1039,
      "ĠWh": 1040,
      "Ġhome": 1041,
      "rap": 1042,
      "Ġref": 1043,
      "rol": 1044,
      "unity": 1045,
      "Ġdire": 1046,
      "ds": 1047,
      "Ġmother": 1048,
      "Ġty": 1049,
      "iness": 1050,
      "Ġinclud": 1051,
      "mb": 1052,
      "ley": 1053,
      "Ġmean": 1054,
      "Ġconc": 1055,
      "Ġworld": 1056,
      "Ġsign": 1057,
      "Ġext": 1058,
      "Ġhard": 1059,
      "Ġinform": 1060,
      "Ġbre": 1061,
      "Ġprog": 1062,
      "Ġwhite": 1063,
      "ĠMr": 1064,
      "Ġnight": 1065,
      "Ġappe": 1066,
      "Ġasked": 1067,
      "ield": 1068,
      "Ġunt": 1069,
      "Ġav": 1070,
      "Ġmen": 1071,
      "any": 1072,
      "Ġperson": 1073,
      "cy": 1074,
      "Ġthings": 1075,
      "The": 1076,
      "Ġsw": 1077,
      "It": 1078,
      "ention": 1079,
      "Ġgu": 1080,
      "Ġfelt": 1081,
      "Ġrather": 1082,
      "Ġwr": 1083,
      "ĠFr": 1084,
      "Ġfar": 1085,
      "Ġpass": 1086,
      "Ġvar": 1087,
      "Ġexpl": 1088,
      "Ġleg": 1089,
      "ĠOn": 1090,
      "osed": 1091,
      "ason": 1092,
      "Ġalways": 1093,
      "Ġtook": 1094,
      "ature": 1095,
      "Ġrest": 1096,
      "az": 1097,
      "Ġquest": 1098,
      "ider": 1099,
      "na": 1100,
      "Ġlangu": 1101,
      "ided": 1102,
      "Ã©": 1103,
      "Ġcoll": 1104,
      "Ġadv": 1105,
      "uthor": 1106,
      "uck": 1107,
      "Ġside": 1108,
      "ene": 1109,
      "Ġwithout": 1110,
      "tern": 1111,
      "Ġdark": 1112,
      "outh": 1113,
      "Ġtold": 1114,
      "Ġmarket": 1115,
      "ired": 1116,
      "Ġtak": 1117,
      "vern": 1118,
      "ision": 1119,
      "ĠDe": 1120,
      "Ġcase": 1121,
      "ork": 1122,
      "Ġgreat": 1123,
      "ruct": 1124,
      "alf": 1125,
      "Ġwomen": 1126,
      "Ġpower": 1127,
      "Ġlead": 1128,
      "Ġprocess": 1129,
      "Ġuntil": 1130,
      "ants": 1131,
      "Ġins": 1132,
      "Ġlocal": 1133,
      "Ġblack": 1134,
      "Ġpur": 1135,
      "Ġthough": 1136,
      "Ġel": 1137,
      "ĠWhat": 1138,
      "oc": 1139,
      "oice": 1140,
      "ĠWhen": 1141,
      "Ġresp": 1142,
      "Ġnumber": 1143,
      "Ġround": 1144,
      "aper": 1145,
      "Ġsecond": 1146,
      "Ġrun": 1147,
      "Ġbed": 1148,
      "ĠEng": 1149,
      "',": 1150,
      "day": 1151,
      "sh": 1152,
      "ither": 1153,
      "Ġwa": 1154,
      "Ġyoung": 1155,
      "Ġmar": 1156,
      "Ġbelie": 1157,
      "Ġpain": 1158,
      "ĠAt": 1159,
      "Ġnothing": 1160,
      "the": 1161,
      "Ġpublic": 1162,
      "Ġincre": 1163,
      "ĠRe": 1164,
      "Ġseemed": 1165,
      "Ġreally": 1166,
      "Ġmor": 1167,
      "ards": 1168,
      "Ġplay": 1169,
      "Ġsaw": 1170,
      "chool": 1171,
      "Ġrequ": 1172,
      "most": 1173,
      "iff": 1174,
      "Ġwithin": 1175,
      "Ġcre": 1176,
      "Ġknew": 1177,
      "Ġcontin": 1178,
      "Ġoften": 1179,
      "Ġcol": 1180,
      "Ġcomple": 1181,
      "Ġchar": 1182,
      "Ġtrans": 1183,
      "Ġauthor": 1184,
      "Ġdr": 1185,
      "ĠComm": 1186,
      "Ġfull": 1187,
      "Ġcertain": 1188,
      "Ġseen": 1189,
      "Ġlevel": 1190,
      "Ġear": 1191,
      "ĠRo": 1192,
      "Ġpract": 1193,
      "Ġmom": 1194,
      "Ġquite": 1195,
      "ah": 1196,
      "irl": 1197,
      "be": 1198,
      "Ġpri": 1199,
      "Ġthing": 1200,
      "ĠUn": 1201,
      "Ġfour": 1202,
      "Ġprof": 1203,
      "Ġchildren": 1204,
      "Ġinc": 1205,
      "Ġeas": 1206,
      "amp": 1207,
      "ĠSe": 1208,
      "idd": 1209,
      "ric": 1210,
      "ional": 1211,
      "HE": 1212,
      "Ġhimself": 1213,
      "Ġsocial": 1214,
      "ute": 1215,
      "chn": 1216,
      "ines": 1217,
      "ged": 1218,
      "Ġturned": 1219,
      "Ġread": 1220,
      "Ġocc": 1221,
      "Ġimportant": 1222,
      "med": 1223,
      "pend": 1224,
      "ues": 1225,
      "ets": 1226,
      "erv": 1227,
      "lish": 1228,
      "Ġgive": 1229,
      "osition": 1230,
      "raw": 1231,
      "aring": 1232,
      "ically": 1233,
      "Ġtre": 1234,
      "Ġdep": 1235,
      "...'": 1236,
      "ately": 1237,
      "Ġterm": 1238,
      "Ġsat": 1239,
      "Ġunderst": 1240,
      "Ġdirect": 1241,
      "alth": 1242,
      "dd": 1243,
      "ĠAr": 1244,
      "aff": 1245,
      "Ġtowards": 1246,
      "ains": 1247,
      "Ġweek": 1248,
      "Ġval": 1249,
      "Ġwar": 1250,
      "Ġchang": 1251,
      "Ġsure": 1252,
      "ality": 1253,
      "Ġarea": 1254,
      "Ġer": 1255,
      "orth": 1256,
      "Ġcontrol": 1257,
      "Ġwoman": 1258,
      "ins": 1259,
      "aining": 1260,
      "ondon": 1261,
      "Ġest": 1262,
      "Ġland": 1263,
      "Ġlanguage": 1264,
      "What": 1265,
      "ising": 1266,
      "Ġview": 1267,
      "Ġfur": 1268,
      "Ġalmost": 1269,
      "Ġmoment": 1270,
      "Ġkeep": 1271,
      "riend": 1272,
      "IN": 1273,
      "Ġhalf": 1274,
      "Ġonce": 1275,
      "ĠLondon": 1276,
      "oney": 1277,
      "Ġwhy": 1278,
      "Ġmove": 1279,
      "Ġart": 1280,
      "arl": 1281,
      "ives": 1282,
      "Ġsays": 1283,
      "ĠThat": 1284,
      "Ġbetter": 1285,
      "Ġtalk": 1286,
      "iron": 1287,
      "Ġvis": 1288,
      "ours": 1289,
      "Ġsil": 1290,
      "ery": 1291,
      "No": 1292,
      "Ġacross": 1293,
      "ee": 1294,
      "Ġlooking": 1295,
      "ering": 1296,
      "Ġschool": 1297,
      "ploy": 1298,
      "Ġair": 1299,
      "Ġma": 1300,
      "Ġinformation": 1301,
      "Ġgirl": 1302,
      "fic": 1303,
      "Ġenough": 1304,
      "Ġdesign": 1305,
      "though": 1306,
      "Ġbest": 1307,
      "Ġanything": 1308,
      "Ġtoget": 1309,
      "Ġbuild": 1310,
      "Ġtogether": 1311,
      "Ġho": 1312,
      "ash": 1313,
      "ense": 1314,
      "rown": 1315,
      "Ġmind": 1316,
      "Ġkind": 1317,
      "ract": 1318,
      "Ġresult": 1319,
      "ral": 1320,
      "Ġsince": 1321,
      "fl": 1322,
      "ĠSh": 1323,
      "vernment": 1324,
      "Ġste": 1325,
      "Ġsex": 1326,
      "ready": 1327,
      "ĠHer": 1328,
      "Ġdem": 1329,
      "Ġwhole": 1330,
      "Ġwindow": 1331,
      "raph": 1332,
      "ivid": 1333,
      "yd": 1334,
      "Ġprogram": 1335,
      "ier": 1336,
      "Ġnext": 1337,
      "Ġdone": 1338,
      "Ġlove": 1339,
      "rodu": 1340,
      "ized": 1341,
      "tem": 1342,
      "Ġshort": 1343,
      "sw": 1344,
      "Ġsit": 1345,
      "Ġdri": 1346,
      "ER": 1347,
      "Ġgiven": 1348,
      "Ġexperi": 1349,
      "Ġbehind": 1350,
      "Ġmeet": 1351,
      "ĠThen": 1352,
      "Ġbusiness": 1353,
      "Ġfore": 1354,
      "Ġwanted": 1355,
      "uro": 1356,
      "Ġpossible": 1357,
      "ĠSc": 1358,
      "Ġexpect": 1359,
      "ael": 1360,
      "vious": 1361,
      "Ġbas": 1362,
      "Ġeduc": 1363,
      "osp": 1364,
      "Ġequ": 1365,
      "ides": 1366,
      "Ġalready": 1367,
      "uss": 1368,
      "con": 1369,
      "Ġsupport": 1370,
      "ger": 1371,
      "io": 1372,
      "rence": 1373,
      "Ġinvol": 1374,
      "room": 1375,
      "Ġdef": 1376,
      "Ġcond": 1377,
      "Ġsuc": 1378,
      "Ġpast": 1379,
      "Ġsort": 1380,
      "Ġoper": 1381,
      "ned": 1382,
      "ĠLe": 1383,
      "Ġmonth": 1384,
      "Ġtop": 1385,
      "Ġbody": 1386,
      "Ġlater": 1387,
      "Ġstre": 1388,
      "Ġorganis": 1389,
      "Ġwall": 1390,
      "Ġmus": 1391,
      "Ġalong": 1392,
      "Ġtaken": 1393,
      "Ġcost": 1394,
      "ĠOne": 1395,
      "Ġavail": 1396,
      "jor": 1397,
      "Ġever": 1398,
      "Ġperhaps": 1399,
      "ital": 1400,
      "augh": 1401,
      "Ġpresent": 1402,
      "ON": 1403,
      "Ġhands": 1404,
      "oor": 1405,
      "Ġpost": 1406,
      "ries": 1407,
      "Ġrese": 1408,
      "rist": 1409,
      "Ġmatter": 1410,
      "ham": 1411,
      "Ġcap": 1412,
      "cil": 1413,
      "ggest": 1414,
      "Ġstate": 1415,
      "ware": 1416,
      "Ġpop": 1417,
      "ĠCo": 1418,
      "Ġallow": 1419,
      "Ġindust": 1420,
      "Ġproduct": 1421,
      "ued": 1422,
      "Ġes": 1423,
      "Ġfun": 1424,
      "Ġple": 1425,
      "Ġgrow": 1426,
      "Ġsuggest": 1427,
      "urope": 1428,
      "Ġconst": 1429,
      "Ġfriend": 1430,
      "Ġpress": 1431,
      "anc": 1432,
      "Ġspec": 1433,
      "Ġexample": 1434,
      "Ġmanag": 1435,
      "ĠCl": 1436,
      "Ġlow": 1437,
      "Ġcalled": 1438,
      "Ġable": 1439,
      "Ġclass": 1440,
      "Ġreturn": 1441,
      "ĠHis": 1442,
      "Ġdou": 1443,
      "Ġwhether": 1444,
      "Ġclose": 1445,
      "ĠEurope": 1446,
      "Ġpaper": 1447,
      "Ġleast": 1448,
      "Ġconsider": 1449,
      "Ġsound": 1450,
      "Ġprop": 1451,
      "Ġquestion": 1452,
      "Ġprom": 1453,
      "Ġremem": 1454,
      "Ġreason": 1455,
      "iles": 1456,
      "Ġgroup": 1457,
      "ividual": 1458,
      "Ġprob": 1459,
      "bo": 1460,
      "Ġpay": 1461,
      "ĠTo": 1462,
      "Ġhair": 1463,
      "nded": 1464,
      "Ġfurther": 1465,
      "ient": 1466,
      "Ġearly": 1467,
      "Ġareas": 1468,
      "Ġdays": 1469,
      "Yes": 1470,
      "Ġerm": 1471,
      "Ġbegan": 1472,
      "Ġchange": 1473,
      "Ġwond": 1474,
      "atic": 1475,
      "Ġjob": 1476,
      "Ġtechn": 1477,
      "Ġunderstand": 1478,
      "ales": 1479,
      "Ġvoice": 1480,
      "Ġeither": 1481,
      "Ġopp": 1482,
      "used": 1483,
      "Ġworking": 1484,
      "Ġcountry": 1485,
      "br": 1486,
      "ograph": 1487,
      "Ġfac": 1488,
      "Ġhum": 1489,
      "Ġask": 1490,
      "Ġelse": 1491,
      "Ġavailable": 1492,
      "Ġlear": 1493,
      "Ġred": 1494,
      "ĠNo": 1495,
      "ĠNew": 1496,
      "Ġcult": 1497,
      "ully": 1498,
      "Ġmed": 1499,
      "Ġmoney": 1500,
      "Ġfamily": 1501,
      "ached": 1502,
      "ĠJo": 1503,
      "selves": 1504,
      "Ġprin": 1505,
      "Ġlot": 1506,
      "iled": 1507,
      "ances": 1508,
      "Ġmajor": 1509,
      "ison": 1510,
      "Ġindividual": 1511,
      "iling": 1512,
      "ize": 1513,
      "agement": 1514,
      "Ġlist": 1515,
      "Ġsol": 1516,
      "Ġherself": 1517,
      "ĠDon": 1518,
      "Ġheard": 1519,
      "Ġill": 1520,
      "Ġspecial": 1521,
      "]:": 1522,
      "Ġter": 1523,
      "right": 1524,
      "Ġorder": 1525,
      "ĠNot": 1526,
      "Ġrad": 1527,
      "arent": 1528,
      "Ġdiffic": 1529,
      "Ġdifficult": 1530,
      "Ġreport": 1531,
      "oon": 1532,
      "Ġhig": 1533,
      "Ġhaving": 1534,
      "ung": 1535,
      "Ġfield": 1536,
      "ton": 1537,
      "Ġbit": 1538,
      "orn": 1539,
      "Ġwasn": 1540,
      "Ġclear": 1541,
      "ulation": 1542,
      "Ġsing": 1543,
      "hers": 1544,
      "Ġdevelopment": 1545,
      "ases": 1546,
      "Ġduring": 1547,
      "Ġbig": 1548,
      "cu": 1549,
      "Ġyet": 1550,
      "lf": 1551,
      "ology": 1552,
      "Ġlay": 1553,
      "Ġinde": 1554,
      "erg": 1555,
      "airs": 1556,
      "ety": 1557,
      "Ġjo": 1558,
      "Ġothers": 1559,
      "Ġfront": 1560,
      "ishing": 1561,
      "akes": 1562,
      "bed": 1563,
      "light": 1564,
      "ĠAll": 1565,
      "Ġabove": 1566,
      "Ġsuccess": 1567,
      "sp": 1568,
      "aterial": 1569,
      "Ġmaking": 1570,
      "Ġheld": 1571,
      "ird": 1572,
      "ats": 1573,
      "itions": 1574,
      "Ġbecome": 1575,
      "iod": 1576,
      "iting": 1577,
      "Ġsix": 1578,
      "by": 1579,
      "Ġstood": 1580,
      "ĠHowever": 1581,
      "Ġname": 1582,
      "utes": 1583,
      "ĠTr": 1584,
      "idence": 1585,
      "Ġconcern": 1586,
      "ili": 1587,
      "ĠEd": 1588,
      "ug": 1589,
      "iddle": 1590,
      "Ġbegin": 1591,
      "ĠMer": 1592,
      "ĠBritish": 1593,
      "Ġten": 1594,
      "ĠMa": 1595,
      "ured": 1596,
      "Ġbene": 1597,
      "que": 1598,
      "Ġcir": 1599,
      "ĠThese": 1600,
      "ĠAd": 1601,
      "AT": 1602,
      "par": 1603,
      "Ġprobably": 1604,
      "Ġpolit": 1605,
      "ouncil": 1606,
      "Ġhous": 1607,
      "Ġprofess": 1608,
      "not": 1609,
      "uff": 1610,
      "Ġhold": 1611,
      "to": 1612,
      "Ġperiod": 1613,
      "Ġeducation": 1614,
      "Ġmaterial": 1615,
      "fully": 1616,
      "Ġbar": 1617,
      "Ġhowever": 1618,
      "Ġsoft": 1619,
      "We": 1620,
      "illed": 1621,
      "ressed": 1622,
      "ĠSome": 1623,
      "ills": 1624,
      "Ġdesc": 1625,
      "Ġfall": 1626,
      "Ġmeans": 1627,
      "aching": 1628,
      "ĠEnglish": 1629,
      "Ġfather": 1630,
      "Ġlim": 1631,
      "Ġrelations": 1632,
      "Ġpolic": 1633,
      "Ġground": 1634,
      "Ġrange": 1635,
      "Ġgave": 1636,
      "Ġsn": 1637,
      "Ġstruct": 1638,
      "ified": 1639,
      "Ġwin": 1640,
      "pping": 1641,
      "work": 1642,
      "ency": 1643,
      "tered": 1644,
      "bert": 1645,
      "ibility": 1646,
      "Ġtyp": 1647,
      "Ġgovernment": 1648,
      "ames": 1649,
      "ĠOr": 1650,
      "Ġproblems": 1651,
      "ydia": 1652,
      "He": 1653,
      "aid": 1654,
      "Ġarg": 1655,
      "ny": 1656,
      "Ġsle": 1657,
      "Ġfire": 1658,
      "eth": 1659,
      "soci": 1660,
      "Ġcut": 1661,
      "Ġdi": 1662,
      "Ġfre": 1663,
      "Ġenv": 1664,
      "Ġlaw": 1665,
      "Ġproblem": 1666,
      "Ġhor": 1667,
      "alked": 1668,
      "Ġfive": 1669,
      "AR": 1670,
      "Ġhot": 1671,
      "Ġdraw": 1672,
      "ctor": 1673,
      "ĠLydia": 1674,
      "Ġemploy": 1675,
      "Ġtable": 1676,
      "aced": 1677,
      "Ġsoci": 1678,
      "Ġoutside": 1679,
      "aster": 1680,
      "Ġthemselves": 1681,
      "Ġidea": 1682,
      "Ġiss": 1683,
      "els": 1684,
      "att": 1685,
      "ening": 1686,
      "face": 1687,
      "Ġrespons": 1688,
      "Ġdro": 1689,
      "Ġproper": 1690,
      "itted": 1691,
      "itting": 1692,
      "Ġstrong": 1693,
      "ories": 1694,
      "where": 1695,
      "cour": 1696,
      "Ġmodern": 1697,
      "itc": 1698,
      "Oh": 1699,
      "Ġline": 1700,
      "Ġtele": 1701,
      "Ġroad": 1702,
      "Ġoffice": 1703,
      "Ġredu": 1704,
      "Ġparticular": 1705,
      "Ġpar": 1706,
      "ularly": 1707,
      "rought": 1708,
      "ges": 1709,
      "Ġori": 1710,
      "Ġdoing": 1711,
      "Ġresearch": 1712,
      "Ġwalk": 1713,
      "Ġgard": 1714,
      "But": 1715,
      "co": 1716,
      "ration": 1717,
      "chie": 1718,
      "Ġpot": 1719,
      "lling": 1720,
      "Ġitself": 1721,
      "ination": 1722,
      "Ġfree": 1723,
      "Ġsoon": 1724,
      "Ġrece": 1725,
      "Ġhigher": 1726,
      "ream": 1727,
      "Ġbad": 1728,
      "Ġexist": 1729,
      "ĠPl": 1730,
      "ively": 1731,
      "ring": 1732,
      "ane": 1733,
      "Ġactiv": 1734,
      "Ġca": 1735,
      "Ġtrad": 1736,
      "Ġslow": 1737,
      "And": 1738,
      "com": 1739,
      "my": 1740,
      "Ġadm": 1741,
      "Ġneeds": 1742,
      "Ġcommunity": 1743,
      "vent": 1744,
      "Ġcrit": 1745,
      "Ġword": 1746,
      "ission": 1747,
      "Ġservices": 1748,
      "Ġestab": 1749,
      "aim": 1750,
      "hy": 1751,
      "Ġdetail": 1752,
      "Ġteac": 1753,
      "Ġeff": 1754,
      "ĠCar": 1755,
      "Ġaccept": 1756,
      "ironment": 1757,
      "Ġlate": 1758,
      "Ġsexual": 1759,
      "Ġpat": 1760,
      "ential": 1761,
      "Ġmorning": 1762,
      "fer": 1763,
      "ister": 1764,
      "mm": 1765,
      "ĠWith": 1766,
      "Ġdeep": 1767,
      "ĠPro": 1768,
      "ES": 1769,
      "Ġhealth": 1770,
      "Ġknown": 1771,
      "Ġkey": 1772,
      "oke": 1773,
      "Ġra": 1774,
      "Ġquick": 1775,
      "Well": 1776,
      "umb": 1777,
      "conom": 1778,
      "Ġele": 1779,
      "aces": 1780,
      "ilt": 1781,
      "Ġpriv": 1782,
      "unt": 1783,
      "Ġwords": 1784,
      "Ġsense": 1785,
      "ĠPr": 1786,
      "ush": 1787,
      "meric": 1788,
      "ron": 1789,
      "ĠIs": 1790,
      "Ġamong": 1791,
      "body": 1792,
      "Ġmag": 1793,
      "ald": 1794,
      "lly": 1795,
      "por": 1796,
      "Ġbrought": 1797,
      "ĠAfter": 1798,
      "ump": 1799,
      "head": 1800,
      "Ġpull": 1801,
      "Ġcharac": 1802,
      "Ġve": 1803,
      "ster": 1804,
      "Ġlonger": 1805,
      "Ġmanagement": 1806,
      "OR": 1807,
      "ĠBet": 1808,
      "Ġwatch": 1809,
      "Ġtried": 1810,
      "Ġwon": 1811,
      "ĠBritain": 1812,
      "fact": 1813,
      "ization": 1814,
      "Ġstay": 1815,
      "Ġsever": 1816,
      "Ġposition": 1817,
      "AN": 1818,
      "king": 1819,
      "fort": 1820,
      "lic": 1821,
      "Ġnat": 1822,
      "ĠChrist": 1823,
      "like": 1824,
      "igure": 1825,
      "Ġwood": 1826,
      "ption": 1827,
      "Ġgroups": 1828,
      "iday": 1829,
      "Ġident": 1830,
      "ived": 1831,
      "ycl": 1832,
      "lled": 1833,
      "That": 1834,
      "ĠAct": 1835,
      "Ġglass": 1836,
      "Ġservice": 1837,
      "ĠMy": 1838,
      "Ġupon": 1839,
      "Ġgeneral": 1840,
      "Ġwide": 1841,
      "Ġcouldn": 1842,
      "Ġcompany": 1843,
      "read": 1844,
      "ĠLi": 1845,
      "Ġbelieve": 1846,
      "EN": 1847,
      "Ġstaff": 1848,
      "iffe": 1849,
      "Ġnecess": 1850,
      "Ġauthority": 1851,
      "Ġactually": 1852,
      "Ġinfl": 1853,
      "cially": 1854,
      "Ġobs": 1855,
      "Ġmemb": 1856,
      "cret": 1857,
      "Ġcou": 1858,
      "ĠAmeric": 1859,
      "redit": 1860,
      "ustom": 1861,
      "Ġtrying": 1862,
      "Ġsomeone": 1863,
      "Ġsubject": 1864,
      "Ġtimes": 1865,
      "ots": 1866,
      "Ġalthough": 1867,
      "Ġaccount": 1868,
      "Ġaction": 1869,
      "Ġtown": 1870,
      "ply": 1871,
      "uation": 1872,
      "Ġdeal": 1873,
      "hod": 1874,
      "ateg": 1875,
      "Ġintrodu": 1876,
      "Ġapproach": 1877,
      "Ġaut": 1878,
      "Ġpie": 1879,
      "Ġleave": 1880,
      "ledge": 1881,
      "son": 1882,
      "Ġinside": 1883,
      "Ġseveral": 1884,
      "Ġtem": 1885,
      "ĠCon": 1886,
      "Ġobject": 1887,
      "Ġexperience": 1888,
      "Ġage": 1889,
      "Ġpage": 1890,
      "Ġtry": 1891,
      "Ġlikely": 1892,
      "Ġterms": 1893,
      "Ġtri": 1894,
      "asing": 1895,
      "Ġsurpr": 1896,
      "Ġmembers": 1897,
      "ING": 1898,
      "ead": 1899,
      "ler": 1900,
      "Ġmot": 1901,
      "aby": 1902,
      "Ġnear": 1903,
      "ogn": 1904,
      "ses": 1905,
      "Ġstudents": 1906,
      "Ġswe": 1907,
      "Ġfloor": 1908,
      "Ġsty": 1909,
      "ĠSy": 1910,
      "Ġcompet": 1911,
      "hel": 1912,
      "Ġmoved": 1913,
      "Ġcirc": 1914,
      "Ġprovide": 1915,
      "Ġdeath": 1916,
      "Ġpick": 1917,
      "Ġpict": 1918,
      "Ġnational": 1919,
      "Ġgone": 1920,
      "Ġbreak": 1921,
      "of": 1922,
      "ability": 1923,
      "resent": 1924,
      "mber": 1925,
      "over": 1926,
      "ĠTHE": 1927,
      "Ġbecame": 1928,
      "Ġminutes": 1929,
      "Ġfood": 1930,
      "Ġpen": 1931,
      "Ġremember": 1932,
      "rew": 1933,
      "Ġself": 1934,
      "isk": 1935,
      "ĠQ": 1936,
      "Ġachie": 1937,
      "ament": 1938,
      "Ġcoming": 1939,
      "ĠGerm": 1940,
      "ĠNow": 1941,
      "Ġmethod": 1942,
      "Ġelect": 1943,
      "Ġabs": 1944,
      "ĠCan": 1945,
      "Ġsun": 1946,
      "Ġorigin": 1947,
      "rid": 1948,
      "Ġdesk": 1949,
      "Ġphot": 1950,
      "Ġhist": 1951,
      "ression": 1952,
      "Ġrev": 1953,
      "ĠSp": 1954,
      "itte": 1955,
      "Ġfing": 1956,
      "aut": 1957,
      "Ġsent": 1958,
      "Ġtext": 1959,
      "Ġgreen": 1960,
      "use": 1961,
      "dden": 1962,
      "eah": 1963,
      "ises": 1964,
      "medi": 1965,
      "Ġprote": 1966,
      "Ġenvironment": 1967,
      "Th": 1968,
      "nding": 1969,
      "ony": 1970,
      "ĠGod": 1971,
      "Ġfeet": 1972,
      "Ġdoesn": 1973,
      "ken": 1974,
      "Ġorganisation": 1975,
      "irt": 1976,
      "olution": 1977,
      "Ġeverything": 1978,
      "enty": 1979,
      "Ġrepl": 1980,
      "Ġvol": 1981,
      "Ġquality": 1982,
      "aving": 1983,
      "Ġevening": 1984,
      "Ġmonths": 1985,
      "Ġshall": 1986,
      "Ġcover": 1987,
      "ded": 1988,
      "Ġblood": 1989,
      "Ġneeded": 1990,
      "ining": 1991,
      "Ġusing": 1992,
      "Ġcommon": 1993,
      "oman": 1994,
      "Ġtype": 1995,
      "band": 1996,
      "Ġsci": 1997,
      "Ġdead": 1998,
      "aged": 1999,
      "Ġgetting": 2000,
      "Ġrelationship": 2001,
      "opped": 2002,
      "Ġcomplete": 2003,
      "Ġsqu": 2004,
      "ift": 2005,
      "Ġcheck": 2006,
      "Ġsudden": 2007,
      "Ġbuilding": 2008,
      "Ġtou": 2009,
      "ator": 2010,
      "Ġhus": 2011,
      "ĠBy": 2012,
      "ĠMar": 2013,
      "Ġfollowing": 2014,
      "cent": 2015,
      "gth": 2016,
      "Ġboy": 2017,
      "Ġsuper": 2018,
      "Ġwouldn": 2019,
      "Ġrecogn": 2020,
      "ior": 2021,
      "Ġsometimes": 2022,
      "IT": 2023,
      "ford": 2024,
      "Ġhol": 2025,
      "Ġeconom": 2026,
      "ĠHel": 2027,
      "Ġansw": 2028,
      "Ġperform": 2029,
      "Ġbott": 2030,
      "Ġcolour": 2031,
      "Ġsingle": 2032,
      "ĠInd": 2033,
      "Ġbring": 2034,
      "Ġparticularly": 2035,
      "unch": 2036,
      "oint": 2037,
      "Ġ>": 2038,
      "Ġwife": 2039,
      "istic": 2040,
      "Ġeight": 2041,
      "pper": 2042,
      "iven": 2043,
      "Ġplanning": 2044,
      "Ġpack": 2045,
      "itchen": 2046,
      "ilities": 2047,
      "ivers": 2048,
      "Ġdev": 2049,
      "Ġarri": 2050,
      "Ġclaim": 2051,
      "Ġhuman": 2052,
      "ches": 2053,
      "ences": 2054,
      "Ġur": 2055,
      "Ġstri": 2056,
      "Ġhope": 2057,
      "bt": 2058,
      "Ġfail": 2059,
      "Ġmil": 2060,
      "Ġheav": 2061,
      "Ġcustom": 2062,
      "ops": 2063,
      "Ġprint": 2064,
      "ĠUK": 2065,
      "ĠSte": 2066,
      "Ġspeak": 2067,
      "itional": 2068,
      "Ġpractice": 2069,
      "Ġcharacter": 2070,
      "tic": 2071,
      "iter": 2072,
      "Ġet": 2073,
      "iding": 2074,
      "achael": 2075,
      "Ġsignific": 2076,
      "itch": 2077,
      "ored": 2078,
      "ushed": 2079,
      "Ġbooks": 2080,
      "Ġtaking": 2081,
      "itive": 2082,
      "resh": 2083,
      "Ġserious": 2084,
      "Ġseems": 2085,
      "achaela": 2086,
      "Ġrele": 2087,
      "Ġstep": 2088,
      "ulf": 2089,
      "Ġcold": 2090,
      "Ġimpro": 2091,
      "anced": 2092,
      "ĠRachaela": 2093,
      "Ġcannot": 2094,
      "rial": 2095,
      "ret": 2096,
      "Ġliving": 2097,
      "Ġdemand": 2098,
      "urt": 2099,
      "Ġvill": 2100,
      "cipl": 2101,
      "AL": 2102,
      "ilar": 2103,
      "Ġmusic": 2104,
      "aught": 2105,
      "Ġwrong": 2106,
      "Ġslight": 2107,
      "Ġhappened": 2108,
      "Ġdepart": 2109,
      "ĠJoh": 2110,
      "Ġlost": 2111,
      "Ġusually": 2112,
      "cing": 2113,
      "Ġwalked": 2114,
      "Ġisn": 2115,
      "Ġdescrib": 2116,
      "Ġdom": 2117,
      "ĠMac": 2118,
      "Ġfair": 2119,
      "Ġtot": 2120,
      "Ġang": 2121,
      "Ġstarted": 2122,
      "Ġwarm": 2123,
      "Ġreached": 2124,
      "Ġkept": 2125,
      "Ġbased": 2126,
      "Ġsepar": 2127,
      "ĠEx": 2128,
      "Ġpolitical": 2129,
      "Ġcross": 2130,
      "Ġrepresent": 2131,
      "Ġoffer": 2132,
      "Ġoffic": 2133,
      "Ġgarden": 2134,
      "Ġfund": 2135,
      "Ġsystems": 2136,
      "Ġheart": 2137,
      "Ġarr": 2138,
      "joy": 2139,
      "asure": 2140,
      "Ġhear": 2141,
      "ata": 2142,
      "ĠCle": 2143,
      "Ġtherefore": 2144,
      "tempt": 2145,
      "urch": 2146,
      "aint": 2147,
      "Ġalone": 2148,
      "Ġnatural": 2149,
      "Ġnon": 2150,
      "utions": 2151,
      "Ġann": 2152,
      "pecially": 2153,
      "Ġkitchen": 2154,
      "ference": 2155,
      "Ġimag": 2156,
      "Ġ#####": 2157,
      "Ġstudy": 2158,
      "ming": 2159,
      "ows": 2160,
      "sequ": 2161,
      "Ġappear": 2162,
      "de": 2163,
      "ks": 2164,
      "ingu": 2165,
      "Ġpolice": 2166,
      "gal": 2167,
      "Ġflat": 2168,
      "Ġfut": 2169,
      "Ġpatter": 2170,
      "Ġstat": 2171,
      "Ġrecord": 2172,
      "ĠMrs": 2173,
      "RE": 2174,
      "Ġmyself": 2175,
      "Ġpurp": 2176,
      "Ġtas": 2177,
      "ĠTe": 2178,
      "ĠCard": 2179,
      "Ġsuff": 2180,
      "ources": 2181,
      "Ġeng": 2182,
      "Ġrole": 2183,
      "Ġcontact": 2184,
      "ĠCharl": 2185,
      "Ġsurface": 2186,
      "Ġhusband": 2187,
      "Ġinvest": 2188,
      "ĠBetty": 2189,
      "oes": 2190,
      "Ġbreat": 2191,
      "adem": 2192,
      "Ġopened": 2193,
      "let": 2194,
      "Ġdiscuss": 2195,
      "Ġgreater": 2196,
      "Ġjud": 2197,
      "Ġago": 2198,
      "Ġearli": 2199,
      "ĠPer": 2200,
      "Ġsmiled": 2201,
      "Ġcentury": 2202,
      "Ġwrit": 2203,
      "arr": 2204,
      "Ġknowledge": 2205,
      "Ġintern": 2206,
      "ĠNorth": 2207,
      "Ġinstit": 2208,
      "Ġwat": 2209,
      "Ġmass": 2210,
      "Ġproduction": 2211,
      "Ġinvolved": 2212,
      "ĠFin": 2213,
      "plic": 2214,
      "Ġquiet": 2215,
      "Ġcompan": 2216,
      "Ġvisit": 2217,
      "Ġenjoy": 2218,
      "Ġsimply": 2219,
      "Ġcolle": 2220,
      "ittee": 2221,
      "acy": 2222,
      "Ġinflu": 2223,
      "inct": 2224,
      "vert": 2225,
      "hern": 2226,
      "Ġexcept": 2227,
      "Ġcomput": 2228,
      "Ġcredit": 2229,
      "rench": 2230,
      "rief": 2231,
      "ĠAb": 2232,
      "Ġspace": 2233,
      "Ġthinking": 2234,
      "Ġevidence": 2235,
      "rs": 2236,
      "ĠCouncil": 2237,
      "Ġfollowed": 2238,
      "Ġnorm": 2239,
      "ĠLu": 2240,
      "ĠEven": 2241,
      "play": 2242,
      "rying": 2243,
      "port": 2244,
      "yond": 2245,
      "Ġbir": 2246,
      "ĠWycl": 2247,
      "ĠChar": 2248,
      "Ġbrother": 2249,
      "ones": 2250,
      "Ġcop": 2251,
      "orry": 2252,
      "aves": 2253,
      "ĠJohn": 2254,
      "gar": 2255,
      "Ġtrou": 2256,
      "ĠBl": 2257,
      "Ġmount": 2258,
      "Ġindic": 2259,
      "Ġobvious": 2260,
      "Ġfuture": 2261,
      "Ġchanges": 2262,
      "ĠEuropean": 2263,
      "ĠWycliffe": 2264,
      "Ġfem": 2265,
      "Ġhours": 2266,
      "ĠOff": 2267,
      "Ġarm": 2268,
      "ban": 2269,
      "Ġpattern": 2270,
      "val": 2271,
      "Ġbelow": 2272,
      "Ġincluding": 2273,
      "Ġthreat": 2274,
      "ously": 2275,
      "Ġtrue": 2276,
      "Ġeye": 2277,
      "Ġmakes": 2278,
      "ief": 2279,
      "board": 2280,
      "ĠCardiff": 2281,
      "Ġled": 2282,
      "Ġcomes": 2283,
      "Ġking": 2284,
      "ordin": 2285,
      "Ġcentre": 2286,
      "Ġgrey": 2287,
      "Ġprogramme": 2288,
      "Ġce": 2289,
      "add": 2290,
      "Ġprovided": 2291,
      "arth": 2292,
      "Ġfoot": 2293,
      "Ġfeeling": 2294,
      "fect": 2295,
      "Ġassess": 2296,
      "Ġsal": 2297,
      "ION": 2298,
      "oured": 2299,
      "Ġaccom": 2300,
      "ĠHoward": 2301,
      "Ġcertainly": 2302,
      "ĠGre": 2303,
      "Ġeasy": 2304,
      "Ġaff": 2305,
      "Ġbur": 2306,
      "isl": 2307,
      "Ġanal": 2308,
      "Ġlive": 2309,
      "Ġcurrent": 2310,
      "aughter": 2311,
      "ault": 2312,
      "ians": 2313,
      "ĠMay": 2314,
      "Ġconv": 2315,
      "Ġprivate": 2316,
      "rated": 2317,
      "come": 2318,
      "ze": 2319,
      "Ġstory": 2320,
      "Ġforward": 2321,
      "Ġprep": 2322,
      "Ġvarious": 2323,
      "ique": 2324,
      "Ġmill": 2325,
      "Ġstra": 2326,
      "Ġamount": 2327,
      "Ġbaby": 2328,
      "ann": 2329,
      "Ġsimilar": 2330,
      "ta": 2331,
      "ium": 2332,
      "atures": 2333,
      "ĠGo": 2334,
      "ĠNational": 2335,
      "ude": 2336,
      "Ġess": 2337,
      "Ġbeaut": 2338,
      "Ġespecially": 2339,
      "RO": 2340,
      "Ġassoci": 2341,
      "Ġdeg": 2342,
      "Ġblue": 2343,
      "inet": 2344,
      "Ġmouth": 2345,
      "ĠPe": 2346,
      "Ġnature": 2347,
      "Ġyes": 2348,
      "ĠGe": 2349,
      "Ġpolicy": 2350,
      "Ġteleph": 2351,
      "Ġsize": 2352,
      "Ġattempt": 2353,
      "mod": 2354,
      "ĠHar": 2355,
      "rugg": 2356,
      "Ġbuy": 2357,
      "Ġprofessional": 2358,
      "inist": 2359,
      "Ġcm": 2360,
      "Ġwhose": 2361,
      "Ġimmedi": 2362,
      "Ġassum": 2363,
      "erc": 2364,
      "Ġways": 2365,
      "Ġmur": 2366,
      "af": 2367,
      "uct": 2368,
      "orrow": 2369,
      "Ġla": 2370,
      "Ġtraining": 2371,
      "spect": 2372,
      "Ġbill": 2373,
      "ĠFrom": 2374,
      "Ġrequired": 2375,
      "Ġtreat": 2376,
      "Ġdepend": 2377,
      "Ġstraight": 2378,
      "Ġbank": 2379,
      "oud": 2380,
      "lement": 2381,
      "Ġarms": 2382,
      "ĠCommunity": 2383,
      "for": 2384,
      "sc": 2385,
      "Ġcity": 2386,
      "Ġdiv": 2387,
      "ĠSind": 2388,
      "Ġanim": 2389,
      "Ġphys": 2390,
      "Ġinclude": 2391,
      "Ġfriends": 2392,
      "ĠSindee": 2393,
      "owers": 2394,
      "Ġaccess": 2395,
      "Ġcollect": 2396,
      "Ġmeeting": 2397,
      "Ġstructure": 2398,
      "ĠHelen": 2399,
      "ially": 2400,
      "urs": 2401,
      "Ġsum": 2402,
      "antly": 2403,
      "Ġsche": 2404,
      "Ġdrink": 2405,
      "Ġinit": 2406,
      "Ġcourses": 2407,
      "Ġevent": 2408,
      "ED": 2409,
      "Ã¨": 2410,
      "nds": 2411,
      "Ġdam": 2412,
      "Ġstop": 2413,
      "oose": 2414,
      "Ġsaying": 2415,
      "Ġsituation": 2416,
      "Ġrespect": 2417,
      "Ġpersonal": 2418,
      "bs": 2419,
      "Ġbeyond": 2420,
      "Ġworth": 2421,
      "ĠGr": 2422,
      "Ġunc": 2423,
      "Ġacadem": 2424,
      "avour": 2425,
      "Ġregard": 2426,
      "Ġlegs": 2427,
      "Ġexpected": 2428,
      "Ġbenef": 2429,
      "Ġsens": 2430,
      "Ġconcept": 2431,
      "Ġcentral": 2432,
      "isions": 2433,
      "ĠFrench": 2434,
      "ensive": 2435,
      "Ġsubst": 2436,
      "Ġanswer": 2437,
      "Ġlar": 2438,
      "Ġcontr": 2439,
      "Ġattention": 2440,
      "There": 2441,
      "ror": 2442,
      "Ġfarm": 2443,
      "Ġclot": 2444,
      "Ġlegisl": 2445,
      "Ġsleep": 2446,
      "Ġcook": 2447,
      "arily": 2448,
      "ĠMan": 2449,
      "Ġrate": 2450,
      "Ġculture": 2451,
      "imin": 2452,
      "ĠEngland": 2453,
      "Ġsuddenly": 2454,
      "rop": 2455,
      "Ġchair": 2456,
      "Ġteaching": 2457,
      "Ġskin": 2458,
      "Ġnecessary": 2459,
      "bers": 2460,
      "Ġforce": 2461,
      "ils": 2462,
      "ĠPh": 2463,
      "Ġholiday": 2464,
      "app": 2465,
      "ex": 2466,
      "Ġattract": 2467,
      "itor": 2468,
      "ĠRoman": 2469,
      "Ġsimple": 2470,
      "Ġmiddle": 2471,
      "Ġdress": 2472,
      "Ġcontrib": 2473,
      "Ġclearly": 2474,
      "Ġson": 2475,
      "Ġlab": 2476,
      "omes": 2477,
      "Ġclos": 2478,
      "Ġcal": 2479,
      "Ġfresh": 2480,
      "ify": 2481,
      "Ġsett": 2482,
      "Ġmid": 2483,
      "bing": 2484,
      "Ġparent": 2485,
      "Ġlif": 2486,
      "Ġoccas": 2487,
      "Ġquickly": 2488,
      "eter": 2489,
      "Ġanyone": 2490,
      "Ġvalue": 2491,
      "lished": 2492,
      "Ġrape": 2493,
      "ĠLuc": 2494,
      "Ġpublishing": 2495,
      "Ġrequire": 2496,
      "Ġearlier": 2497,
      "ging": 2498,
      "ners": 2499,
      "yn": 2500,
      "Ġvi": 2501,
      "Ġfell": 2502,
      "Ġcommun": 2503,
      "Ġaware": 2504,
      "Ġtoday": 2505,
      "ĠSw": 2506,
      "ceed": 2507,
      "ables": 2508,
      "Ġrock": 2509,
      "top": 2510,
      "Ġnod": 2511,
      "ĠTess": 2512,
      "Ġstopped": 2513,
      "Ġsea": 2514,
      "orts": 2515,
      "ological": 2516,
      "Ġlack": 2517,
      "Ġstock": 2518,
      "Ġteam": 2519,
      "Ġdisplay": 2520,
      "Ġbuilt": 2521,
      "Ġconcerned": 2522,
      "Ġworked": 2523,
      "Ġletter": 2524,
      "Ġtrees": 2525,
      "Ġmiss": 2526,
      "Ġski": 2527,
      "Ġwonder": 2528,
      "ope": 2529,
      "Ġru": 2530,
      "ĠPar": 2531,
      "atever": 2532,
      "Ġreflect": 2533,
      "Ġhorse": 2534,
      "ec": 2535,
      "iced": 2536,
      "anger": 2537,
      "Ġforms": 2538,
      "Ġdecided": 2539,
      "Ġchanged": 2540,
      "Ġpopulation": 2541,
      "Ġsitting": 2542,
      "Ġpath": 2543,
      "Ġproduced": 2544,
      "wh": 2545,
      "arrow": 2546,
      "Ġthird": 2547,
      "Ġbase": 2548,
      "ĠBern": 2549,
      "Ġcomb": 2550,
      "itten": 2551,
      "bit": 2552,
      "ients": 2553,
      "ris": 2554,
      "Ġtax": 2555,
      "apt": 2556,
      "Ġcosts": 2557,
      "Ġaim": 2558,
      "Ġge": 2559,
      "Ġdeterm": 2560,
      "ĠEdward": 2561,
      "Ġstyle": 2562,
      "OM": 2563,
      "Ġoffe": 2564,
      "Yeah": 2565,
      "rict": 2566,
      "ufact": 2567,
      "Ġmis": 2568,
      "Ġproject": 2569,
      "Ġmeant": 2570,
      "ixed": 2571,
      "Ġteachers": 2572,
      "Ġcouple": 2573,
      "Ġcreat": 2574,
      "astic": 2575,
      "ording": 2576,
      "IC": 2577,
      "Ġtheory": 2578,
      "Ġlink": 2579,
      "Ġexh": 2580,
      "Ġquestions": 2581,
      "sy": 2582,
      "Ġbag": 2583,
      "ctions": 2584,
      "Ġdocu": 2585,
      "oll": 2586,
      "ension": 2587,
      "ote": 2588,
      "ĠLord": 2589,
      "Ġincrease": 2590,
      "Ġtalking": 2591,
      "ĠRuth": 2592,
      "Ġpoor": 2593,
      "Ġprevious": 2594,
      "Ġrunning": 2595,
      "osphere": 2596,
      "IS": 2597,
      "ĠNe": 2598,
      "Ġclim": 2599,
      "Ġbroad": 2600,
      "iation": 2601,
      "ese": 2602,
      "ĠCont": 2603,
      "Ġtypes": 2604,
      "Ġvers": 2605,
      "Ġoil": 2606,
      "Ġgra": 2607,
      "Ġcontinued": 2608,
      "Ġlevels": 2609,
      "Ġtest": 2610,
      "ĠSouth": 2611,
      "ellow": 2612,
      "Ġsociety": 2613,
      "Ġbal": 2614,
      "idge": 2615,
      "Ġrisk": 2616,
      "Ġpublished": 2617,
      "Ġextra": 2618,
      "Ġmovement": 2619,
      "Ġlower": 2620,
      "ental": 2621,
      "ĠWill": 2622,
      "ĠDou": 2623,
      "ĠJust": 2624,
      "clus": 2625,
      "Ġpoll": 2626,
      "Ġbrown": 2627,
      "Ġestablished": 2628,
      "ĠCarol": 2629,
      "ĠZ": 2630,
      "Ġfine": 2631,
      "ĠWest": 2632,
      "Ġpicture": 2633,
      "Ġtelephone": 2634,
      "âĢ": 2635,
      "Ġhour": 2636,
      "Ġmach": 2637,
      "ĠTw": 2638,
      "Ġproduce": 2639,
      "Ġactivities": 2640,
      "itable": 2641,
      "ĠBr": 2642,
      "cip": 2643,
      "lied": 2644,
      "Ġcarried": 2645,
      "AS": 2646,
      "part": 2647,
      "Ġtail": 2648,
      "Ġkill": 2649,
      "Ġincreasing": 2650,
      "Ġpulled": 2651,
      "Ġslightly": 2652,
      "enth": 2653,
      "ĠAm": 2654,
      "iety": 2655,
      "Ġcomputer": 2656,
      "vey": 2657,
      "isted": 2658,
      "ĠGl": 2659,
      "Ġprim": 2660,
      "ĠEl": 2661,
      "Ġindustry": 2662,
      "Ġord": 2663,
      "ĠUS": 2664,
      "Ġconditions": 2665,
      "Ġslowly": 2666,
      "ĠLuci": 2667,
      "Ġhar": 2668,
      "ĠJim": 2669,
      "How": 2670,
      "OU": 2671,
      "enced": 2672,
      "Ġwish": 2673,
      "urity": 2674,
      "ript": 2675,
      "ruction": 2676,
      "Ġpassed": 2677,
      "Ġund": 2678,
      "avi": 2679,
      "Ġemb": 2680,
      "Ġbeginning": 2681,
      "If": 2682,
      "fr": 2683,
      "ghed": 2684,
      "Ġaspect": 2685,
      "Ġrain": 2686,
      "Ġtears": 2687,
      "undred": 2688,
      "Ġwaiting": 2689,
      "Not": 2690,
      "Ġsecret": 2691,
      "Ġneck": 2692,
      "Ġmanufact": 2693,
      "raft": 2694,
      "ips": 2695,
      "ĠWhy": 2696,
      "].'": 2697,
      "ĠMost": 2698,
      "ipment": 2699,
      "ney": 2700,
      "Ġpoints": 2701,
      "Ġindustrial": 2702,
      "Ġesc": 2703,
      "reed": 2704,
      "Ġpan": 2705,
      "ĠLÃ©": 2706,
      "orton": 2707,
      "Ġprison": 2708,
      "ĠDonna": 2709,
      "ĠLili": 2710,
      "Ġstanding": 2711,
      "Ġcases": 2712,
      "ancial": 2713,
      "ancy": 2714,
      "ĠHen": 2715,
      "Ġnote": 2716,
      "Ġmanager": 2717,
      "Ġhousing": 2718,
      "irst": 2719,
      "ĠBook": 2720,
      "Ġyourself": 2721,
      "kes": 2722,
      "Ġir": 2723,
      "Ġspecific": 2724,
      "ĠLucy": 2725,
      "So": 2726,
      "ina": 2727,
      "onie": 2728,
      "Ġdied": 2729,
      "Ġencour": 2730,
      "Ġhistory": 2731,
      "line": 2732,
      "Ġlau": 2733,
      "Ġran": 2734,
      "Ġrul": 2735,
      "ĠEast": 2736,
      "ĠGu": 2737,
      "Ġrecent": 2738,
      "Ġconcent": 2739,
      "Ġweeks": 2740,
      "Ġproducts": 2741,
      "Ġdouble": 2742,
      "ĠPerhaps": 2743,
      "rÃ¨": 2744,
      "Ġmention": 2745,
      "ĠFe": 2746,
      "aph": 2747,
      "oz": 2748,
      "mes": 2749,
      "Ġatm": 2750,
      "Ġvict": 2751,
      "Ġsmo": 2752,
      "Ġimpact": 2753,
      "Ġfinal": 2754,
      "Ġauthorities": 2755,
      "Ġvillage": 2756,
      "bury": 2757,
      "Ġcoun": 2758,
      "Ġfirm": 2759,
      "Ġrelative": 2760,
      "Ġopport": 2761,
      "Ġhouses": 2762,
      "Ġcompanies": 2763,
      "ĠGeor": 2764,
      "Ġacademic": 2765,
      "house": 2766,
      "Ġcamp": 2767,
      "Ġdecl": 2768,
      "Ġsho": 2769,
      "Ġimm": 2770,
      "Ġparty": 2771,
      "They": 2772,
      "aries": 2773,
      "Ġhaven": 2774,
      "Ġsmile": 2775,
      "Ġintell": 2776,
      "Ġsummer": 2777,
      "acks": 2778,
      "Ġdisp": 2779,
      "well": 2780,
      "Ġtouch": 2781,
      "Ġfil": 2782,
      "Ġhosp": 2783,
      "une": 2784,
      "ĠThÃ©": 2785,
      "Ġapart": 2786,
      "Ġpurpose": 2787,
      "Ġwatched": 2788,
      "rect": 2789,
      "Ġcat": 2790,
      "Ġshown": 2791,
      "idered": 2792,
      "ĠOf": 2793,
      "Ġallowed": 2794,
      "Ġdoubt": 2795,
      "ĠLÃ©onie": 2796,
      "rÃ¨se": 2797,
      "ĠThÃ©rÃ¨se": 2798,
      "lle": 2799,
      "Ġnet": 2800,
      "Ġneg": 2801,
      "ĠRain": 2802,
      "ĠJan": 2803,
      "Ġstandard": 2804,
      "Ġlegislation": 2805,
      "Ġadded": 2806,
      "Ġpopular": 2807,
      "Ġfrequ": 2808,
      "Ġoffered": 2809,
      "iny": 2810,
      "Ġfle": 2811,
      "Ġhundred": 2812,
      "lla": 2813,
      "ĠAng": 2814,
      "ĠBar": 2815,
      "Ġjour": 2816,
      "Ġdeveloped": 2817,
      "Ġappeared": 2818,
      "Ġaffect": 2819,
      "vered": 2820,
      "Ġexact": 2821,
      "allen": 2822,
      "Ġclub": 2823,
      "Ġconsum": 2824,
      "Ġskills": 2825,
      "Ġdecision": 2826,
      "Ġmarketing": 2827,
      "EC": 2828,
      "Ġsales": 2829,
      "Ġlaugh": 2830,
      "Ġwhom": 2831,
      "Ġflight": 2832,
      "Ġstudent": 2833,
      "Ġissue": 2834,
      "Ġdetails": 2835,
      "ĠAmerican": 2836,
      "ĠLucien": 2837,
      "hold": 2838,
      "Ġdata": 2839,
      "ays": 2840,
      "ĠPa": 2841,
      "Ġperfect": 2842,
      "pri": 2843,
      "Ġbrief": 2844,
      "Ġsection": 2845,
      "Ġtwenty": 2846,
      "Ġsuppose": 2847,
      "mp": 2848,
      "vant": 2849,
      "Ġready": 2850,
      "ĠHouse": 2851,
      "Ġeveryone": 2852,
      "Ġpiece": 2853,
      "onst": 2854,
      "ĠCons": 2855,
      "iful": 2856,
      "Ġapplic": 2857,
      "Ġinstead": 2858,
      "Ġentire": 2859,
      "Ġreact": 2860,
      "Ġshad": 2861,
      "Ġlooks": 2862,
      "Ġclean": 2863,
      "cation": 2864,
      "lict": 2865,
      "Ġport": 2866,
      "ĠWell": 2867,
      "aker": 2868,
      "ibly": 2869,
      "Ġmillion": 2870,
      "Ġcup": 2871,
      "Ġdry": 2872,
      "Ġstage": 2873,
      "Ġempt": 2874,
      "Ġsuggested": 2875,
      "Ġviol": 2876,
      "hmer": 2877,
      "Ġshop": 2878,
      "Ġexc": 2879,
      "Ġcourt": 2880,
      "zz": 2881,
      "uted": 2882,
      "Ġgiving": 2883,
      "Ġdesigned": 2884,
      "Ġgrowth": 2885,
      "Ġarrange": 2886,
      "Ġchance": 2887,
      "rawn": 2888,
      "Ġphotograph": 2889,
      "leman": 2890,
      "Ġsafe": 2891,
      "ĠElly": 2892,
      "Ġens": 2893,
      "Ġdistinct": 2894,
      "Ġreturned": 2895,
      "ires": 2896,
      "Ġdeli": 2897,
      "Ġnearly": 2898,
      "ĠDo": 2899,
      "Ġmodel": 2900,
      "Ġstandards": 2901,
      "Ġtakes": 2902,
      "pan": 2903,
      "rate": 2904,
      "reme": 2905,
      "Ġmist": 2906,
      "Ġclosed": 2907,
      "ictor": 2908,
      "ffee": 2909,
      "Ġoccur": 2910,
      "Why": 2911,
      "win": 2912,
      "Ġloss": 2913,
      "Ġnarrow": 2914,
      "Ġcomplex": 2915,
      "ength": 2916,
      "ĠBill": 2917,
      "Ġring": 2918,
      "ival": 2919,
      "udd": 2920,
      "Ġparts": 2921,
      "Ġwinds": 2922,
      "Ġraised": 2923,
      "Ġmad": 2924,
      "Ġthin": 2925,
      "otte": 2926,
      "ĠEarth": 2927,
      "Ġaftern": 2928,
      "ĠAlthough": 2929,
      "Don": 2930,
      "ox": 2931,
      "Ġtra": 2932,
      "Ġconsent": 2933,
      "Ġolder": 2934,
      "Ġwinter": 2935,
      "Ġtotal": 2936,
      "ĠCharles": 2937,
      "ground": 2938,
      "Ġcompl": 2939,
      "Ġmere": 2940,
      "ĠMore": 2941,
      "Ġacqu": 2942,
      "overed": 2943,
      "Ġstrateg": 2944,
      "Ġpressure": 2945,
      ".).": 2946,
      "ien": 2947,
      "Ġaw": 2948,
      "Ġpos": 2949,
      "Ġdest": 2950,
      "ĠWor": 2951,
      "Ġdesp": 2952,
      "Ġbox": 2953,
      "Ġcircum": 2954,
      "Ġdegree": 2955,
      "Ġclothes": 2956,
      "ees": 2957,
      "iam": 2958,
      "put": 2959,
      "Ġshar": 2960,
      "raid": 2961,
      "Ġideas": 2962,
      "Ġavo": 2963,
      "Ġfunction": 2964,
      "Ġmult": 2965,
      "ĠAN": 2966,
      "Ġdeb": 2967,
      "Ġinterp": 2968,
      "Ġhardly": 2969,
      "Ġtraditional": 2970,
      "Ġprotect": 2971,
      "Ġopt": 2972,
      "Ġhop": 2973,
      "Ġdaughter": 2974,
      "icient": 2975,
      "ĠMe": 2976,
      "Ġhadn": 2977,
      "ĠDr": 2978,
      "Ġplaces": 2979,
      "Ġtrade": 2980,
      "Ġspent": 2981,
      "Ġ&": 2982,
      "Ġaf": 2983,
      "Ġbes": 2984,
      "rog": 2985,
      "Ġconsidered": 2986,
      "ĠAny": 2987,
      "Ġletters": 2988,
      "Ġindeed": 2989,
      "Ġparents": 2990,
      "wise": 2991,
      "Ġtight": 2992,
      "Ġpale": 2993,
      "tend": 2994,
      "Ġwritten": 2995,
      "ĠRohmer": 2996,
      "Ġimprove": 2997,
      "Ġanalys": 2998,
      "Ġnodded": 2999,
      "Ġlaughed": 3000,
      "een": 3001,
      "Ġrap": 3002,
      "Ġnews": 3003,
      "Ġschools": 3004,
      "Ġspecies": 3005,
      "ĠGerman": 3006,
      "irty": 3007,
      "Ġseason": 3008,
      "Ġexerc": 3009,
      "ource": 3010,
      "Ġcovered": 3011,
      "Ġlock": 3012,
      "Ġeconomic": 3013,
      "Ġperformance": 3014,
      "time": 3015,
      "atives": 3016,
      "Ġcharge": 3017,
      "Ġresults": 3018,
      "ĠCleo": 3019,
      "LE": 3020,
      "men": 3021,
      "Ġfast": 3022,
      "Ġtrust": 3023,
      "now": 3024,
      "Ġfif": 3025,
      "Ġscre": 3026,
      "Ġinstru": 3027,
      "Ġargu": 3028,
      "uous": 3029,
      "Ġmem": 3030,
      "Ġfinancial": 3031,
      "Ġboard": 3032,
      "Ġleading": 3033,
      "Ġbod": 3034,
      "ids": 3035,
      "Ġones": 3036,
      "ĠWhere": 3037,
      "Ġshape": 3038,
      "Ġcomfort": 3039,
      "Ġcoffee": 3040,
      "ĠVictor": 3041,
      "Ġrecently": 3042,
      "Ġdistrib": 3043,
      "Ġaddress": 3044,
      "Ġincreased": 3045,
      "Ġgirls": 3046,
      "Ġequipment": 3047,
      "Ġlearning": 3048,
      "aur": 3049,
      "Ġfavour": 3050,
      "Ġthick": 3051,
      "Ġyellow": 3052,
      "ples": 3053,
      "ho": 3054,
      "Ġsorry": 3055,
      "isation": 3056,
      "Ġgaz": 3057,
      "Ġreve": 3058,
      "ĠSar": 3059,
      "ĠOx": 3060,
      "Ġmoving": 3061,
      "Ġsatis": 3062,
      "Ġdescribed": 3063,
      "aled": 3064,
      "lying": 3065,
      "ĠIN": 3066,
      "Ġworkers": 3067,
      "Ġscient": 3068,
      "aviour": 3069,
      "She": 3070,
      "uv": 3071,
      "Ġforg": 3072,
      "ĠMon": 3073,
      "Ġdefe": 3074,
      "text": 3075,
      "ĠItal": 3076,
      "Ġagree": 3077,
      "Ġarch": 3078,
      "Ġheavy": 3079,
      "Ġsignificant": 3080,
      "rm": 3081,
      "uit": 3082,
      "Ġbow": 3083,
      "Ġfig": 3084,
      "ĠLorton": 3085,
      "Ġaltern": 3086,
      "aked": 3087,
      "ocked": 3088,
      "Ġcountries": 3089,
      "Ġcaught": 3090,
      "Ġmale": 3091,
      "ĠSm": 3092,
      "verse": 3093,
      "ĠHere": 3094,
      "ĠOther": 3095,
      "Ġplant": 3096,
      "Ġprogress": 3097,
      "Ġdefin": 3098,
      "Ġign": 3099,
      "Ġinf": 3100,
      "aded": 3101,
      "ĠInst": 3102,
      "ĠStre": 3103,
      "Ġsmaller": 3104,
      "Ġbasis": 3105,
      "Ġbreath": 3106,
      "Ġshout": 3107,
      "apter": 3108,
      "ĠCommittee": 3109,
      "Ġeasily": 3110,
      "Ġplease": 3111,
      "Ġfingers": 3112,
      "Ġrepe": 3113,
      "Ġtend": 3114,
      "Ġfear": 3115,
      "Ġsnow": 3116,
      "Ġhost": 3117,
      "asons": 3118,
      "Ġquar": 3119,
      "Ġdiscipl": 3120,
      "rupt": 3121,
      "Ġpret": 3122,
      "cle": 3123,
      "erved": 3124,
      "Ġbright": 3125,
      "ĠSim": 3126,
      "Ġimage": 3127,
      ".)": 3128,
      "ped": 3129,
      "Ġpaid": 3130,
      "riage": 3131,
      "Ġchoice": 3132,
      "Ġbath": 3133,
      "apers": 3134,
      "cious": 3135,
      "Ġshoulder": 3136,
      "Ġappropri": 3137,
      "Ġstreet": 3138,
      "set": 3139,
      "ĠFirst": 3140,
      "Ġprice": 3141,
      "Ġinterv": 3142,
      "ĠBeat": 3143,
      "Ġsilence": 3144,
      "Ġproperty": 3145,
      "Ġwatching": 3146,
      "Ġmethods": 3147,
      "Ġarrived": 3148,
      "ĠCharlotte": 3149,
      "ĠJimmy": 3150,
      "Ġdream": 3151,
      "gel": 3152,
      "ĠWil": 3153,
      "Ġspread": 3154,
      "ĠKing": 3155,
      "Ġconflict": 3156,
      "Ġwondered": 3157,
      "Ġindepend": 3158,
      "Ġtemper": 3159,
      "cul": 3160,
      "ĠCent": 3161,
      "tended": 3162,
      "Ġphone": 3163,
      "Ġwait": 3164,
      "Ġforeign": 3165,
      "Ġcircumst": 3166,
      "Ġlunch": 3167,
      "Ġnorth": 3168,
      "Ġchallen": 3169,
      "Ġgoes": 3170,
      "Ġbehaviour": 3171,
      "Ġeffective": 3172,
      "Ġetc": 3173,
      "Ġafternoon": 3174,
      "Ġtit": 3175,
      "Ġpred": 3176,
      "ĠEn": 3177,
      "agan": 3178,
      "Ġfeatures": 3179,
      "ĠJe": 3180,
      "Ġsoftware": 3181,
      "Ġpal": 3182,
      "see": 3183,
      "cell": 3184,
      "anging": 3185,
      "Ġworks": 3186,
      "course": 3187,
      "itation": 3188,
      "Ġwhatever": 3189,
      "Ġsurv": 3190,
      "Ġwrite": 3191,
      "Ġvariety": 3192,
      "Ġinfluence": 3193,
      "IL": 3194,
      "oned": 3195,
      "Ġinn": 3196,
      "rian": 3197,
      "lands": 3198,
      "pril": 3199,
      "Ġcommunic": 3200,
      "ĠDougal": 3201,
      "Do": 3202,
      "inary": 3203,
      "Ġbound": 3204,
      "iture": 3205,
      "Ġstone": 3206,
      "ĠDave": 3207,
      "Ġplans": 3208,
      "Ġuseful": 3209,
      "Ġdanger": 3210,
      "Ġchurch": 3211,
      "Ġleaving": 3212,
      "Ġseries": 3213,
      "Ġremark": 3214,
      "Ġoriginal": 3215,
      "Ġbeautiful": 3216,
      "Ġegg": 3217,
      "Ġstick": 3218,
      "ula": 3219,
      "ĠEvery": 3220,
      "ishop": 3221,
      "Ġhappy": 3222,
      "Ġinteresting": 3223,
      "Ġprepared": 3224,
      "Ġafraid": 3225,
      "Is": 3226,
      "Ġut": 3227,
      "atory": 3228,
      "Ġmat": 3229,
      "lection": 3230,
      "Ġconvers": 3231,
      "ques": 3232,
      "Ġspoke": 3233,
      "Ġshowed": 3234,
      "Ġillust": 3235,
      "tain": 3236,
      "Ġop": 3237,
      "Ġball": 3238,
      "Ġcru": 3239,
      "Ġcott": 3240,
      "olf": 3241,
      "ĠFl": 3242,
      "onse": 3243,
      "ĠBrown": 3244,
      "Ġevolution": 3245,
      "phas": 3246,
      "ĠTrust": 3247,
      "Ġexactly": 3248,
      "Ġburn": 3249,
      "appe": 3250,
      "Ġgold": 3251,
      "Ġthroughout": 3252,
      "Ġprovision": 3253,
      "Ġedge": 3254,
      "Ġresponsibility": 3255,
      "Ġwine": 3256,
      "ĠSu": 3257,
      "ĠCour": 3258,
      "Ġapparent": 3259,
      "Ġlights": 3260,
      "ĠRobert": 3261,
      "Ġbasic": 3262,
      "Ġintroduced": 3263,
      "Ġiron": 3264,
      "Ġhon": 3265,
      "Ġine": 3266,
      "Ġdistance": 3267,
      "Ġextreme": 3268,
      "Ġwalls": 3269,
      "Ġempty": 3270,
      "Ġaver": 3271,
      "Ġcry": 3272,
      "Ġpark": 3273,
      "Ġdust": 3274,
      "Ġsend": 3275,
      "alled": 3276,
      "Ġinterested": 3277,
      "attle": 3278,
      "Ġachieve": 3279,
      "ators": 3280,
      "ici": 3281,
      "ĠAet": 3282,
      "ĠDar": 3283,
      "Ġadop": 3284,
      "Ġemot": 3285,
      "Ġgraph": 3286,
      "Ġbreast": 3287,
      "Ġpicked": 3288,
      "ĠCaroline": 3289,
      "Ġcircumstances": 3290,
      "Ġwild": 3291,
      "Ġdate": 3292,
      "Ġlines": 3293,
      "Ġstren": 3294,
      "ĠApril": 3295,
      "ĠMany": 3296,
      "teen": 3297,
      "Ġdirection": 3298,
      "ĠOnce": 3299,
      "ĠUnited": 3300,
      "Ġinstitutions": 3301,
      "gr": 3302,
      "Ġant": 3303,
      "Ġdel": 3304,
      "Ġshook": 3305,
      "Ġadvant": 3306,
      "Ġadvice": 3307,
      "ĠScott": 3308,
      "Ġestablish": 3309,
      "Ġphysical": 3310,
      "bered": 3311,
      "vision": 3312,
      "erve": 3313,
      "ingly": 3314,
      "Ġshare": 3315,
      "Ġplants": 3316,
      "ĠSec": 3317,
      "Ġgrowing": 3318,
      "ĠTwo": 3319,
      "ares": 3320,
      "Ġtrain": 3321,
      "ĠStates": 3322,
      "Ġresponse": 3323,
      "Ġincome": 3324,
      "Ġwindows": 3325,
      "Ġthus": 3326,
      "Ġenerg": 3327,
      "icked": 3328,
      "Ġfoc": 3329,
      "cr": 3330,
      "itary": 3331,
      "ading": 3332,
      "ĠDor": 3333,
      "Ġincluded": 3334,
      "Ġearth": 3335,
      "This": 3336,
      "ĠBernie": 3337,
      "Ġatmosphere": 3338,
      "che": 3339,
      "Ġrub": 3340,
      "Ġlives": 3341,
      "Ġlearn": 3342,
      "Ġdue": 3343,
      "ĠRiven": 3344,
      "ousand": 3345,
      "Ġsmell": 3346,
      "ĠReg": 3347,
      "Ġlarger": 3348,
      "sych": 3349,
      "Ġbi": 3350,
      "Ġfigure": 3351,
      "Ġheat": 3352,
      "imum": 3353,
      "Ġqual": 3354,
      "Ġdifference": 3355,
      "Ġattack": 3356,
      "ification": 3357,
      "Ġmanagers": 3358,
      "Ġlimited": 3359,
      "Ġpotential": 3360,
      "Ġfit": 3361,
      "Ġdrawn": 3362,
      "sell": 3363,
      "Ġreceived": 3364,
      "Ġessential": 3365,
      "Ġsong": 3366,
      "atre": 3367,
      "Ġemphas": 3368,
      "Ġfinally": 3369,
      "Ġcontinue": 3370,
      "Ġbottom": 3371,
      "ĠStreet": 3372,
      "pro": 3373,
      "Ġsouth": 3374,
      "Ġhall": 3375,
      "ĠSomet": 3376,
      "ĠTheir": 3377,
      "Ġtruth": 3378,
      "Ġknows": 3379,
      "iously": 3380,
      "ĠAdam": 3381,
      "Ġactivity": 3382,
      "Ġsteps": 3383,
      "Ġtrouble": 3384,
      "mas": 3385,
      "ole": 3386,
      "Ġpushed": 3387,
      "Ġrecom": 3388,
      "Ġoccup": 3389,
      "Ġbeside": 3390,
      "Ġappropriate": 3391,
      "ĠDaveta": 3392,
      "cause": 3393,
      "ipped": 3394,
      "Ġcool": 3395,
      "Ġthro": 3396,
      "iment": 3397,
      "Ġcontext": 3398,
      "Ġstrange": 3399,
      "Ġsetting": 3400,
      "Ġeffects": 3401,
      "Ġfreed": 3402,
      "ĠAND": 3403,
      "ĠAethel": 3404,
      "cript": 3405,
      "Ġcouncil": 3406,
      "Ġreasons": 3407,
      "unk": 3408,
      "Ġability": 3409,
      "umn": 3410,
      "Ġcontrast": 3411,
      "ĠOxford": 3412,
      "In": 3413,
      "dom": 3414,
      "Ġmess": 3415,
      "Ġden": 3416,
      "icle": 3417,
      "Ġeat": 3418,
      "ĠRoy": 3419,
      "ĠJul": 3420,
      "Ġpropos": 3421,
      "Ġemployment": 3422,
      "Ġwriting": 3423,
      "back": 3424,
      "how": 3425,
      "uly": 3426,
      "yl": 3427,
      "Ġtom": 3428,
      "ume": 3429,
      "Ġturning": 3430,
      "Ġfinished": 3431,
      "Ġholding": 3432,
      "estern": 3433,
      "Ġwants": 3434,
      "Ġevents": 3435,
      "anks": 3436,
      "Ġhappen": 3437,
      "ĠMaur": 3438,
      "Ġmilk": 3439,
      "Ġscheme": 3440,
      "eed": 3441,
      "Ġcause": 3442,
      "aches": 3443,
      "Ġweak": 3444,
      "ĠWar": 3445,
      "ĠDes": 3446,
      "ĠHeath": 3447,
      "liament": 3448,
      "ĠColeman": 3449,
      "Ġpromot": 3450,
      "Ġdomin": 3451,
      "EA": 3452,
      "]'": 3453,
      "uge": 3454,
      "rel": 3455,
      "Ġsight": 3456,
      "Ġthousand": 3457,
      "ĠMat": 3458,
      "Ġsearch": 3459,
      "Ġintercourse": 3460,
      "Ġshows": 3461,
      "Ġtechnology": 3462,
      "Ġseparate": 3463,
      "Ġimmediately": 3464,
      "eenth": 3465,
      "ht": 3466,
      "Ġhy": 3467,
      "Ġmir": 3468,
      "Ġstuff": 3469,
      "ĠPeter": 3470,
      "Ġspr": 3471,
      "Ġgenerally": 3472,
      "Ġterri": 3473,
      "Ġbirth": 3474,
      "Ġrecomme": 3475,
      "ov": 3476,
      "eding": 3477,
      "Ġlength": 3478,
      "Ġagreed": 3479,
      "Ġspir": 3480,
      "Ġreading": 3481,
      "Ġexisting": 3482,
      "sey": 3483,
      "Ġitem": 3484,
      "Ġrare": 3485,
      "Ġspot": 3486,
      "Ġspring": 3487,
      "Ġcultural": 3488,
      "field": 3489,
      "night": 3490,
      "Ġfight": 3491,
      "Ġstrugg": 3492,
      "Ġaccording": 3493,
      "oph": 3494,
      "Ġsurround": 3495,
      "Ġpaint": 3496,
      "Ġbeneath": 3497,
      "Ġrapid": 3498,
      "ĠMaurice": 3499,
      "Ġham": 3500,
      "omen": 3501,
      "ĠGood": 3502,
      "hens": 3503,
      "arsh": 3504,
      "ĠYork": 3505,
      "Ġcorrect": 3506,
      "Ġimportance": 3507,
      "Ġmagn": 3508,
      "iversity": 3509,
      "bour": 3510,
      "gn": 3511,
      "enn": 3512,
      "olic": 3513,
      "Ġunlike": 3514,
      "Ġparticip": 3515,
      "Ġbedroom": 3516,
      "Ġcreate": 3517,
      "Ġteacher": 3518,
      "cher": 3519,
      "Ġz": 3520,
      "Ġmort": 3521,
      "Ġsand": 3522,
      "Ġrefer": 3523,
      "Ġvictim": 3524,
      "Ġhit": 3525,
      "omb": 3526,
      "Ġstro": 3527,
      "Ġshut": 3528,
      "Ġimplic": 3529,
      "Ġcoast": 3530,
      "rences": 3531,
      "Ġpock": 3532,
      "Ġextent": 3533,
      "Ġcreated": 3534,
      "Ġdrawing": 3535,
      "Ġissues": 3536,
      "Ġdesktop": 3537,
      "Ġurban": 3538,
      "Ġinternational": 3539,
      "Ġhospital": 3540,
      "Ġenergy": 3541,
      "Ġgas": 3542,
      "urance": 3543,
      "Ġseven": 3544,
      "Ġresources": 3545,
      "Ġconfir": 3546,
      "Ġcorner": 3547,
      "Ġengine": 3548,
      "Ġnormal": 3549,
      "Ġcopy": 3550,
      "ĠWorld": 3551,
      "oring": 3552,
      "ĠPart": 3553,
      "ests": 3554,
      "Ġtea": 3555,
      "Ġgrad": 3556,
      "Ġcarefully": 3557,
      "Ġoperation": 3558,
      "Ġindividuals": 3559,
      "Ġfigures": 3560,
      "uce": 3561,
      "Ġbought": 3562,
      "Ġgen": 3563,
      "uses": 3564,
      "Ġvo": 3565,
      "Ġlean": 3566,
      "Ġleaves": 3567,
      "ounds": 3568,
      "anged": 3569,
      "ĠAnother": 3570,
      "Ġfactors": 3571,
      "Ġassessment": 3572,
      "ĠHenry": 3573,
      "ae": 3574,
      "Ġnone": 3575,
      "sec": 3576,
      "ĠSund": 3577,
      "ĠCol": 3578,
      "orthern": 3579,
      "Ġprefer": 3580,
      "Ġvari": 3581,
      "Ġmoral": 3582,
      "ĠRoad": 3583,
      "Ġresponsible": 3584,
      "Ġsister": 3585,
      "Ġfish": 3586,
      "Ġkilled": 3587,
      "Ġriver": 3588,
      "Ġexpression": 3589,
      "Ġcapital": 3590,
      "ĠWilliam": 3591,
      "itude": 3592,
      "Ġhell": 3593,
      "acing": 3594,
      "imate": 3595,
      "ĠCad": 3596,
      "ĠMoon": 3597,
      "Ġrates": 3598,
      "Ġsomewhere": 3599,
      "Ġspo": 3600,
      "Ġunderstanding": 3601,
      "ET": 3602,
      "Ġmiles": 3603,
      "Ġwel": 3604,
      "amed": 3605,
      "Ġmeas": 3606,
      "aging": 3607,
      "Ġprec": 3608,
      "Ġdistingu": 3609,
      "Ġnumbers": 3610,
      "Ġpowerful": 3611,
      "ashion": 3612,
      "ĠLike": 3613,
      "useum": 3614,
      "Ġpretty": 3615,
      "aign": 3616,
      "nect": 3617,
      "Ġframe": 3618,
      "ĠOF": 3619,
      "Ġpointed": 3620,
      "Ġdetect": 3621,
      "ĠOnly": 3622,
      "Ġmarried": 3623,
      "Ġdrive": 3624,
      "ĠScot": 3625,
      "Ġfacilities": 3626,
      "Ġautom": 3627,
      "ĠQu": 3628,
      "Ġtar": 3629,
      "Ġcell": 3630,
      "Ġ'[": 3631,
      "Ġdoors": 3632,
      "Ġplaced": 3633,
      "Ġadj": 3634,
      "Ġsecurity": 3635,
      "ancing": 3636,
      "Ġmedical": 3637,
      "ĠGovernment": 3638,
      "Ġaverage": 3639,
      "cies": 3640,
      "pet": 3641,
      "Ġcard": 3642,
      "ashed": 3643,
      "Ġnice": 3644,
      "Ġreach": 3645,
      "lin": 3646,
      "Ġhur": 3647,
      "Ġgun": 3648,
      "ĠRes": 3649,
      "ĠOur": 3650,
      "Ġgives": 3651,
      "ĠMerci": 3652,
      "Ġtask": 3653,
      "Ġcollection": 3654,
      "Ġpollution": 3655,
      "Ġanalysis": 3656,
      "istics": 3657,
      "Ġcontro": 3658,
      "Ġplayed": 3659,
      "Ġfields": 3660,
      "oe": 3661,
      "tained": 3662,
      "orter": 3663,
      "stairs": 3664,
      "Ġrise": 3665,
      "Ġlived": 3666,
      "Ġadvert": 3667,
      "Ġdisappe": 3668,
      "Ġcarry": 3669,
      "Ġideal": 3670,
      "Ġmainly": 3671,
      "Ġjobs": 3672,
      "iliar": 3673,
      "Ġhotel": 3674,
      "Ġtour": 3675,
      "Ġahead": 3676,
      "Ġninet": 3677,
      "Ġsector": 3678,
      "abeth": 3679,
      "ership": 3680,
      "employ": 3681,
      "Ġspeed": 3682,
      "Ġinterests": 3683,
      "Ġdepartment": 3684,
      "Ġfreedom": 3685,
      "ĠAg": 3686,
      "rill": 3687,
      "ĠBer": 3688,
      "Ġlips": 3689,
      "ĠVen": 3690,
      "Ġdemonst": 3691,
      "Ġeffort": 3692,
      "Ġonto": 3693,
      "ĠPost": 3694,
      "ĠEdu": 3695,
      "aret": 3696,
      "Ġseeing": 3697,
      "Ġrelig": 3698,
      "Ġaddition": 3699,
      "ĠDarwin": 3700,
      "lt": 3701,
      "Ġspl": 3702,
      "attered": 3703,
      "Ġmeasure": 3704,
      "izabeth": 3705,
      "ĠAssoci": 3706,
      "Ġbroken": 3707,
      "ĠBecause": 3708,
      "mma": 3709,
      "Ġpieces": 3710,
      "Ġcompletely": 3711,
      "Ġfemale": 3712,
      "Ġbodies": 3713,
      "OL": 3714,
      "go": 3715,
      "Ġton": 3716,
      "Ġpsych": 3717,
      "Ġadult": 3718,
      "Ġgrand": 3719,
      "Ġformal": 3720,
      "Ġdirectly": 3721,
      "Ġremembered": 3722,
      "Ġcritical": 3723,
      "ĠChristmas": 3724,
      "Ġsubstant": 3725,
      "Ġescape": 3726,
      "Ġmerely": 3727,
      "ey": 3728,
      "Ġsir": 3729,
      "oming": 3730,
      "ĠMor": 3731,
      "ĠOsw": 3732,
      "ureau": 3733,
      "Ġuns": 3734,
      "ossible": 3735,
      "Ġremained": 3736,
      "Ġdarkness": 3737,
      "Ġconduct": 3738,
      "Ġdocument": 3739,
      "Ġmachine": 3740,
      "EL": 3741,
      "fast": 3742,
      "mark": 3743,
      "ĠFigure": 3744,
      "Ġdoctor": 3745,
      "Ġcompos": 3746,
      "Ġrose": 3747,
      "Ġgoods": 3748,
      "ENT": 3749,
      "uary": 3750,
      "Ġbare": 3751,
      "anding": 3752,
      "Ġappoint": 3753,
      "Ġpossess": 3754,
      "anguage": 3755,
      "Ġproport": 3756,
      "ĠRoyal": 3757,
      "bon": 3758,
      "gs": 3759,
      "Ġlit": 3760,
      "Ġgame": 3761,
      "ades": 3762,
      "Ġremind": 3763,
      "ception": 3764,
      "Ġexplained": 3765,
      "atur": 3766,
      "Ġharm": 3767,
      "rote": 3768,
      "Ġwhis": 3769,
      "ĠMich": 3770,
      "Ġconsequ": 3771,
      "osh": 3772,
      "Ġsold": 3773,
      "Ġmarked": 3774,
      "Ġexplain": 3775,
      "Ġcampaign": 3776,
      "gest": 3777,
      "gage": 3778,
      "lo": 3779,
      "Ġsources": 3780,
      "Ġstorm": 3781,
      "ĠWas": 3782,
      "ĠFar": 3783,
      "Ġsmiling": 3784,
      "Ġgrant": 3785,
      "Ġstudies": 3786,
      "Ġlanguages": 3787,
      "Ġpractical": 3788,
      "Ġconsiderable": 3789,
      "Ġmaterials": 3790,
      "Ġexhib": 3791,
      "Ġensure": 3792,
      "Qu": 3793,
      "ls": 3794,
      "ĠHam": 3795,
      "illing": 3796,
      "Ġregion": 3797,
      "Ġorganization": 3798,
      "Ġexperienced": 3799,
      "ience": 3800,
      "ĠApp": 3801,
      "ĠMarch": 3802,
      "Ġprevent": 3803,
      "Ġboat": 3804,
      "Ġmeaning": 3805,
      "Ġcream": 3806,
      "Ġnor": 3807,
      "ĠCal": 3808,
      "Ġseat": 3809,
      "resp": 3810,
      "ĠFair": 3811,
      "eping": 3812,
      "Ġremo": 3813,
      "Ġinvestig": 3814,
      "Ġopportunity": 3815,
      "Ġble": 3816,
      "Ġnotice": 3817,
      "ores": 3818,
      "Ġsky": 3819,
      "Ġjudge": 3820,
      "ĠPhil": 3821,
      "AC": 3822,
      "Ġstairs": 3823,
      "ĠMark": 3824,
      "quir": 3825,
      "Ġsheet": 3826,
      "ords": 3827,
      "Ġshoulders": 3828,
      "Ġfeelings": 3829,
      "Ġchest": 3830,
      "Ġpresence": 3831,
      "ĠWhile": 3832,
      "Ġtheatre": 3833,
      "Ġcab": 3834,
      "Ġfat": 3835,
      "Ġpet": 3836,
      "Ġsell": 3837,
      "ulated": 3838,
      "Ġcompar": 3839,
      "Ġappre": 3840,
      "Ġlargely": 3841,
      "Ġwaited": 3842,
      "Ġargued": 3843,
      "Ġwalking": 3844,
      "Ġangry": 3845,
      "Ġofficial": 3846,
      "nal": 3847,
      "ĠX": 3848,
      "Ġwing": 3849,
      "Ġcities": 3850,
      "Ġinner": 3851,
      "urf": 3852,
      "ĠWales": 3853,
      "ailing": 3854,
      "Ġformer": 3855,
      "Ġbelieved": 3856,
      "Ġfully": 3857,
      "Ġfinger": 3858,
      "Ġbenefit": 3859,
      "bur": 3860,
      "erson": 3861,
      "Ġregular": 3862,
      "Ġstret": 3863,
      "iques": 3864,
      "mon": 3865,
      "Ġfuck": 3866,
      "Ġda": 3867,
      "Ġforget": 3868,
      "Ġstared": 3869,
      "oses": 3870,
      "ĠThus": 3871,
      "Ġusual": 3872,
      "Ġtelling": 3873,
      "thew": 3874,
      "ĠArab": 3875,
      "Ġcustomers": 3876,
      "Ch": 3877,
      "Ġtiny": 3878,
      "Ġpink": 3879,
      "ilst": 3880,
      "ĠDav": 3881,
      "ĠOut": 3882,
      "ivil": 3883,
      "Ġcontent": 3884,
      "Ġscream": 3885,
      "Ġconsist": 3886,
      "ĠElizabeth": 3887,
      "Ġcast": 3888,
      "Ġpages": 3889,
      "esh": 3890,
      "alt": 3891,
      "Ġdut": 3892,
      "ilies": 3893,
      "ĠMc": 3894,
      "ĠMin": 3895,
      "Ġrich": 3896,
      "using": 3897,
      "Ġimpossible": 3898,
      "Ġorganisations": 3899,
      "Ġradi": 3900,
      "Ġprotection": 3901,
      "My": 3902,
      "ki": 3903,
      "Ġliter": 3904,
      "ĠII": 3905,
      "ĠWind": 3906,
      "Ġfeature": 3907,
      "Ġemerg": 3908,
      "Ġappears": 3909,
      "Ġinvolve": 3910,
      "Ġjoin": 3911,
      "Ġanimals": 3912,
      "Ġoccasion": 3913,
      "ĠSunday": 3914,
      "cer": 3915,
      "year": 3916,
      "Ġsad": 3917,
      "Ġwrote": 3918,
      "erd": 3919,
      "Ġmatch": 3920,
      "Ġalt": 3921,
      "Ġtraff": 3922,
      "Ġunf": 3923,
      "cliff": 3924,
      "Ġgrass": 3925,
      "Ġputting": 3926,
      "shire": 3927,
      "umped": 3928,
      "Ġelectric": 3929,
      "Ġentirely": 3930,
      "Ġscreen": 3931,
      "Ġsource": 3932,
      "oted": 3933,
      "Ġunemploy": 3934,
      "Ġblock": 3935,
      "Ġrelax": 3936,
      "Ġdecisions": 3937,
      "ĠYour": 3938,
      "Ġmarriage": 3939,
      "Ġfairly": 3940,
      "Ġthroat": 3941,
      "bar": 3942,
      "Ġpure": 3943,
      "owed": 3944,
      "ĠSam": 3945,
      "ĠCount": 3946,
      "ĠBoth": 3947,
      "Ġrational": 3948,
      "Ġprot": 3949,
      "ĠPC": 3950,
      "ĠDa": 3951,
      "ĠGil": 3952,
      "Ġroll": 3953,
      "iction": 3954,
      "Ġhelped": 3955,
      "Ġtransfer": 3956,
      "Ġprinter": 3957,
      "Ġprofession": 3958,
      "ĠSecond": 3959,
      "look": 3960,
      "hetic": 3961,
      "Ġcatch": 3962,
      "Ġhurt": 3963,
      "ĠAnt": 3964,
      "Ġconnect": 3965,
      "pered": 3966,
      "Ġmember": 3967,
      "Ġsailing": 3968,
      "Ġkiss": 3969,
      "osing": 3970,
      "ĠNor": 3971,
      "Ġsuccessful": 3972,
      "Ġalternative": 3973,
      "gy": 3974,
      "ike": 3975,
      "Ġtall": 3976,
      "itute": 3977,
      "Ġfilled": 3978,
      "Ġweight": 3979,
      "ĠLet": 3980,
      "Ġbutter": 3981,
      "ĠJames": 3982,
      "Ġscar": 3983,
      "Ġassist": 3984,
      "ĠWhite": 3985,
      "Ġmagaz": 3986,
      "ĠCourt": 3987,
      "Ġstrength": 3988,
      "ĠEducation": 3989,
      "bled": 3990,
      "Ġcrow": 3991,
      "Ġfurn": 3992,
      "Ġhung": 3993,
      "Ġdin": 3994,
      "Ġlad": 3995,
      "udes": 3996,
      "Ġsymb": 3997,
      "Ġmatters": 3998,
      "Ġdamage": 3999,
      "ĠHeathcliff": 4000,
      "ĠScotland": 4001,
      "bl": 4002,
      "iver": 4003,
      "Ġsem": 4004,
      "Ġrail": 4005,
      "Ġlie": 4006,
      "Ġperm": 4007,
      "Ġfold": 4008,
      "Ġpainting": 4009,
      "Ġcounter": 4010,
      "Ġdistribution": 4011,
      "wing": 4012,
      "anch": 4013,
      "Ġdrew": 4014,
      "Ġanx": 4015,
      "elia": 4016,
      "Ġworry": 4017,
      "ague": 4018,
      "Ġunless": 4019,
      "Ġuser": 4020,
      "Ġoverall": 4021,
      "Ġinstance": 4022,
      "Ġcontinu": 4023,
      "Ġsurprised": 4024,
      "Ġrules": 4025,
      "Ġexercise": 4026,
      "ĠAssociation": 4027,
      "hered": 4028,
      "Ġsou": 4029,
      "Ġmaster": 4030,
      "Ġdram": 4031,
      "Ġupper": 4032,
      "Ġforced": 4033,
      "ĠSuch": 4034,
      "Ġanger": 4035,
      "Ġvan": 4036,
      "Ġresist": 4037,
      "Ġprovides": 4038,
      "Ġhighly": 4039,
      "Ġveget": 4040,
      "Ġinternal": 4041,
      "ĠFinn": 4042,
      "Ġtarget": 4043,
      "Ġmas": 4044,
      "olute": 4045,
      "Ġlibr": 4046,
      "Ġworse": 4047,
      "ĠOh": 4048,
      "cles": 4049,
      "Ġunderstood": 4050,
      "Ġsweet": 4051,
      "Ġimagine": 4052,
      "Ġbear": 4053,
      "Ġselect": 4054,
      "ĠLou": 4055,
      "ichol": 4056,
      "Ġliqu": 4057,
      "Ġspect": 4058,
      "Ġrespond": 4059,
      "Ġviews": 4060,
      "Ġdropped": 4061,
      "ĠMatthew": 4062,
      "ught": 4063,
      "Ġlaid": 4064,
      "Ġsuit": 4065,
      "Ġsubordin": 4066,
      "Ġsounds": 4067,
      "Ġversion": 4068,
      ");": 4069,
      "gu": 4070,
      "Ġfort": 4071,
      "Ġshot": 4072,
      "Ġexch": 4073,
      "ĠNichol": 4074,
      "Ġplastic": 4075,
      "ĠYet": 4076,
      "Ġcheek": 4077,
      "Ġexpress": 4078,
      "Ġachieved": 4079,
      "Ġcustomer": 4080,
      "Ġobviously": 4081,
      "Ġaspects": 4082,
      "Ġrelatively": 4083,
      "wood": 4084,
      "Ġsick": 4085,
      "Ġcried": 4086,
      "Ġmer": 4087,
      "Ġloud": 4088,
      "ĠMiss": 4089,
      "illy": 4090,
      "Ġrough": 4091,
      "ĠOct": 4092,
      "Ġje": 4093,
      "ĠAngel": 4094,
      "Ġrooms": 4095,
      "Ġaccepted": 4096,
      "RI": 4097,
      "ding": 4098,
      "hood": 4099,
      "sing": 4100,
      "Ġcod": 4101,
      "ĠSpe": 4102,
      "Ġweather": 4103,
      "ription": 4104,
      "ĠLaw": 4105,
      "iving": 4106,
      "Ġtrack": 4107,
      "Ġminor": 4108,
      "Ġcolours": 4109,
      "Ġdrag": 4110,
      "Ġhistor": 4111,
      "Ġdetermined": 4112,
      "Ġinstrument": 4113,
      "aven": 4114,
      "hand": 4115,
      "ky": 4116,
      "Ġfright": 4117,
      "ĠAust": 4118,
      "Ġvirt": 4119,
      "cient": 4120,
      "intosh": 4121,
      "Ġimplement": 4122,
      "Ġglanced": 4123,
      "Ġminute": 4124,
      "Ġbelief": 4125,
      "Ġtreatment": 4126,
      "ĠGilbert": 4127,
      "ugg": 4128,
      "Ġfro": 4129,
      "orough": 4130,
      "Ġdie": 4131,
      "illa": 4132,
      "Ġrout": 4133,
      "ĠRory": 4134,
      "Ġpossibly": 4135,
      "Ġfamiliar": 4136,
      "Ġscience": 4137,
      "Ġbirds": 4138,
      "ĠPeople": 4139,
      "ĠParis": 4140,
      "Ġbalance": 4141,
      "Ġavoid": 4142,
      "US": 4143,
      "ait": 4144,
      "Ġice": 4145,
      "Ġgar": 4146,
      "Ġstress": 4147,
      "Ġcontem": 4148,
      "usion": 4149,
      "ĠEmma": 4150,
      "Ġscale": 4151,
      "orses": 4152,
      "ĠYes": 4153,
      "Ġplaying": 4154,
      "Ġrelationships": 4155,
      "Ġaccommod": 4156,
      "Ġlabour": 4157,
      "Ġopin": 4158,
      "eg": 4159,
      "ixt": 4160,
      "eds": 4161,
      "Ġmix": 4162,
      "Ġreference": 4163,
      "Ġcontract": 4164,
      "Ġhandle": 4165,
      "Ġfamilies": 4166,
      "ography": 4167,
      "Ġradio": 4168,
      "Ġassociated": 4169,
      "respond": 4170,
      "UR": 4171,
      "nel": 4172,
      "Ġver": 4173,
      "Ġoz": 4174,
      "Ġlatter": 4175,
      "Ġgent": 4176,
      "Ġgri": 4177,
      "Ġrent": 4178,
      "ĠSir": 4179,
      "ĠBo": 4180,
      "ĠLo": 4181,
      "Ġsail": 4182,
      "ĠDis": 4183,
      "aped": 4184,
      "izing": 4185,
      "Ġremain": 4186,
      "Ġsurvey": 4187,
      "Ġpossibility": 4188,
      "porary": 4189,
      "Ġobjectives": 4190,
      "Ġconversation": 4191,
      "All": 4192,
      "Ġbattle": 4193,
      "orpor": 4194,
      "Ġlog": 4195,
      "leg": 4196,
      "lease": 4197,
      "ĠTO": 4198,
      "ĠMir": 4199,
      "illan": 4200,
      "Ġunit": 4201,
      "Ġsupposed": 4202,
      "Ġwooden": 4203,
      "ĠGermany": 4204,
      "ober": 4205,
      "Ġwider": 4206,
      "Ġcro": 4207,
      "ett": 4208,
      "ĠCity": 4209,
      "Ġmel": 4210,
      "ĠEad": 4211,
      "ĠDI": 4212,
      "Ġflowers": 4213,
      "Ġgets": 4214,
      "Ġconsult": 4215,
      "Ġemer": 4216,
      "Ġdiscovered": 4217,
      "Ġforgot": 4218,
      "iant": 4219,
      "Ġtree": 4220,
      "Ġfont": 4221,
      "ĠHu": 4222,
      "ĠCy": 4223,
      "ĠBour": 4224,
      "ĠPubl": 4225,
      "Ġnewsp": 4226,
      "Ġbuildings": 4227,
      "Ġadminist": 4228,
      "Ġquietly": 4229,
      "Ġbureau": 4230,
      "Ġlying": 4231,
      "estic": 4232,
      "Ġcompared": 4233,
      "Ġanyway": 4234,
      "Ġsubsequ": 4235,
      "ĠFrank": 4236,
      "Ġsurprise": 4237,
      "Ġsquare": 4238,
      "modern": 4239,
      "frith": 4240,
      "su": 4241,
      "Ġtim": 4242,
      "Ġpapers": 4243,
      "ĠCr": 4244,
      "Ġliked": 4245,
      "ounced": 4246,
      "Ġlegal": 4247,
      "Ġpurch": 4248,
      "ĠAmerica": 4249,
      "Ġbottle": 4250,
      "iminal": 4251,
      "Ġapplication": 4252,
      "ĠSarah": 4253,
      "OT": 4254,
      "fall": 4255,
      "iers": 4256,
      "Ġpa": 4257,
      "Ġlat": 4258,
      "Ġlady": 4259,
      "amb": 4260,
      "anda": 4261,
      "unately": 4262,
      "Ġbecoming": 4263,
      "Ġmaybe": 4264,
      "Ġintended": 4265,
      "Ġregions": 4266,
      "Ġdecor": 4267,
      "Ġfollows": 4268,
      "Ġcompetition": 4269,
      "Ġsmooth": 4270,
      "Ġtravel": 4271,
      "ĠMichael": 4272,
      "Ġtraffic": 4273,
      "Ġhorses": 4274,
      "Ġstation": 4275,
      "ĠCelia": 4276,
      "ching": 4277,
      "chan": 4278,
      "ĠWick": 4279,
      "Ġotherwise": 4280,
      "Ġbackground": 4281,
      "Ġcommer": 4282,
      "Ġhousehold": 4283,
      "Ġcorrespond": 4284,
      "Ġexpert": 4285,
      "Ġrestrict": 4286,
      "Ġsilent": 4287,
      "Ġreports": 4288,
      "Ġregarded": 4289,
      "Ġmentioned": 4290,
      "lig": 4291,
      "Ġaud": 4292,
      "reg": 4293,
      "rehens": 4294,
      "Ġwet": 4295,
      "Ġhuge": 4296,
      "term": 4297,
      "Ġnoticed": 4298,
      "Ġteeth": 4299,
      "berht": 4300,
      "ĠKent": 4301,
      "Ġinteg": 4302,
      "Ġmodels": 4303,
      "ĠFrance": 4304,
      "Ġprior": 4305,
      "Ġvalues": 4306,
      "Ġforest": 4307,
      "Ġiniti": 4308,
      "ĠConserv": 4309,
      "Ġfixed": 4310,
      "ari": 4311,
      "Ġnames": 4312,
      "Ġheight": 4313,
      "Ġcomment": 4314,
      "ĠLanguage": 4315,
      "Ġloc": 4316,
      "Ġbread": 4317,
      "uvall": 4318,
      "Ġnine": 4319,
      "ĠBir": 4320,
      "Ġroof": 4321,
      "athy": 4322,
      "Ġsupply": 4323,
      "Ġmetal": 4324,
      "Ġterrit": 4325,
      "Ġnetwork": 4326,
      "Ġproportion": 4327,
      ".,": 4328,
      "ii": 4329,
      "uan": 4330,
      "ĠAcc": 4331,
      "ciple": 4332,
      "Ġjack": 4333,
      "wered": 4334,
      "ĠVan": 4335,
      "Ġrelief": 4336,
      "Ġenter": 4337,
      "ocr": 4338,
      "shop": 4339,
      "Ġcritic": 4340,
      "risa": 4341,
      "ĠBeatrisa": 4342,
      "equ": 4343,
      "ik": 4344,
      "off": 4345,
      "Ġsides": 4346,
      "Ġpup": 4347,
      "Ġtow": 4348,
      "Ġgolf": 4349,
      "Ġreform": 4350,
      "Ġsauce": 4351,
      "Ġplus": 4352,
      "aken": 4353,
      "Ġenc": 4354,
      "class": 4355,
      "Ġscene": 4356,
      "Ġgrin": 4357,
      "Ġmajority": 4358,
      "ĠMerri": 4359,
      "Ġidentified": 4360,
      "cellent": 4361,
      "Ġappreci": 4362,
      "ĠÂ": 4363,
      "Ġcateg": 4364,
      "asant": 4365,
      "Ġgall": 4366,
      "ĠServ": 4367,
      "Ġrang": 4368,
      "osite": 4369,
      "Ġtrave": 4370,
      "Ġoffers": 4371,
      "Ġspend": 4372,
      "Ġcaused": 4373,
      "Ġcloser": 4374,
      "ĠDorian": 4375,
      "mar": 4376,
      "pir": 4377,
      "zen": 4378,
      "Ġast": 4379,
      "Ġpool": 4380,
      "Ġdim": 4381,
      "ĠHy": 4382,
      "Ġsaf": 4383,
      "ĠDuvall": 4384,
      "Ġrow": 4385,
      "arson": 4386,
      "ĠColle": 4387,
      "Ġreduce": 4388,
      "ĠMerrile": 4389,
      "Ġsite": 4390,
      "ites": 4391,
      "itudes": 4392,
      "Ġpian": 4393,
      "oms": 4394,
      "ette": 4395,
      "ulate": 4396,
      "ĠDire": 4397,
      "ember": 4398,
      "ivity": 4399,
      "Ġscr": 4400,
      "Ġremains": 4401,
      "Ġkeeping": 4402,
      "Ġveh": 4403,
      "Ġreplied": 4404,
      "ĠMacintosh": 4405,
      "Ġdiscussion": 4406,
      "ĠOctober": 4407,
      "down": 4408,
      "nam": 4409,
      "aling": 4410,
      "owing": 4411,
      "ĠSep": 4412,
      "ĠEc": 4413,
      "outhern": 4414,
      "ager": 4415,
      "Ġbecomes": 4416,
      "Ġundert": 4417,
      "ĠVal": 4418,
      "Ġpublis": 4419,
      "Ġexpensive": 4420,
      "Ġrestaur": 4421,
      "Ġclosely": 4422,
      "ĠOffa": 4423,
      "Ġdefend": 4424,
      "ĠJulie": 4425,
      "ĠWickham": 4426,
      "but": 4427,
      "die": 4428,
      "fael": 4429,
      "Ġought": 4430,
      "Ġcam": 4431,
      "itched": 4432,
      "Ġnorthern": 4433,
      "ĠPark": 4434,
      "Ġplain": 4435,
      "action": 4436,
      "Ġcontain": 4437,
      "ails": 4438,
      "cession": 4439,
      "Ġspeaking": 4440,
      "Ġapplied": 4441,
      "formation": 4442,
      "Ġreported": 4443,
      "Ġtradition": 4444,
      "Ġinstitution": 4445,
      "Ġanimal": 4446,
      "Then": 4447,
      "gun": 4448,
      "real": 4449,
      "Ġpun": 4450,
      "Ġpowers": 4451,
      "Ġwearing": 4452,
      "ĠMade": 4453,
      "Ġproced": 4454,
      "antic": 4455,
      "Ġchoose": 4456,
      "ĠEach": 4457,
      "Ġleaf": 4458,
      "ĠGard": 4459,
      "Ġdism": 4460,
      "icker": 4461,
      "Ġrights": 4462,
      "Ġreceive": 4463,
      "Ġflex": 4464,
      "Ġdespite": 4465,
      "ĠItalian": 4466,
      "].": 4467,
      "Ġsli": 4468,
      "Ġcivil": 4469,
      "Ġluck": 4470,
      "roy": 4471,
      "ĠAre": 4472,
      "ĠBed": 4473,
      "ĠBel": 4474,
      "Ġrace": 4475,
      "Ġsugar": 4476,
      "Ġshops": 4477,
      "ĠDep": 4478,
      "ĠFur": 4479,
      "ogue": 4480,
      "ĠState": 4481,
      "Ġinstruct": 4482,
      "Ġconstruction": 4483,
      "ĠIndeed": 4484,
      "Ġgraphics": 4485,
      "Ġterrible": 4486,
      "ĠCadfael": 4487,
      "Ġsomehow": 4488,
      "issions": 4489,
      "Ġprinciple": 4490,
      "ĠCharlie": 4491,
      "Ġmemory": 4492,
      "Ġgaze": 4493,
      "Ġliquid": 4494,
      "Ġfashion": 4495,
      "Ġmax": 4496,
      "ĠTol": 4497,
      "road": 4498,
      "ĠHo": 4499,
      "Ġselection": 4500,
      "Ġconce": 4501,
      "artment": 4502,
      "ĠNever": 4503,
      "Ġchanging": 4504,
      "Ġpleasure": 4505,
      "Ġsolid": 4506,
      "Ġscientific": 4507,
      "Where": 4508,
      "fied": 4509,
      "encies": 4510,
      "Ġdear": 4511,
      "ummer": 4512,
      "ĠGold": 4513,
      "Ġnovel": 4514,
      "ruck": 4515,
      "Ġamb": 4516,
      "Ġphil": 4517,
      "idden": 4518,
      "Ġmanaged": 4519,
      "Ġjoined": 4520,
      "Ġpictures": 4521,
      "Ġabsolute": 4522,
      "Ġenvironmental": 4523,
      "Ġseriously": 4524,
      "Ġrelevant": 4525,
      "Ġadvantage": 4526,
      "Ġpocket": 4527,
      "ĠNicholson": 4528,
      "book": 4529,
      "col": 4530,
      "Ġsam": 4531,
      "Ġmental": 4532,
      "urb": 4533,
      "ĠAug": 4534,
      "osie": 4535,
      "Ġaccur": 4536,
      "Ġpersu": 4537,
      "Ġleader": 4538,
      "ronic": 4539,
      "Ġobserved": 4540,
      "Ġprinting": 4541,
      "Ġeventually": 4542,
      "Ġattractive": 4543,
      "Ġintellig": 4544,
      "under": 4545,
      "icro": 4546,
      "entially": 4547,
      "vere": 4548,
      "Ġquant": 4549,
      "Ġrelated": 4550,
      "ĠUniversity": 4551,
      "Ġbenefits": 4552,
      "Ġlifted": 4553,
      "Ġfrequently": 4554,
      "TION": 4555,
      "aud": 4556,
      "ige": 4557,
      "sed": 4558,
      "Ġhill": 4559,
      "Ġrear": 4560,
      "ĠAdd": 4561,
      "Ġsumm": 4562,
      "ushing": 4563,
      "ĠGreat": 4564,
      "Ġrot": 4565,
      "Ġasking": 4566,
      "Ġreview": 4567,
      "iveness": 4568,
      "Ġrule": 4569,
      "Ġconsumer": 4570,
      "Ġextremely": 4571,
      "Ġitems": 4572,
      "GE": 4573,
      "When": 4574,
      "Ġtired": 4575,
      "Ġtalked": 4576,
      "Ġbul": 4577,
      "Ġforces": 4578,
      "ĠHitch": 4579,
      "Ġshared": 4580,
      "place": 4581,
      "Ġacid": 4582,
      "Ġshowing": 4583,
      "Ġbusy": 4584,
      "Ġeasier": 4585,
      "Ġstatement": 4586,
      "Ġreduced": 4587,
      "Ġsurprising": 4588,
      "Ġviolence": 4589,
      "Ġdinner": 4590,
      "Ġsafety": 4591,
      "CE": 4592,
      "rance": 4593,
      "Ġpin": 4594,
      "ĠSch": 4595,
      "ĠAc": 4596,
      "Ġoffering": 4597,
      "ailed": 4598,
      "Ġproviding": 4599,
      "Ġincludes": 4600,
      "Ġsilver": 4601,
      "tember": 4602,
      "Ġmilitary": 4603,
      "Who": 4604,
      "atically": 4605,
      "Ġfault": 4606,
      "Ġhide": 4607,
      "orage": 4608,
      "Ġlose": 4609,
      "ĠIr": 4610,
      "ether": 4611,
      "Ġstir": 4612,
      "ĠSun": 4613,
      "cember": 4614,
      "iform": 4615,
      "Ġneither": 4616,
      "ĠPort": 4617,
      "itect": 4618,
      "Ġtechniques": 4619,
      "ĠProf": 4620,
      "Ġprinted": 4621,
      "Ġimmediate": 4622,
      "Ġintellect": 4623,
      "kin": 4624,
      "yal": 4625,
      "Ġwished": 4626,
      "Ġmixed": 4627,
      "Ġlingu": 4628,
      "Ġfruit": 4629,
      "Ġnotes": 4630,
      "Ġexcellent": 4631,
      "uno": 4632,
      "Ġmanner": 4633,
      "ĠJune": 4634,
      "Ġdesire": 4635,
      "Ġapply": 4636,
      "cluded": 4637,
      "Ġplanet": 4638,
      "ĠDeerd": 4639,
      "Ġsurely": 4640,
      "Ġdefined": 4641,
      "Ġsuggests": 4642,
      "Ġbreakfast": 4643,
      "Ġheavily": 4644,
      "Ġaccompan": 4645,
      "Ġinitial": 4646,
      "Ġfilm": 4647,
      "Ġstrategy": 4648,
      "Ġargument": 4649,
      "ĠDavid": 4650,
      "ĠDeerdre": 4651,
      "ias": 4652,
      "rain": 4653,
      "Ġsale": 4654,
      "Ġwid": 4655,
      "anning": 4656,
      "Ġthirty": 4657,
      "lder": 4658,
      "ayed": 4659,
      "rig": 4660,
      "ulations": 4661,
      "Ġdelic": 4662,
      "ĠLady": 4663,
      "Ġshel": 4664,
      "udget": 4665,
      "Ġpeace": 4666,
      "Ġbroke": 4667,
      "Ġplanned": 4668,
      "Ġcondition": 4669,
      "Ġstream": 4670,
      "ĠClub": 4671,
      "ATION": 4672,
      "Ġtelevision": 4673,
      "Ġelements": 4674,
      "ĠQue": 4675,
      "ĠMacQu": 4676,
      "Ġpatterns": 4677,
      "cast": 4678,
      "kn": 4679,
      "Ġodd": 4680,
      "Ġward": 4681,
      "atoes": 4682,
      "Ġpub": 4683,
      "Ġmixt": 4684,
      "etic": 4685,
      "ĠBu": 4686,
      "Ġproceed": 4687,
      "olk": 4688,
      "ĠLook": 4689,
      "osen": 4690,
      "ĠRat": 4691,
      "ĠRed": 4692,
      "roup": 4693,
      "Ġoutput": 4694,
      "Ġreality": 4695,
      "Ġpolicies": 4696,
      "Ġexistence": 4697,
      "Ġdemands": 4698,
      "Ġappearance": 4699,
      "ĠBlack": 4700,
      "Ġmanufacturing": 4701,
      "Ġsharp": 4702,
      "Ġinev": 4703,
      "Ġtomorrow": 4704,
      "ĠFurther": 4705,
      "Did": 4706,
      "ech": 4707,
      "lear": 4708,
      "Ġec": 4709,
      "Ġgently": 4710,
      "Ġans": 4711,
      "apes": 4712,
      "Ġsomebody": 4713,
      "Ġassault": 4714,
      "Ġentered": 4715,
      "Ġstarting": 4716,
      "Ġyounger": 4717,
      "clusion": 4718,
      "ĠJanuary": 4719,
      "aturday": 4720,
      "Ġwed": 4721,
      "ĠTown": 4722,
      "Ġsusp": 4723,
      "oles": 4724,
      "Ġflo": 4725,
      "Ġblind": 4726,
      "Ġactual": 4727,
      "Ġfinding": 4728,
      "Ġfactor": 4729,
      "Ġprocesses": 4730,
      "Ġstatus": 4731,
      "Ġprimary": 4732,
      "ĠMacQuillan": 4733,
      "tering": 4734,
      "Ġmechan": 4735,
      "Ġrealised": 4736,
      "Ġfamous": 4737,
      "Ġlots": 4738,
      "ĠMerc": 4739,
      "Ġelement": 4740,
      "Ġsalt": 4741,
      "rugged": 4742,
      "Ġmanufacture": 4743,
      "Ġoccurred": 4744,
      "Ġindependent": 4745,
      "Ġanswered": 4746,
      "Mm": 4747,
      "bru": 4748,
      "den": 4749,
      "onom": 4750,
      "Ġpow": 4751,
      "Ġdig": 4752,
      "ĠHigh": 4753,
      "ĠWork": 4754,
      "ĠDid": 4755,
      "Ġloved": 4756,
      "Ġregional": 4757,
      "Ġdifferences": 4758,
      "Ġlimit": 4759,
      "Ġhoped": 4760,
      "Ġwelcome": 4761,
      "ĠVenus": 4762,
      "Ġopinion": 4763,
      "ĠSeptember": 4764,
      "ĠAugust": 4765,
      "bruary": 4766,
      "ios": 4767,
      "Ġthrow": 4768,
      "lyn": 4769,
      "Ġhes": 4770,
      "ĠIT": 4771,
      "ĠSaturday": 4772,
      "ĠMad": 4773,
      "ĠMary": 4774,
      "ĠHealth": 4775,
      "ĠOver": 4776,
      "Ġknife": 4777,
      "ĠKe": 4778,
      "Ġaccident": 4779,
      "Ġbelong": 4780,
      "Ġenth": 4781,
      "Ġexplan": 4782,
      "ĠDecember": 4783,
      "Ġopposite": 4784,
      "Ġtitle": 4785,
      "ois": 4786,
      "rations": 4787,
      "Ġsouthern": 4788,
      "Ġwings": 4789,
      "Ġborrow": 4790,
      "Ġinj": 4791,
      "eting": 4792,
      "Ġisland": 4793,
      "ria": 4794,
      "Ġhabit": 4795,
      "ĠMiddle": 4796,
      "Ġaren": 4797,
      "agon": 4798,
      "Ġplenty": 4799,
      "ĠSoci": 4800,
      "Ġdriving": 4801,
      "Ġconstit": 4802,
      "ĠPaul": 4803,
      "Ġmixture": 4804,
      "more": 4805,
      "Ġfrown": 4806,
      "Ġbeach": 4807,
      "Ġorange": 4808,
      "ĠFerg": 4809,
      "Ġalive": 4810,
      "ĠRep": 4811,
      "Ġuniform": 4812,
      "Ġcomprehens": 4813,
      "idential": 4814,
      "Ġlisten": 4815,
      "Ġmotor": 4816,
      "century": 4817,
      "Ġmurder": 4818,
      "Ġinterpret": 4819,
      "Ġprecise": 4820,
      "Are": 4821,
      "VE": 4822,
      "itors": 4823,
      "Ġmut": 4824,
      "Ġnation": 4825,
      "lets": 4826,
      "ĠChe": 4827,
      "ession": 4828,
      "ĠFore": 4829,
      "Ġtwice": 4830,
      "Ġchem": 4831,
      "Ġlovely": 4832,
      "Ġinvestment": 4833,
      "Ġcurrently": 4834,
      "Ġrequirements": 4835,
      "Ġarrangements": 4836,
      "Ġfocus": 4837,
      "Ġspirit": 4838,
      "frid": 4839,
      "war": 4840,
      "Ġband": 4841,
      "Ġder": 4842,
      "ented": 4843,
      "ctors": 4844,
      "ĠMed": 4845,
      "Ġshrugged": 4846,
      "Ġextended": 4847,
      "elve": 4848,
      "Ġvary": 4849,
      "Ġworst": 4850,
      "Ġnose": 4851,
      "Ġnoise": 4852,
      "Ġdisapp": 4853,
      "Ġpartly": 4854,
      "ĠWho": 4855,
      "ervation": 4856,
      "Ġsteel": 4857,
      "Ġclasses": 4858,
      "Ġfailed": 4859,
      "Ġincreasingly": 4860,
      "ĠFebruary": 4861,
      "Ġcos": 4862,
      "Ġcand": 4863,
      "Ġfa": 4864,
      "Ġbeat": 4865,
      "Ġep": 4866,
      "Ġrou": 4867,
      "opard": 4868,
      "ĠGener": 4869,
      "cknow": 4870,
      "Ġcoat": 4871,
      "Ġusers": 4872,
      "Ġoffence": 4873,
      "Ġshouldn": 4874,
      "atherine": 4875,
      "Ġactive": 4876,
      "Ġcris": 4877,
      "ĠSocial": 4878,
      "ternal": 4879,
      "Ġsilk": 4880,
      "Ġproposed": 4881,
      "Ġfaces": 4882,
      "Ġdrove": 4883,
      "Ġquarter": 4884,
      "Ġchallenge": 4885,
      "ĠQueen": 4886,
      "Ġtick": 4887,
      "itated": 4888,
      "Ġrid": 4889,
      "Ġdelight": 4890,
      "Ġneigh": 4891,
      "esty": 4892,
      "Ġintention": 4893,
      "Ġunable": 4894,
      "Ġparties": 4895,
      "Ġopening": 4896,
      "Ġexpressed": 4897,
      "Ġtechnical": 4898,
      "Ġdepartments": 4899,
      "Ġwonderful": 4900,
      "Ġsubstantial": 4901,
      "Ġcommercial": 4902,
      "rum": 4903,
      "Ġreception": 4904,
      "ulum": 4905,
      "ĠPre": 4906,
      "ĠRob": 4907,
      "apan": 4908,
      "Ġadapt": 4909,
      "Ġcarrying": 4910,
      "Ġglad": 4911,
      "Ġdiscour": 4912,
      "Ġfalling": 4913,
      "Ġjourney": 4914,
      "Ġpositive": 4915,
      "rogen": 4916,
      "Ġshouted": 4917,
      "kay": 4918,
      "ux": 4919,
      "Ġacknow": 4920,
      "nda": 4921,
      "ĠAf": 4922,
      "key": 4923,
      "ĠWhe": 4924,
      "Ġdebt": 4925,
      "ĠDuring": 4926,
      "Ġju": 4927,
      "Ġknees": 4928,
      "ongue": 4929,
      "raq": 4930,
      "Ġcars": 4931,
      "Ġformed": 4932,
      "ĠAsh": 4933,
      "Ġcalls": 4934,
      "ĠBeuno": 4935,
      "Ġtransport": 4936,
      "Ġdetailed": 4937,
      "Ġofficer": 4938,
      "parts": 4939,
      "ĠGeorge": 4940,
      "Ġperfectly": 4941,
      "Ġinterview": 4942,
      "Ġmirror": 4943,
      "Ġadjust": 4944,
      "Ġfurniture": 4945,
      "Per": 4946,
      "ker": 4947,
      "nic": 4948,
      "Ġaest": 4949,
      "Ġmine": 4950,
      "Ġduck": 4951,
      "icles": 4952,
      "omin": 4953,
      "ĠIm": 4954,
      "Ġstar": 4955,
      "Ġstates": 4956,
      "ĠCall": 4957,
      "Ġsevent": 4958,
      "uls": 4959,
      "Ġsuitable": 4960,
      "ĠPal": 4961,
      "Ġlies": 4962,
      "ĠJapan": 4963,
      "Ġcommit": 4964,
      "Ġcorrid": 4965,
      "Ġhole": 4966,
      "Ġcapt": 4967,
      "nes": 4968,
      "vill": 4969,
      "Ġborn": 4970,
      "ĠHur": 4971,
      "Ġchosen": 4972,
      "ĠFred": 4973,
      "ighed": 4974,
      "Ġprices": 4975,
      "elled": 4976,
      "Ġswim": 4977,
      "ĠNothing": 4978,
      "Ġdomestic": 4979,
      "Ġbanks": 4980,
      "Ġmortgage": 4981,
      "Ġvoices": 4982,
      "iu": 4983,
      "Ġax": 4984,
      "Ġsink": 4985,
      "Ġwore": 4986,
      "Ġfitted": 4987,
      "asc": 4988,
      "ache": 4989,
      "Ġwaste": 4990,
      "Ġult": 4991,
      "Ġstaring": 4992,
      "ĠAld": 4993,
      "Ġaside": 4994,
      "rix": 4995,
      "abor": 4996,
      "Ġvast": 4997,
      "Ġimpl": 4998,
      "Ġsmoke": 4999,
      "Ġeffectively": 5000,
      "Ġbloody": 5001,
      "Ġtouched": 5002,
      "Ġjacket": 5003,
      "rom": 5004,
      "hest": 5005,
      "Ġcart": 5006,
      "Ġfool": 5007,
      "arant": 5008,
      "Ġyach": 5009,
      "ĠST": 5010,
      "ĠSax": 5011,
      "Ġproved": 5012,
      "Ġsuspect": 5013,
      "Ġshock": 5014,
      "Ġshift": 5015,
      "ĠFOR": 5016,
      "cked": 5017,
      "Ġpoly": 5018,
      "ĠYuan": 5019,
      "theless": 5020,
      "Ġdrop": 5021,
      "Ġmountain": 5022,
      "ĠWilfrid": 5023,
      "Ġadopted": 5024,
      "ĠRatagan": 5025,
      "based": 5026,
      "ha": 5027,
      "ini": 5028,
      "ĠIraq": 5029,
      "ĠWal": 5030,
      "ĠWood": 5031,
      "ĠDEA": 5032,
      "ĠRuss": 5033,
      "acked": 5034,
      "itely": 5035,
      "Ġanybody": 5036,
      "Ġflesh": 5037,
      "Ġblank": 5038,
      "ovember": 5039,
      "ĠAnna": 5040,
      "Ġswing": 5041,
      "Ġguide": 5042,
      "Ġpassing": 5043,
      "Ġinsurance": 5044,
      "Ġfailure": 5045,
      "ciples": 5046,
      "Ġdebate": 5047,
      "Ġtonight": 5048,
      "Ġmaximum": 5049,
      "IG": 5050,
      "Of": 5051,
      "cons": 5052,
      "rey": 5053,
      "Ġwit": 5054,
      "asp": 5055,
      "Ġweap": 5056,
      "rier": 5057,
      "Ġselling": 5058,
      "Ġliber": 5059,
      "ĠIts": 5060,
      "ĠThose": 5061,
      "ĠVien": 5062,
      "Ġrelation": 5063,
      "Ġdevelopments": 5064,
      "Ġfinish": 5065,
      "Ġplane": 5066,
      "Ġadvance": 5067,
      "ĠSyl": 5068,
      "Ġabsor": 5069,
      "Ġdocuments": 5070,
      "Ġdistinctive": 5071,
      "ĠCentre": 5072,
      "Ġnineteenth": 5073,
      "ĠEcg": 5074,
      "Ġintellectual": 5075,
      "hire": 5076,
      "Ġtables": 5077,
      "Ġban": 5078,
      "Ġbird": 5079,
      "Ġcrying": 5080,
      "Ġfly": 5081,
      "Ġdru": 5082,
      "Ġloose": 5083,
      "Ġyard": 5084,
      "Ġwithd": 5085,
      "Ġcho": 5086,
      "unities": 5087,
      "Ġweren": 5088,
      "ĠChurch": 5089,
      "Ġcommittee": 5090,
      "upid": 5091,
      "ĠComp": 5092,
      "Ġpainted": 5093,
      "ĠCommission": 5094,
      "Ġjoint": 5095,
      "Ġholidays": 5096,
      "ĠMiranda": 5097,
      "what": 5098,
      "Ġcards": 5099,
      "ishes": 5100,
      "Ġgrown": 5101,
      "etting": 5102,
      "ĠPres": 5103,
      "ĠBefore": 5104,
      "Ġprinciples": 5105,
      "Ġautonom": 5106,
      "arrass": 5107,
      "ĠGreen": 5108,
      "Ġshadow": 5109,
      "Ġunlikely": 5110,
      "Good": 5111,
      "ST": 5112,
      "ipe": 5113,
      "rant": 5114,
      "tr": 5115,
      "Ġbull": 5116,
      "aser": 5117,
      "lebr": 5118,
      "Ġelder": 5119,
      "ads": 5120,
      "Ġstorage": 5121,
      "amin": 5122,
      "Ġfrag": 5123,
      "Ġsav": 5124,
      "Ġchapter": 5125,
      "ĠNovember": 5126,
      "Ġcloud": 5127,
      "Ġimpression": 5128,
      "Ġglo": 5129,
      "Ġends": 5130,
      "Ġcorpor": 5131,
      "Ġsigns": 5132,
      "ocol": 5133,
      "Ġcapac": 5134,
      "Ġfallen": 5135,
      "Ġreplaced": 5136,
      "Ġboys": 5137,
      "Ġphotographs": 5138,
      "Ġlatest": 5139,
      "Ġphilos": 5140,
      "ection": 5141,
      "uel": 5142,
      "Ġtone": 5143,
      "Ġow": 5144,
      "Ġbay": 5145,
      "Ġcash": 5146,
      "Ġhate": 5147,
      "lls": 5148,
      "Ġgate": 5149,
      "ĠBicker": 5150,
      "ĠMart": 5151,
      "olit": 5152,
      "ĠPen": 5153,
      "ĠLib": 5154,
      "ĠErm": 5155,
      "Ġsole": 5156,
      "orted": 5157,
      "ĠThree": 5158,
      "ĠJack": 5159,
      "Ġknowing": 5160,
      "Ġloan": 5161,
      "ĠUnder": 5162,
      "erted": 5163,
      "Ġcarbon": 5164,
      "Ġdecent": 5165,
      "roduction": 5166,
      "Ġschemes": 5167,
      "Ġskiing": 5168,
      "Ġportra": 5169,
      "Ġmulti": 5170,
      "Ġrepeated": 5171,
      "Ġhammer": 5172,
      "Come": 5173,
      "Ġtut": 5174,
      "rell": 5175,
      "ita": 5176,
      "Ġfaint": 5177,
      "Ġhat": 5178,
      "Ġhills": 5179,
      "Ġwhilst": 5180,
      "Ġwee": 5181,
      "ĠCatherine": 5182,
      "ĠNat": 5183,
      "Ġunivers": 5184,
      "Ġuses": 5185,
      "Ġflow": 5186,
      "izes": 5187,
      "Ġserved": 5188,
      "new": 5189,
      "Ġdeveloping": 5190,
      "Ġruns": 5191,
      "Ġafford": 5192,
      "Ġsatisfact": 5193,
      "Ġarchitect": 5194,
      "Ġreligious": 5195,
      "Ġforgotten": 5196,
      "Ġenthus": 5197,
      "OW": 5198,
      "Ġwand": 5199,
      "Ġtool": 5200,
      "Ġdressed": 5201,
      "Ġlift": 5202,
      "riel": 5203,
      "Ġancient": 5204,
      "ĠPage": 5205,
      "ĠRose": 5206,
      "ĠJosie": 5207,
      "ibilities": 5208,
      "Ġsubs": 5209,
      "Ġthoughts": 5210,
      "Ġhappening": 5211,
      "ĠFriday": 5212,
      "Ġleadership": 5213,
      "Ġsitu": 5214,
      "Ġpresented": 5215,
      "Ġlearned": 5216,
      "untary": 5217,
      "Ġstayed": 5218,
      "Ġcrossed": 5219,
      "Ġcalm": 5220,
      "Ġlocked": 5221,
      "Ġcomfortable": 5222,
      "Ġapparently": 5223,
      "Ġanti": 5224,
      "Ġemphasis": 5225,
      "Ġproposals": 5226,
      "Ġmeasures": 5227,
      "ĠOswiu": 5228,
      "Ġsuspic": 5229,
      "Ġhanging": 5230,
      "Ġhero": 5231,
      "imately": 5232,
      "Ġwear": 5233,
      "Ġshirt": 5234,
      "Ġunits": 5235,
      "Ġpartner": 5236,
      "Ġconscious": 5237,
      "Ġgrew": 5238,
      "Ġexamples": 5239,
      "Ġeducational": 5240,
      "Ġpressed": 5241,
      "Ġreasonable": 5242,
      "Ġproperly": 5243,
      "Ġrepresented": 5244,
      "Ġannual": 5245,
      "Ġinnoc": 5246,
      "Ġimplications": 5247,
      "Ġunemployment": 5248,
      "iance": 5249,
      "Ġtill": 5250,
      "Ġcig": 5251,
      "Ġhun": 5252,
      "Ġlun": 5253,
      "ĠCH": 5254,
      "Ġsave": 5255,
      "Ġ(Â£": 5256,
      "avy": 5257,
      "Ġrealized": 5258,
      "Ġmarry": 5259,
      "Ġindustries": 5260,
      "Ġmountains": 5261,
      "Ġdangerous": 5262,
      "ĠSometimes": 5263,
      "Ġlibrary": 5264,
      "end": 5265,
      "Ġfab": 5266,
      "Ġhomes": 5267,
      "eless": 5268,
      "ĠRad": 5269,
      "ĠOthe": 5270,
      "Ġunus": 5271,
      "Ġdesper": 5272,
      "Ġdiscover": 5273,
      "Ġprogrammes": 5274,
      "Ġpleased": 5275,
      "Ġuncertain": 5276,
      "Ġreflected": 5277,
      "Ġembarrass": 5278,
      "Ġdecline": 5279,
      "Ġpredict": 5280,
      "Ġwhispered": 5281,
      "ĠFergus": 5282,
      "Now": 5283,
      "Ġsan": 5284,
      "Ġbudget": 5285,
      "Ġdu": 5286,
      "Ġthr": 5287,
      "Ġbegun": 5288,
      "ĠTur": 5289,
      "ĠMap": 5290,
      "essed": 5291,
      "Ġmeal": 5292,
      "Ġserve": 5293,
      "Ġbrand": 5294,
      "Ġtransl": 5295,
      "Ġsounded": 5296,
      "Ġdifficulties": 5297,
      "Ġbitter": 5298,
      "Ġpatients": 5299,
      "Ġconvin": 5300,
      "Ġlinked": 5301,
      "Ġrapidly": 5302,
      "Ġaccommodation": 5303,
      "ĠDepartment": 5304,
      "ĠSociety": 5305,
      "ID": 5306,
      "cor": 5307,
      "ront": 5308,
      "iser": 5309,
      "leine": 5310,
      "ĠSur": 5311,
      "ĠSince": 5312,
      "Ġalarm": 5313,
      "Ġwheel": 5314,
      "ousing": 5315,
      "Ġunique": 5316,
      "Ġtwelve": 5317,
      "igned": 5318,
      "Ġsymp": 5319,
      "Ġcapable": 5320,
      "Ġconstruct": 5321,
      "ĠClare": 5322,
      "Ġradiation": 5323,
      "untless": 5324,
      "ĠSystem": 5325,
      "Ġrecognised": 5326,
      "Ġaffected": 5327,
      "Ġdefinition": 5328,
      "ĠMadeleine": 5329,
      "making": 5330,
      "ĠÃ": 5331,
      "enior": 5332,
      "Ġpair": 5333,
      "Ġstair": 5334,
      "ĠSand": 5335,
      "ĠHol": 5336,
      "ĠCarson": 5337,
      "ĠBen": 5338,
      "ĠNC": 5339,
      "Ġadequ": 5340,
      "arlow": 5341,
      "Ġrelease": 5342,
      "Ġnormally": 5343,
      "Ġconvention": 5344,
      "Ġcalcul": 5345,
      "Ġcomplain": 5346,
      "Ġtemperature": 5347,
      "Ġmagazine": 5348,
      "Ġroute": 5349,
      "bsp": 5350,
      "la": 5351,
      "rick": 5352,
      "uzz": 5353,
      "eness": 5354,
      "Ġfill": 5355,
      "Ġeating": 5356,
      "Ġstories": 5357,
      "Ġwhereas": 5358,
      "rows": 5359,
      "Ġcareer": 5360,
      "Ġboats": 5361,
      "Ġconfidence": 5362,
      "azed": 5363,
      "riculum": 5364,
      "Ġvalley": 5365,
      "Ġstepped": 5366,
      "Ġprincip": 5367,
      "Ġgrounds": 5368,
      "fortunately": 5369,
      "Ġpenet": 5370,
      "amental": 5371,
      "Ġtotally": 5372,
      "Ġsufficient": 5373,
      "Ġmassive": 5374,
      "ĠOthella": 5375,
      "For": 5376,
      "OO": 5377,
      "craft": 5378,
      "ns": 5379,
      "rich": 5380,
      "uine": 5381,
      "wine": 5382,
      "Ġinh": 5383,
      "Ġstruck": 5384,
      "Ġstupid": 5385,
      "ulous": 5386,
      "Ġprospect": 5387,
      "ĠWestern": 5388,
      "ested": 5389,
      "Ġmanage": 5390,
      "Ġpray": 5391,
      "Ġflour": 5392,
      "Ġprem": 5393,
      "Ġpregn": 5394,
      "ĠYOU": 5395,
      "Ġcurt": 5396,
      "Ġequally": 5397,
      "Ġsucceed": 5398,
      "ĠJoe": 5399,
      "Ġradical": 5400,
      "Ġintroduction": 5401,
      "Ġfirmly": 5402,
      "liamentary": 5403,
      "ĠDauntless": 5404,
      "bu": 5405,
      "eper": 5406,
      "Ġtbsp": 5407,
      "lex": 5408,
      "ĠLab": 5409,
      "Ġkm": 5410,
      "ĠEm": 5411,
      "ĠRiddle": 5412,
      "Ġouter": 5413,
      "Ġwilling": 5414,
      "ĠIntern": 5415,
      "Ġcentres": 5416,
      "Ġobtained": 5417,
      "Ġrefused": 5418,
      "Ġguarant": 5419,
      "Ġmedia": 5420,
      "Ġcelebr": 5421,
      "Ġspoken": 5422,
      "Ġfed": 5423,
      "Ġfile": 5424,
      "alle": 5425,
      "otic": 5426,
      "Ġstom": 5427,
      "ĠAp": 5428,
      "Ġcomplic": 5429,
      "Ġvital": 5430,
      "ĠFather": 5431,
      "Ġdog": 5432,
      "Ġclients": 5433,
      "Ġimages": 5434,
      "Ġfirms": 5435,
      "Ġstring": 5436,
      "Ġeval": 5437,
      "gina": 5438,
      "Ġmonitor": 5439,
      "ĠSecret": 5440,
      "Ġmedic": 5441,
      "Ġspecialist": 5442,
      "Ġclaims": 5443,
      "Ġencourage": 5444,
      "Ġreaction": 5445,
      "Ġdiscipline": 5446,
      "Ġremoved": 5447,
      "Ġfucking": 5448,
      "tt": 5449,
      "Ġie": 5450,
      "Ġpatch": 5451,
      "ashing": 5452,
      "utory": 5453,
      "Ġstages": 5454,
      "ifying": 5455,
      "Ġrising": 5456,
      "Ġplate": 5457,
      "Ġunw": 5458,
      "ĠInter": 5459,
      "izz": 5460,
      "elly": 5461,
      "ĠAlso": 5462,
      "Ġgeneration": 5463,
      "Ġtypical": 5464,
      "Ġreplace": 5465,
      "Ġeconomy": 5466,
      "ĠGreg": 5467,
      "while": 5468,
      "ĠVictorine": 5469,
      "Ġrecommend": 5470,
      "As": 5471,
      "lers": 5472,
      "min": 5473,
      "nings": 5474,
      "wall": 5475,
      "Ġsought": 5476,
      "Ġbomb": 5477,
      "itz": 5478,
      "aste": 5479,
      "Ġreli": 5480,
      "ĠCur": 5481,
      "Ġnoted": 5482,
      "ĠDark": 5483,
      "ĠGroup": 5484,
      "Ġunp": 5485,
      "Ġgovern": 5486,
      "Ġcriminal": 5487,
      "Ġadditional": 5488,
      "Ġdepth": 5489,
      "Ġdirector": 5490,
      "Ġdefence": 5491,
      "Ġfunctions": 5492,
      "Ġeffici": 5493,
      "Ġtaste": 5494,
      "Ġmissing": 5495,
      "Ġbowl": 5496,
      "Ġgenuine": 5497,
      "Ġexchange": 5498,
      "inction": 5499,
      "eral": 5500,
      "Ġbord": 5501,
      "ouds": 5502,
      "Ġfant": 5503,
      "Ġeth": 5504,
      "ĠAir": 5505,
      "Ġchopped": 5506,
      "Ġnobody": 5507,
      "Ġflower": 5508,
      "ĠUrs": 5509,
      "ensity": 5510,
      "ĠStud": 5511,
      "Ġbridge": 5512,
      "atively": 5513,
      "Ġdecide": 5514,
      "Ġpresum": 5515,
      "Ġexpans": 5516,
      "Ġpurity": 5517,
      "Ġcompleted": 5518,
      "Ġestim": 5519,
      "Ġdeeply": 5520,
      "AND": 5521,
      "ĠMaybe": 5522,
      "Ġassumed": 5523,
      "Ġrocks": 5524,
      "Ġsemi": 5525,
      "Ġterritory": 5526,
      "ĠMercury": 5527,
      "ka": 5528,
      "Ġtongue": 5529,
      "Ġbab": 5530,
      "arc": 5531,
      "standing": 5532,
      "sex": 5533,
      "Ġstore": 5534,
      "ĠHome": 5535,
      "Ġattend": 5536,
      "Ġprosec": 5537,
      "abbed": 5538,
      "Ġchief": 5539,
      "Ġvide": 5540,
      "Ġuncom": 5541,
      "Ġbranch": 5542,
      "Ġcheap": 5543,
      "bey": 5544,
      "Ġincorpor": 5545,
      "bridge": 5546,
      "Ġelsewhere": 5547,
      "Ġraise": 5548,
      "umbled": 5549,
      "Ġvolume": 5550,
      "Ġeighteen": 5551,
      "Ġmurm": 5552,
      "Ġcommunication": 5553,
      "Ġburning": 5554,
      "Ġencoun": 5555,
      "Ġcomprehensive": 5556,
      "Ġstomach": 5557,
      "CS": 5558,
      "lies": 5559,
      "Ġtor": 5560,
      "Ġtip": 5561,
      "erous": 5562,
      "Ġpadd": 5563,
      "Ġhyd": 5564,
      "asy": 5565,
      "Ġgro": 5566,
      "etch": 5567,
      "ĠBas": 5568,
      "ĠWomen": 5569,
      "Ġshif": 5570,
      "Ġplum": 5571,
      "aks": 5572,
      "Ġcoal": 5573,
      "clock": 5574,
      "inton": 5575,
      "ĠChild": 5576,
      "Ġseek": 5577,
      "ĠStr": 5578,
      "Ġdistant": 5579,
      "ĠAlf": 5580,
      "Ġcolumn": 5581,
      "ERS": 5582,
      "Ġpostmodern": 5583,
      "ĠNewley": 5584,
      "Ġlistening": 5585,
      "ĠPlummer": 5586,
      "Ġordinary": 5587,
      "ĠJeopard": 5588,
      "Ġeggs": 5589,
      "ĠLocal": 5590,
      "bot": 5591,
      "case": 5592,
      "xide": 5593,
      "Ġtack": 5594,
      "Ġsna": 5595,
      "Ġcoo": 5596,
      "Ġdio": 5597,
      "Ġstiff": 5598,
      "amps": 5599,
      "cend": 5600,
      "ĠHill": 5601,
      "ĠHall": 5602,
      "ĠMus": 5603,
      "Ġsevere": 5604,
      "ĠPan": 5605,
      "unction": 5606,
      "ĠGree": 5607,
      "Ġcoin": 5608,
      "Ġdiss": 5609,
      "Ġspin": 5610,
      "Ġproducing": 5611,
      "Ġmarkets": 5612,
      "Ġpurs": 5613,
      "Ġemployed": 5614,
      "Ġwidely": 5615,
      "Ġmotion": 5616,
      "Ġcotton": 5617,
      "Ġhonest": 5618,
      "Ġmessage": 5619,
      "Ġreferred": 5620,
      "Ġadvertising": 5621,
      "Ġsubordinates": 5622,
      "known": 5623,
      "Can": 5624,
      "Script": 5625,
      "awn": 5626,
      "kins": 5627,
      "Ġaid": 5628,
      "Ġsilly": 5629,
      "ato": 5630,
      "Ġpounds": 5631,
      "Ġstuck": 5632,
      "ĠSus": 5633,
      "oper": 5634,
      "ella": 5635,
      "Ġkeys": 5636,
      "Ġacts": 5637,
      "Ġsubm": 5638,
      "Ġglob": 5639,
      "velopment": 5640,
      "uclear": 5641,
      "Ġfinds": 5642,
      "Ġcrime": 5643,
      "Ġhappens": 5644,
      "Ġeastern": 5645,
      "Ġstructures": 5646,
      "Ġpurposes": 5647,
      "ĠOffice": 5648,
      "Ġcontribution": 5649,
      "Ġjournal": 5650,
      "Ġinterpre": 5651,
      "ĠMinister": 5652,
      "Ġspectac": 5653,
      "Ġweeke": 5654,
      "AB": 5655,
      "apped": 5656,
      "can": 5657,
      "overy": 5658,
      "pic": 5659,
      "Ġing": 5660,
      "Ġfiles": 5661,
      "Ġthrew": 5662,
      "Ġyouth": 5663,
      "ĠCON": 5664,
      "Ġconference": 5665,
      "ĠWin": 5666,
      "Ġdeleg": 5667,
      "ppers": 5668,
      "ĠPear": 5669,
      "Ġworried": 5670,
      "Ġenable": 5671,
      "Ġinterior": 5672,
      "Ġoblig": 5673,
      "Ġturns": 5674,
      "Ġattitudes": 5675,
      "Ġsecure": 5676,
      "Ġprocessing": 5677,
      "Ġtreated": 5678,
      "Ġhighest": 5679,
      "Ġgardens": 5680,
      "Ġefforts": 5681,
      "Ġnecessarily": 5682,
      "ridge": 5683,
      "Ġlargest": 5684,
      "Ġpreviously": 5685,
      "Ġdeliber": 5686,
      "Ġdestroy": 5687,
      "Ġrevealed": 5688,
      "Ġfighting": 5689,
      "ĠAfric": 5690,
      "ĠLabour": 5691,
      "ĠInternational": 5692,
      "ĠUrsula": 5693,
      "ties": 5694,
      "Ġwest": 5695,
      "Ġmile": 5696,
      "Ġforth": 5697,
      "ĠMA": 5698,
      "Ġconver": 5699,
      "ights": 5700,
      "earch": 5701,
      "Ġappeal": 5702,
      "Ġswall": 5703,
      "ĠArt": 5704,
      "Ġmovements": 5705,
      "ĠEdgar": 5706,
      "Ġburst": 5707,
      "Ġcorridor": 5708,
      "Right": 5709,
      "host": 5710,
      "oly": 5711,
      "Ġtie": 5712,
      "ĠTy": 5713,
      "Ġgap": 5714,
      "eties": 5715,
      "ura": 5716,
      "Ġsake": 5717,
      "Ġkid": 5718,
      "Ġaband": 5719,
      "ĠOpen": 5720,
      "Ġtrick": 5721,
      "Ġune": 5722,
      "ĠThom": 5723,
      "Ġenorm": 5724,
      "Ġcompon": 5725,
      "Ġdiff": 5726,
      "Ġbuying": 5727,
      "Ġsets": 5728,
      "Ġstudied": 5729,
      "Ġperspect": 5730,
      "ographical": 5731,
      "ĠPrince": 5732,
      "Ġstrike": 5733,
      "Ġvisitors": 5734,
      "ĠHugh": 5735,
      "Ġpupils": 5736,
      "ĠProfess": 5737,
      "Ġcigaret": 5738,
      "Ġtheories": 5739,
      "Ġsighed": 5740,
      "Ġcin": 5741,
      "Ġcore": 5742,
      "Ġnerv": 5743,
      "irts": 5744,
      "ĠMal": 5745,
      "ĠPat": 5746,
      "ĠRem": 5747,
      "Ġagent": 5748,
      "ocks": 5749,
      "Ġguid": 5750,
      "azing": 5751,
      "Ġequal": 5752,
      "Ġfunny": 5753,
      "Ġabsence": 5754,
      "ĠGeorgina": 5755,
      "ĠSmith": 5756,
      "ĠSupp": 5757,
      "looking": 5758,
      "Ġozone": 5759,
      "ĠDirector": 5760,
      "Ġdisappoint": 5761,
      "ĠJeopardy": 5762,
      "iated": 5763,
      "uable": 5764,
      "vis": 5765,
      "inent": 5766,
      "Ġmap": 5767,
      "Ġmig": 5768,
      "icing": 5769,
      "Ġreck": 5770,
      "Ġwealth": 5771,
      "ilo": 5772,
      "ĠMuseum": 5773,
      "Ġneat": 5774,
      "ĠPoll": 5775,
      "umin": 5776,
      "ĠOld": 5777,
      "ĠJuly": 5778,
      "Ġheads": 5779,
      "Ġrealise": 5780,
      "Ġdoub": 5781,
      "Ġhealthy": 5782,
      "Ġidentify": 5783,
      "Ġvoluntary": 5784,
      "Ġbringing": 5785,
      "ĠFinally": 5786,
      "Ġlaughing": 5787,
      "Ġwindsurf": 5788,
      "Ġfifty": 5789,
      "Ġbathroom": 5790,
      "Ġleaned": 5791,
      "Ġsymbol": 5792,
      "Ġfrightened": 5793,
      "St": 5794,
      "oot": 5795,
      "Ġhang": 5796,
      "otted": 5797,
      "ĠSl": 5798,
      "cho": 5799,
      "geois": 5800,
      "ĠMag": 5801,
      "Ġshoes": 5802,
      "Ġsheets": 5803,
      "Ġmeat": 5804,
      "unched": 5805,
      "ĠFlight": 5806,
      "ivered": 5807,
      "ĠGulf": 5808,
      "Ġoutl": 5809,
      "ĠNorm": 5810,
      "Ġcommitted": 5811,
      "Ġentry": 5812,
      "Ġpublication": 5813,
      "Ġsupported": 5814,
      "Ġmedium": 5815,
      "Ġclaimed": 5816,
      "Ġkingdom": 5817,
      "ĠMoreover": 5818,
      "ĠPostScript": 5819,
      "ĠHurley": 5820,
      "Ġcapacity": 5821,
      "HS": 5822,
      "Let": 5823,
      "Ġtro": 5824,
      "inger": 5825,
      "Ġpush": 5826,
      "orim": 5827,
      "Ġdish": 5828,
      "ĠTom": 5829,
      "Ġyeah": 5830,
      "Ġforty": 5831,
      "ilty": 5832,
      "Ġconven": 5833,
      "Ġship": 5834,
      "acking": 5835,
      "Ġcope": 5836,
      "ĠJac": 5837,
      "Ġspeech": 5838,
      "Ġcommand": 5839,
      "Ġsuppli": 5840,
      "lessly": 5841,
      "Ġconfront": 5842,
      "Ġmaintain": 5843,
      "ĠWhich": 5844,
      "Ġsecondary": 5845,
      "Ġorders": 5846,
      "ĠSomething": 5847,
      "Ġpowder": 5848,
      "Ġexplanation": 5849,
      "gl": 5850,
      "with": 5851,
      "worth": 5852,
      "Ġware": 5853,
      "nders": 5854,
      "Ġmicro": 5855,
      "Ġeast": 5856,
      "utation": 5857,
      "ĠPlease": 5858,
      "Ġchain": 5859,
      "Ġchocol": 5860,
      "Ġvent": 5861,
      "alling": 5862,
      "ĠRich": 5863,
      "Ġleather": 5864,
      "ĠOw": 5865,
      "Ġteach": 5866,
      "Ġclouds": 5867,
      "Ġenh": 5868,
      "Ġcomposition": 5869,
      "berg": 5870,
      "Ġanywhere": 5871,
      "ressive": 5872,
      "ogether": 5873,
      "Ġemissions": 5874,
      "pected": 5875,
      "Ġsupplied": 5876,
      "Ġcareful": 5877,
      "Ġmoon": 5878,
      "Ġpassage": 5879,
      "Ġcharged": 5880,
      "Ġconsideration": 5881,
      "Ġlistened": 5882,
      "Ġdescription": 5883,
      "Ġbrothers": 5884,
      "Ġfavourite": 5885,
      "Ġconfirmed": 5886,
      "Ġduty": 5887,
      "aust": 5888,
      "Ġsul": 5889,
      "erves": 5890,
      "Ġears": 5891,
      "ĠTre": 5892,
      "Ġprove": 5893,
      "Ġvia": 5894,
      "ĠDay": 5895,
      "ultural": 5896,
      "Ġmargin": 5897,
      "Ġsites": 5898,
      "anche": 5899,
      "Ġpolitics": 5900,
      "Ġpackage": 5901,
      "Ġdevice": 5902,
      "Ġfunds": 5903,
      "Ġfunding": 5904,
      "Ġcontrolled": 5905,
      "Ġfonts": 5906,
      "Ġwitness": 5907,
      "ĠMartin": 5908,
      "IR": 5909,
      "Just": 5910,
      "UT": 5911,
      "wich": 5912,
      "wald": 5913,
      "Ġtun": 5914,
      "Ġhidden": 5915,
      "Ġmuseum": 5916,
      "Ġstated": 5917,
      "Ġneare": 5918,
      "elf": 5919,
      "ĠGlyn": 5920,
      "icking": 5921,
      "ĠChapter": 5922,
      "Ġemission": 5923,
      "Ġafterwards": 5924,
      "Ġfeels": 5925,
      "Ġguests": 5926,
      "Ġguilty": 5927,
      "Ġinsisted": 5928,
      "Ġcharges": 5929,
      "Ġtransm": 5930,
      "Ġpromise": 5931,
      "ilingual": 5932,
      "Ġbadly": 5933,
      "Ġidentity": 5934,
      "Ġglasses": 5935,
      "Ġmissed": 5936,
      "Ġopportunities": 5937,
      "Ġdramatic": 5938,
      "Perhaps": 5939,
      "EW": 5940,
      "UC": 5941,
      "cont": 5942,
      "het": 5943,
      "rer": 5944,
      "Ġbishop": 5945,
      "iders": 5946,
      "ĠBre": 5947,
      "ĠLind": 5948,
      "ĠGall": 5949,
      "agues": 5950,
      "Ġagg": 5951,
      "ĠChair": 5952,
      "ologists": 5953,
      "Ġentertain": 5954,
      "Ġopera": 5955,
      "Ġstreets": 5956,
      "Ġacceptable": 5957,
      "Ġkeyboard": 5958,
      "Ġsignificance": 5959,
      "ĠNorthumb": 5960,
      "Ġdressing": 5961,
      "Ġsettled": 5962,
      "Ġcottage": 5963,
      "Ġdistinguished": 5964,
      "Ġframework": 5965,
      "ĠBourdie": 5966,
      "ĠGeneral": 5967,
      "Ġdioxide": 5968,
      "AM": 5969,
      "AP": 5970,
      "uate": 5971,
      "Ġtub": 5972,
      "ĠTour": 5973,
      "imp": 5974,
      "ĠAriel": 5975,
      "ĠCam": 5976,
      "ĠCarl": 5977,
      "ĠLin": 5978,
      "ĠRy": 5979,
      "Ġupstairs": 5980,
      "Ġhasn": 5981,
      "ildon": 5982,
      "nection": 5983,
      "alend": 5984,
      "ĠUnion": 5985,
      "ĠArtic": 5986,
      "Ġoperate": 5987,
      "Ġopposition": 5988,
      "ĠCanad": 5989,
      "mingham": 5990,
      "Ġgolden": 5991,
      "Ġautomatic": 5992,
      "Ġemerged": 5993,
      "Ġpiano": 5994,
      "Ġunusual": 5995,
      "Look": 5996,
      "ai": 5997,
      "ycle": 5998,
      "oral": 5999,
      "Ġnit": 6000,
      "ĠTod": 6001,
      "Ġgest": 6002,
      "Ġwashing": 6003,
      "Ġexternal": 6004,
      "ĠPri": 6005,
      "ela": 6006,
      "Ġclient": 6007,
      "ograp": 6008,
      "Ġspending": 6009,
      "ĠVery": 6010,
      "gged": 6011,
      "Ġended": 6012,
      "Ġentit": 6013,
      "Ġinformal": 6014,
      "Ġrequires": 6015,
      "Ġdriver": 6016,
      "Ġefficient": 6017,
      "Ġtowns": 6018,
      "Ġenjoyed": 6019,
      "Ġtrous": 6020,
      "Ġassociation": 6021,
      "Ġcooking": 6022,
      "ĠContact": 6023,
      "ĠAngli": 6024,
      "Ġstruggle": 6025,
      "Ġvariations": 6026,
      "Ġpaused": 6027,
      "Ġprocedures": 6028,
      "Ġchemical": 6029,
      "Ġdiscourse": 6030,
      "Ġexpansion": 6031,
      "ĠAlfred": 6032,
      "On": 6033,
      "writ": 6034,
      "onic": 6035,
      "Ġpill": 6036,
      "Ġhal": 6037,
      "anish": 6038,
      "Ġnuclear": 6039,
      "utive": 6040,
      "ĠMum": 6041,
      "arded": 6042,
      "rous": 6043,
      "Ġtrained": 6044,
      "Ġsomewhat": 6045,
      "Ġagents": 6046,
      "Ġseeking": 6047,
      "Ġcheese": 6048,
      "Ġroads": 6049,
      "Ġparliamentary": 6050,
      "Ġelectronic": 6051,
      "Ġbeauty": 6052,
      "Ġassume": 6053,
      "Ġdepends": 6054,
      "Ġrarely": 6055,
      "Ġappointed": 6056,
      "Ġinvolvement": 6057,
      "ĠAustral": 6058,
      "ĠEadwine": 6059,
      "Ġaesthetic": 6060,
      "rating": 6061,
      "Ġox": 6062,
      "itals": 6063,
      "Ġpul": 6064,
      "idents": 6065,
      "semb": 6066,
      "ĠSci": 6067,
      "irgin": 6068,
      "aming": 6069,
      "ĠCO": 6070,
      "ĠCome": 6071,
      "Ġantic": 6072,
      "ĠMass": 6073,
      "ĠMond": 6074,
      "ĠMarsh": 6075,
      "Ġsust": 6076,
      "techn": 6077,
      "tending": 6078,
      "ĠDist": 6079,
      "ouses": 6080,
      "ĠJen": 6081,
      "ensions": 6082,
      "Ġmostly": 6083,
      "Ġglance": 6084,
      "Ġattrib": 6085,
      "Ġcurriculum": 6086,
      "ĠChristian": 6087,
      "Ġurg": 6088,
      "Ġannounced": 6089,
      "force": 6090,
      "ĠResearch": 6091,
      "Ġreminded": 6092,
      "Ġcamer": 6093,
      "Ġfaith": 6094,
      "ĠBourdieu": 6095,
      "Any": 6096,
      "gers": 6097,
      "she": 6098,
      "athered": 6099,
      "itative": 6100,
      "ĠTH": 6101,
      "ĠTax": 6102,
      "Ġreign": 6103,
      "ĠHa": 6104,
      "ĠHousing": 6105,
      "ĠHarlow": 6106,
      "ĠMuch": 6107,
      "Ġsequ": 6108,
      "Ġsections": 6109,
      "Ġexclus": 6110,
      "arts": 6111,
      "pted": 6112,
      "ĠInte": 6113,
      "Ġdise": 6114,
      "Ġprepar": 6115,
      "Ġthinks": 6116,
      "Ġrelie": 6117,
      "Ġprovisions": 6118,
      "Ġlandl": 6119,
      "Ġequival": 6120,
      "Ġmusical": 6121,
      "Ġreturning": 6122,
      "boards": 6123,
      "Ġreduction": 6124,
      "Ġpotatoes": 6125,
      "Ġamongst": 6126,
      "Ġcolleagues": 6127,
      "ĠLouis": 6128,
      "Ġrestaurant": 6129,
      "Ġelderly": 6130,
      "pi": 6131,
      "Ġtaught": 6132,
      "Ġhom": 6133,
      "ste": 6134,
      "Ġwash": 6135,
      "ĠHad": 6136,
      "ĠMid": 6137,
      "Ġconnection": 6138,
      "Ġsuffe": 6139,
      "ĠEr": 6140,
      "ĠDet": 6141,
      "inding": 6142,
      "Ġagencies": 6143,
      "Ġcontained": 6144,
      "Ġresolution": 6145,
      "Ġcarpet": 6146,
      "ĠAss": 6147,
      "Ġdistur": 6148,
      "Ġswung": 6149,
      "Ġplayer": 6150,
      "Ġtrends": 6151,
      "Ġdrift": 6152,
      "ĠLeban": 6153,
      "Ġallows": 6154,
      "ARD": 6155,
      "Ġtrip": 6156,
      "Ġarranged": 6157,
      "Ġprojects": 6158,
      "Ġclimbed": 6159,
      "Ġirrit": 6160,
      "Ġcupboard": 6161,
      "Ġmistake": 6162,
      "Ġemotional": 6163,
      "Ġdisappeared": 6164,
      "Ġpublishers": 6165,
      "Ġintelligence": 6166,
      "ville": 6167,
      "Ġportrait": 6168,
      "Ġweekend": 6169,
      "Or": 6170,
      "Sh": 6171,
      "erb": 6172,
      "Ġfal": 6173,
      "Ġgod": 6174,
      "iring": 6175,
      "Ġshorter": 6176,
      "Ġexec": 6177,
      "ĠFour": 6178,
      "Ġperman": 6179,
      "Ġinvited": 6180,
      "tenance": 6181,
      "Ġboil": 6182,
      "Ġhighlight": 6183,
      "Ġadvanced": 6184,
      "Ġadmitted": 6185,
      "Ġcharacters": 6186,
      "Ġdealing": 6187,
      "Ġcircle": 6188,
      "Ġrecognition": 6189,
      "Ġfundamental": 6190,
      "Ġstatutory": 6191,
      "Ġindicate": 6192,
      "Ġexhaust": 6193,
      "ĠCollege": 6194,
      "pm": 6195,
      "Ġtent": 6196,
      "Ġsenior": 6197,
      "aters": 6198,
      "Ġbot": 6199,
      "isters": 6200,
      "ĠTut": 6201,
      "Ġreject": 6202,
      "urally": 6203,
      "ĠHot": 6204,
      "ĠHand": 6205,
      "ĠBus": 6206,
      "ĠMand": 6207,
      "ĠMax": 6208,
      "Ġrat": 6209,
      "Ġdecre": 6210,
      "Ġvision": 6211,
      "ĠGiles": 6212,
      "aren": 6213,
      "Ġfeed": 6214,
      "Ġunex": 6215,
      "ĠJup": 6216,
      "Ġrolled": 6217,
      "Ġscope": 6218,
      "Ġrig": 6219,
      "Ġremaining": 6220,
      "Ġcorn": 6221,
      "Ġpassion": 6222,
      "Ġprofit": 6223,
      "Ġoperations": 6224,
      "Ġpaying": 6225,
      "Ġwondering": 6226,
      "Ġargue": 6227,
      "Ġsocieties": 6228,
      "Ġadmit": 6229,
      "Ġcriter": 6230,
      "Ġcharacteristics": 6231,
      "ĠParliament": 6232,
      "âĢ¢": 6233,
      "ĠGlas": 6234,
      "Ġshopping": 6235,
      "Ġnegot": 6236,
      "Ġexciting": 6237,
      "Ġfifteen": 6238,
      "ĠInstitute": 6239,
      "ĠApple": 6240,
      "Ġvirtually": 6241,
      "ĠBirmingham": 6242,
      "ĠJupiter": 6243,
      "BC": 6244,
      "IP": 6245,
      "ius": 6246,
      "phen": 6247,
      "vest": 6248,
      "Ġid": 6249,
      "hem": 6250,
      "Ġwound": 6251,
      "Ġcas": 6252,
      "oty": 6253,
      "heric": 6254,
      "ĠHave": 6255,
      "ĠCross": 6256,
      "olved": 6257,
      "abled": 6258,
      "ĠLong": 6259,
      "Ġvul": 6260,
      "ĠRE": 6261,
      "Ġworn": 6262,
      "Ġagency": 6263,
      "Ġenem": 6264,
      "Ġoffices": 6265,
      "Ġbrick": 6266,
      "Ġclever": 6267,
      "Ġapproaches": 6268,
      "Ġseconds": 6269,
      "Ġcoloured": 6270,
      "Ġwarning": 6271,
      "ospheric": 6272,
      "Ġsoftly": 6273,
      "Ġstrongly": 6274,
      "Ġpenal": 6275,
      "Ġchecked": 6276,
      "Ġdemanded": 6277,
      "Ġignored": 6278,
      "ĠInstead": 6279,
      "Ġpaintings": 6280,
      "ĠParty": 6281,
      "ĠConservative": 6282,
      "Ġslipped": 6283,
      "Ġinterpretation": 6284,
      "Ġconventional": 6285,
      "Ġprincipal": 6286,
      "Bec": 6287,
      "Your": 6288,
      "bald": 6289,
      "point": 6290,
      "Ġthorough": 6291,
      "Ġbeer": 6292,
      "ĠMod": 6293,
      "ĠLa": 6294,
      "Ġlikes": 6295,
      "Ġoutcome": 6296,
      "agne": 6297,
      "cks": 6298,
      "Ġfeather": 6299,
      "Ġunl": 6300,
      "Ġhanded": 6301,
      "Ġreluct": 6302,
      "Ġourselves": 6303,
      "Ġentrance": 6304,
      "Ġdiscount": 6305,
      "Ġgreatest": 6306,
      "Ġkinds": 6307,
      "ographic": 6308,
      "Ġsuperior": 6309,
      "Ġtasks": 6310,
      "addam": 6311,
      "which": 6312,
      "Ġcreating": 6313,
      "ĠControl": 6314,
      "ĠVanny": 6315,
      "Ġaccompanied": 6316,
      "Ġcurtains": 6317,
      "Ġanticip": 6318,
      "Ah": 6319,
      "MS": 6320,
      "May": 6321,
      "Maker": 6322,
      "URE": 6323,
      "lor": 6324,
      "Ġvert": 6325,
      "orous": 6326,
      "arian": 6327,
      "Ġnut": 6328,
      "oting": 6329,
      "ĠSchool": 6330,
      "ĠAv": 6331,
      "Ġclock": 6332,
      "ĠThird": 6333,
      "Ġpartners": 6334,
      "Ġregulation": 6335,
      "Ġcalling": 6336,
      "Ġstarts": 6337,
      "Ġfourth": 6338,
      "Ġdirected": 6339,
      "Ġlanding": 6340,
      "Ġartist": 6341,
      "Ġmeetings": 6342,
      "Ġallowing": 6343,
      "Ġtechnique": 6344,
      "Ġsolution": 6345,
      "Ġdifficulty": 6346,
      "Ġparalle": 6347,
      "Ġwoods": 6348,
      "Ġvolat": 6349,
      "ĠSteen": 6350,
      "Ġceiling": 6351,
      "Ġattempts": 6352,
      "Ġdivided": 6353,
      "Ġawareness": 6354,
      "ICE": 6355,
      "Ġinstruments": 6356,
      "ĠMercian": 6357,
      "Ġanxious": 6358,
      "Ġcontinuing": 6359,
      "Ġhistorical": 6360,
      "Ġnewspaper": 6361,
      "Ġadministr": 6362,
      "gow": 6363,
      "lu": 6364,
      "wulf": 6365,
      "Ġsac": 6366,
      "Ġwra": 6367,
      "Ġwestern": 6368,
      "ĠTreat": 6369,
      "otilla": 6370,
      "ĠSal": 6371,
      "Ġcharm": 6372,
      "ĠNature": 6373,
      "Ġintent": 6374,
      "Ġarmy": 6375,
      "Ġprev": 6376,
      "Ġinterrupt": 6377,
      "Ġdecades": 6378,
      "Ġexpand": 6379,
      "Ġtells": 6380,
      "Ġcreation": 6381,
      "Ġarticle": 6382,
      "Ġvisible": 6383,
      "Ġpromised": 6384,
      "Ġsolar": 6385,
      "Ġillness": 6386,
      "Ġterror": 6387,
      "Ġsubjects": 6388,
      "Ġaims": 6389,
      "Ġencouraged": 6390,
      "Ġcatal": 6391,
      "Ġpromotion": 6392,
      "Ġcontemporary": 6393,
      "Ġgallery": 6394,
      "Ġdismiss": 6395,
      "ĠSecretary": 6396,
      "Ġsnapped": 6397,
      "ĠArticle": 6398,
      "Because": 6399,
      "nut": 6400,
      "wick": 6401,
      "Ġsin": 6402,
      "Ġfulf": 6403,
      "Ġdiet": 6404,
      "ĠIV": 6405,
      "stit": 6406,
      "ĠWater": 6407,
      "Ġexpend": 6408,
      "ĠPol": 6409,
      "ustrial": 6410,
      "ums": 6411,
      "Ġthank": 6412,
      "Ġlocation": 6413,
      "Ġscore": 6414,
      "Ġswitch": 6415,
      "ĠShildon": 6416,
      "Ġdriven": 6417,
      "Ġforehead": 6418,
      "Ġterr": 6419,
      "Ġlayout": 6420,
      "Ġslee": 6421,
      "Ġmotiv": 6422,
      "Ġfrequent": 6423,
      "Ġshadows": 6424,
      "Ġacquired": 6425,
      "ĠSimon": 6426,
      "Ġdominant": 6427,
      "ĠAgain": 6428,
      "Ġsubsequent": 6429,
      "Ġaston": 6430,
      "ĠWalter": 6431,
      "UL": 6432,
      "ĠâĢ¢": 6433,
      "Ġbour": 6434,
      "Ġpoured": 6435,
      "Ġdance": 6436,
      "Ġlaughter": 6437,
      "leep": 6438,
      "Ġease": 6439,
      "uther": 6440,
      "Ġyards": 6441,
      "ĠSki": 6442,
      "rigal": 6443,
      "ĠMill": 6444,
      "ĠMother": 6445,
      "Ġsoil": 6446,
      "Ġclut": 6447,
      "claim": 6448,
      "Ġconspic": 6449,
      "ĠKarr": 6450,
      "rentice": 6451,
      "Ġsimpl": 6452,
      "Ġapproached": 6453,
      "Ġinsist": 6454,
      "Ġmoments": 6455,
      "Ġfriendly": 6456,
      "Ġdescribe": 6457,
      "Ġbreathing": 6458,
      "Ġcopies": 6459,
      "Ġcombination": 6460,
      "Ġoptions": 6461,
      "ILL": 6462,
      "Ġsurrounding": 6463,
      "Ġexhibition": 6464,
      "ĠGlynn": 6465,
      "OC": 6466,
      "Ur": 6467,
      "bits": 6468,
      "ray": 6469,
      "vin": 6470,
      "Ġtape": 6471,
      "Ġoption": 6472,
      "onen": 6473,
      "Ġcit": 6474,
      "Ġding": 6475,
      "Ġheating": 6476,
      "ĠSaddam": 6477,
      "uries": 6478,
      "Ġwelf": 6479,
      "ĠBE": 6480,
      "ĠLife": 6481,
      "ĠFel": 6482,
      "ags": 6483,
      "Ġcanal": 6484,
      "urely": 6485,
      "Ġfellow": 6486,
      "Ġcomposed": 6487,
      "ĠChamp": 6488,
      "Ġdistrict": 6489,
      "olds": 6490,
      "Ġattitude": 6491,
      "Ġorganiz": 6492,
      "Ġlighting": 6493,
      "hips": 6494,
      "Ġrecords": 6495,
      "Ġwaters": 6496,
      "Ġmounted": 6497,
      "Ġfemin": 6498,
      "Ġaffairs": 6499,
      "Ġgrave": 6500,
      "Ġconcentration": 6501,
      "Ġdelivery": 6502,
      "Ġimprovement": 6503,
      "Ġgrinned": 6504,
      "Ġlucky": 6505,
      "ĠSaxons": 6506,
      "ĠThomas": 6507,
      "ĠTutilo": 6508,
      "ĠGlasgow": 6509,
      "hol": 6510,
      "water": 6511,
      "Ġbent": 6512,
      "icit": 6513,
      "Ġchin": 6514,
      "Ġupset": 6515,
      "Ġenquir": 6516,
      "Ġroyal": 6517,
      "Ġcontains": 6518,
      "Ġresidential": 6519,
      "Ġphase": 6520,
      "Ġattached": 6521,
      "Ġeditor": 6522,
      "ertainly": 6523,
      "ĠDev": 6524,
      "Ġairport": 6525,
      "Ġsteady": 6526,
      "rooms": 6527,
      "Ġfacing": 6528,
      "Ġperiods": 6529,
      "Ġrecorded": 6530,
      "Ġthreatened": 6531,
      "ROOM": 6532,
      "inette": 6533,
      "Ġclosing": 6534,
      "ersonal": 6535,
      "Ġresistance": 6536,
      "Ġgentle": 6537,
      "ĠAccording": 6538,
      "ĠBede": 6539,
      "Ġcrisis": 6540,
      "Ġadequate": 6541,
      "Ġtrousers": 6542,
      "Ġbourgeois": 6543,
      "ef": 6544,
      "ma": 6545,
      "rd": 6546,
      "Ġtid": 6547,
      "Ġtension": 6548,
      "Ġaward": 6549,
      "rem": 6550,
      "Ġwaves": 6551,
      "eries": 6552,
      "erry": 6553,
      "orial": 6554,
      "Ġlap": 6555,
      "Ġthrown": 6556,
      "llen": 6557,
      "Ġreass": 6558,
      "Ġrecession": 6559,
      "ilarly": 6560,
      "oop": 6561,
      "agged": 6562,
      "Ġgoals": 6563,
      "Ġspite": 6564,
      "Ġspons": 6565,
      "Ġbrain": 6566,
      "Ġpractition": 6567,
      "Ġreadily": 6568,
      "Ġsteep": 6569,
      "cuse": 6570,
      "Thank": 6571,
      "Ġreleased": 6572,
      "Ġimproved": 6573,
      "Ġdiscussed": 6574,
      "Ġbriefly": 6575,
      "ĠBillie": 6576,
      "Ġconsequences": 6577,
      "ĠFarrell": 6578,
      "Ġchocolate": 6579,
      "ĠMonday": 6580,
      "Ġwelfare": 6581,
      "MENT": 6582,
      "TI": 6583,
      "car": 6584,
      "inth": 6585,
      "reland": 6586,
      "Ġflying": 6587,
      "Ġdial": 6588,
      "Ġnative": 6589,
      "ĠSub": 6590,
      "ĠBur": 6591,
      "ĠWould": 6592,
      "ĠWard": 6593,
      "ĠRight": 6594,
      "roud": 6595,
      "Ġyours": 6596,
      "rue": 6597,
      "Ġblow": 6598,
      "ĠAnn": 6599,
      "Ġexposed": 6600,
      "Ġmothers": 6601,
      "Ġexplo": 6602,
      "ĠCommon": 6603,
      "Ġpractices": 6604,
      "Ġlandsc": 6605,
      "Ġlimits": 6606,
      "Ġpolicem": 6607,
      "Ġemployees": 6608,
      "Ġcauses": 6609,
      "Ġstriking": 6610,
      "Ġuncle": 6611,
      "Ġcombined": 6612,
      "Ġbags": 6613,
      "Ġagreement": 6614,
      "Ġintervention": 6615,
      "Ġsprink": 6616,
      "Ġparticipation": 6617,
      "Ġconfirm": 6618,
      "Ġsplit": 6619,
      "Ġcomparison": 6620,
      "Ġradiator": 6621,
      "bara": 6622,
      "Ġroutine": 6623,
      "ĠTolonen": 6624,
      "Ġcommitment": 6625,
      "ĠPageMaker": 6626,
      "Ġconvinced": 6627,
      "oons": 6628,
      "sm": 6629,
      "vi": 6630,
      "rees": 6631,
      "Ġbrill": 6632,
      "Ġfasc": 6633,
      "Ġhint": 6634,
      "Ġecho": 6635,
      "Ġgather": 6636,
      "ĠCa": 6637,
      "Ġnotion": 6638,
      "oret": 6639,
      "Ġexcess": 6640,
      "that": 6641,
      "ĠPut": 6642,
      "opes": 6643,
      "ĠFire": 6644,
      "igs": 6645,
      "rav": 6646,
      "ulture": 6647,
      "Ġcommission": 6648,
      "Ġbuff": 6649,
      "Ġapprox": 6650,
      "Ġinformed": 6651,
      "Ġvaried": 6652,
      "inese": 6653,
      "ervations": 6654,
      "Ġinvolving": 6655,
      "Ġconsidering": 6656,
      "Ġprinters": 6657,
      "Ġbegins": 6658,
      "Ġeleven": 6659,
      "Ġrevolution": 6660,
      "Ġaffair": 6661,
      "ĠPenda": 6662,
      "ĠBerlin": 6663,
      "Ġbarely": 6664,
      "Ġconnected": 6665,
      "Ġfrowned": 6666,
      "Ġglobal": 6667,
      "Ġnervous": 6668,
      "rek": 6669,
      "Ġwip": 6670,
      "Ġwave": 6671,
      "oub": 6672,
      "ĠIreland": 6673,
      "ĠTra": 6674,
      "cel": 6675,
      "Ġexem": 6676,
      "ĠPR": 6677,
      "osure": 6678,
      "Ġtruly": 6679,
      "ĠIne": 6680,
      "Ġbrass": 6681,
      "Ġregist": 6682,
      "Ġmaintenance": 6683,
      "Ġcutting": 6684,
      "Ġsuffer": 6685,
      "Ġsecretary": 6686,
      "ĠAngles": 6687,
      "Ġstrategies": 6688,
      "ĠScottish": 6689,
      "Ġsoul": 6690,
      "ĠService": 6691,
      "Ġvehicle": 6692,
      "Ġdefendant": 6693,
      "ĠGarden": 6694,
      "Ġphilosop": 6695,
      "ĠPearce": 6696,
      "Have": 6697,
      "SE": 6698,
      "bles": 6699,
      "bishop": 6700,
      "cue": 6701,
      "pool": 6702,
      "spe": 6703,
      "vas": 6704,
      "Ġpour": 6705,
      "icity": 6706,
      "ĠTake": 6707,
      "stream": 6708,
      "advant": 6709,
      "ĠSil": 6710,
      "ĠCOM": 6711,
      "Ġshower": 6712,
      "Ġshed": 6713,
      "Ġvague": 6714,
      "Ġlip": 6715,
      "Ġtended": 6716,
      "icken": 6717,
      "erts": 6718,
      "ertific": 6719,
      "Ġsurf": 6720,
      "Ġdistinction": 6721,
      "attering": 6722,
      "Ġpassen": 6723,
      "Ġleads": 6724,
      "shops": 6725,
      "Ġwaist": 6726,
      "Ġvisited": 6727,
      "anches": 6728,
      "Ġcountryside": 6729,
      "Ġpatient": 6730,
      "Ġintroduce": 6731,
      "ĠCentral": 6732,
      "Ġemotion": 6733,
      "ocratic": 6734,
      "ĠNevertheless": 6735,
      "Ġwedding": 6736,
      "ĠVienna": 6737,
      "Ġenormous": 6738,
      "Urber": 6739,
      "AD": 6740,
      "AY": 6741,
      "crib": 6742,
      "don": 6743,
      "iest": 6744,
      "rical": 6745,
      "tes": 6746,
      "Ġgain": 6747,
      "Ġghost": 6748,
      "ĠSP": 6749,
      "ctic": 6750,
      "ĠEs": 6751,
      "ĠEv": 6752,
      "Ġdozen": 6753,
      "Ġjumped": 6754,
      "Ġintense": 6755,
      "Ġimper": 6756,
      "raz": 6757,
      "Ġcontents": 6758,
      "rub": 6759,
      "Ġgrate": 6760,
      "Ġactions": 6761,
      "Ġsubt": 6762,
      "Ġmetres": 6763,
      "Ġfacts": 6764,
      "ieth": 6765,
      "Ġextension": 6766,
      "ĠSycor": 6767,
      "Ġanswers": 6768,
      "Ġindicated": 6769,
      "spector": 6770,
      "Ġadvantages": 6771,
      "ophistic": 6772,
      "ĠAnto": 6773,
      "Ġbabies": 6774,
      "Ġcriteria": 6775,
      "ĠSycorax": 6776,
      "Ġtast": 6777,
      "onna": 6778,
      "Ġcalend": 6779,
      "Ġpint": 6780,
      "Ġproud": 6781,
      "Ġdates": 6782,
      "leet": 6783,
      "ĠTimes": 6784,
      "Ġgle": 6785,
      "Ġisol": 6786,
      "ĠCor": 6787,
      "ĠCare": 6788,
      "ĠBon": 6789,
      "Ġhers": 6790,
      "ĠWay": 6791,
      "Ġshaking": 6792,
      "Ġchap": 6793,
      "Ġvib": 6794,
      "Ġknocked": 6795,
      "ishment": 6796,
      "ĠJew": 6797,
      "Ġroles": 6798,
      "Ġflood": 6799,
      "Ġowner": 6800,
      "Ġcheer": 6801,
      "Ġcurious": 6802,
      "Ġexamination": 6803,
      "Ġmaintained": 6804,
      "Ġextensive": 6805,
      "Ġaccounts": 6806,
      "Ġlaunch": 6807,
      "Ġdrinking": 6808,
      "Ġsleeping": 6809,
      "Ġtitles": 6810,
      "Ġadopt": 6811,
      "Ġgradually": 6812,
      "Ġjudgement": 6813,
      "Ġabsolutely": 6814,
      "Ġneighbour": 6815,
      "Ġvideo": 6816,
      "ĠBasil": 6817,
      "Ġsulph": 6818,
      "FOR": 6819,
      "bow": 6820,
      "gment": 6821,
      "nce": 6822,
      "pes": 6823,
      "rates": 6824,
      "Ġdying": 6825,
      "Ġgrief": 6826,
      "amm": 6827,
      "Ġfrust": 6828,
      "ĠLy": 6829,
      "Ġdoll": 6830,
      "akers": 6831,
      "Ġclin": 6832,
      "ptions": 6833,
      "Ġencl": 6834,
      "Ġheading": 6835,
      "Ġregularly": 6836,
      "Ġhelping": 6837,
      "Ġfewer": 6838,
      "Ġvaluable": 6839,
      "Ġprograms": 6840,
      "Ġstatements": 6841,
      "Ġfaced": 6842,
      "ATE": 6843,
      "Ġdiag": 6844,
      "Ġlawy": 6845,
      "Ġsexuality": 6846,
      "ĠSpanish": 6847,
      "ĠTechn": 6848,
      "Ġessentially": 6849,
      "Ġconcepts": 6850,
      "Ġoccasional": 6851,
      "Ġgeographical": 6852,
      "Ġcrucial": 6853,
      "Ġoccasionally": 6854,
      "Ġrelaxed": 6855,
      "Ġcriticism": 6856,
      "Ġlinguistic": 6857,
      "Ġhesitated": 6858,
      "Ġwire": 6859,
      "Ġcraft": 6860,
      "isher": 6861,
      "Ġhearing": 6862,
      "Ġreven": 6863,
      "Ġstable": 6864,
      "Ġstones": 6865,
      "ĠCut": 6866,
      "ĠMember": 6867,
      "Ġproof": 6868,
      "Ġlect": 6869,
      "Ġalloc": 6870,
      "ĠON": 6871,
      "ode": 6872,
      "ĠNHS": 6873,
      "pless": 6874,
      "Ġcovers": 6875,
      "Ġcoins": 6876,
      "ĠThough": 6877,
      "ĠKenn": 6878,
      "Ġformat": 6879,
      "Ġreply": 6880,
      "Ġstrict": 6881,
      "Ġphr": 6882,
      "Ġstands": 6883,
      "ĠUnfortunately": 6884,
      "Ġreaders": 6885,
      "Ġtrend": 6886,
      "Ġclassic": 6887,
      "ĠPlanning": 6888,
      "Ġstaying": 6889,
      "ifferent": 6890,
      "Ġofficers": 6891,
      "Ġprisoner": 6892,
      "ĠVictorian": 6893,
      "ĠSara": 6894,
      "ĠItaly": 6895,
      "Ġcheeks": 6896,
      "ĠSpecial": 6897,
      "olitan": 6898,
      "ĠÃĹ": 6899,
      "ĠChildren": 6900,
      "Ġcigarette": 6901,
      "Ġsuffered": 6902,
      "Sorry": 6903,
      "aved": 6904,
      "you": 6905,
      "Ġ#": 6906,
      "Ġbits": 6907,
      "Ġcow": 6908,
      "ione": 6909,
      "vet": 6910,
      "Ġgarl": 6911,
      "Ġreaching": 6912,
      "Ġstall": 6913,
      "ĠBank": 6914,
      "olt": 6915,
      "Ġshocked": 6916,
      "ĠLater": 6917,
      "ĠDen": 6918,
      "iece": 6919,
      "Ġoutline": 6920,
      "Ġmanual": 6921,
      "ĠInspector": 6922,
      "Ġtwent": 6923,
      "Ġsport": 6924,
      "ressing": 6925,
      "Ġresort": 6926,
      "Ġrecru": 6927,
      "ĠStill": 6928,
      "Ġbranches": 6929,
      "Ġregret": 6930,
      "Ġhelps": 6931,
      "Ġdecade": 6932,
      "Ġguard": 6933,
      "Ġrequest": 6934,
      "Ġsinging": 6935,
      "Ġbigger": 6936,
      "Ġstyles": 6937,
      "Ġcovering": 6938,
      "ĠManagement": 6939,
      "Ġordered": 6940,
      "Nothing": 6941,
      "Ġprisoners": 6942,
      "Ġsharply": 6943,
      "Ġdisciplines": 6944,
      "Ġinnov": 6945,
      "Ġpurchase": 6946,
      "Ġsubsid": 6947,
      "Ġcomplicated": 6948,
      "ĠToday": 6949,
      "ĠAntoinette": 6950,
      "TER": 6951,
      "dpi": 6952,
      "fin": 6953,
      "oked": 6954,
      "vironment": 6955,
      "zes": 6956,
      "Ġtin": 6957,
      "iscu": 6958,
      "Ġpad": 6959,
      "Ġdamp": 6960,
      "Ġgrie": 6961,
      "ĠLew": 6962,
      "Ġjump": 6963,
      "peration": 6964,
      "Ġdisadvant": 6965,
      "ilding": 6966,
      "Ġobtain": 6967,
      "Ġbrings": 6968,
      "Ġeverybody": 6969,
      "Ġdoorway": 6970,
      "ologist": 6971,
      "Ġexperts": 6972,
      "ĠDerek": 6973,
      "Ġcrew": 6974,
      "Ġcharity": 6975,
      "Ġdrunk": 6976,
      "Ġsteam": 6977,
      "Ġconstant": 6978,
      "Ġissued": 6979,
      "Ġnaturally": 6980,
      "ĠConn": 6981,
      "Ġnearby": 6982,
      "ĠStephen": 6983,
      "Ġexception": 6984,
      "ĠAbove": 6985,
      "annel": 6986,
      "Ġlaunched": 6987,
      "Ġcollected": 6988,
      "ĠGray": 6989,
      "Ġsettle": 6990,
      "Ġhonour": 6991,
      "Ġrecommended": 6992,
      "Ġaudience": 6993,
      "Ġtravelling": 6994,
      "ĠGregson": 6995,
      "ĠDarkfall": 6996,
      "Ġequivalent": 6997,
      "Ġgarlic": 6998,
      "AGE": 6999,
      "wo": 7000,
      "Ġoh": 7001,
      "Ġbom": 7002,
      "Ġpp": 7003,
      "Ġped": 7004,
      "Ġmild": 7005,
      "Ġinquir": 7006,
      "iche": 7007,
      "iona": 7008,
      "stone": 7009,
      "Ġasleep": 7010,
      "ĠChen": 7011,
      "Ġsees": 7012,
      "Ġconj": 7013,
      "ĠPRO": 7014,
      "Ġ('": 7015,
      "ĠDi": 7016,
      "Ġabroad": 7017,
      "umber": 7018,
      "Ġcliff": 7019,
      "Ġimpr": 7020,
      "Ġscattered": 7021,
      "ĠChris": 7022,
      "liver": 7023,
      "Ġbuck": 7024,
      "Ġreprodu": 7025,
      "ounce": 7026,
      "cluding": 7027,
      "Ġlightly": 7028,
      "ologies": 7029,
      "aze": 7030,
      "Ġadvoc": 7031,
      "Ġbelieves": 7032,
      "Ġprize": 7033,
      "ĠArch": 7034,
      "inson": 7035,
      "Ġresulting": 7036,
      "Ġalongside": 7037,
      "Ġresemb": 7038,
      "ĠTrans": 7039,
      "Ġstronger": 7040,
      "Ġobsc": 7041,
      "Ġwarmth": 7042,
      "Ġburied": 7043,
      "Ġoccasions": 7044,
      "Ġaimed": 7045,
      "Ġsurvive": 7046,
      "ĠBrownie": 7047,
      "ĠWinds": 7048,
      "Ġbureaucr": 7049,
      "Ġexpertise": 7050,
      "Ġcategories": 7051,
      "Ġmurmured": 7052,
      "Ġcinem": 7053,
      "';": 7054,
      "IA": 7055,
      "To": 7056,
      "des": 7057,
      "jection": 7058,
      "Ġtied": 7059,
      "Ġsophistic": 7060,
      "Ġbones": 7061,
      "Ġpond": 7062,
      "Ġpushing": 7063,
      "Ġharsh": 7064,
      "Ġdull": 7065,
      "Ġwhist": 7066,
      "urd": 7067,
      "ĠAuthor": 7068,
      "ĠHaving": 7069,
      "rily": 7070,
      "Ġconclusion": 7071,
      "ĠLight": 7072,
      "Ġcloth": 7073,
      "Ġcompr": 7074,
      "rael": 7075,
      "angers": 7076,
      "Ġblame": 7077,
      "ĠKu": 7078,
      "ĠKit": 7079,
      "Ġslid": 7080,
      "Ġslope": 7081,
      "Ġacting": 7082,
      "ifications": 7083,
      "Ġaddressed": 7084,
      "Ġpersonnel": 7085,
      "Ġoperating": 7086,
      "Ġopposed": 7087,
      "ĠPrin": 7088,
      "Ġoriginally": 7089,
      "Ġrecognized": 7090,
      "Ġimagined": 7091,
      "Ġscientists": 7092,
      "Ġtemperatures": 7093,
      "Ġstretched": 7094,
      "Ġladies": 7095,
      "iasm": 7096,
      "Ġefficiency": 7097,
      "Ġparallel": 7098,
      "Ġexpenditure": 7099,
      "mond": 7100,
      "ollow": 7101,
      "Ġ$": 7102,
      "isure": 7103,
      "isms": 7104,
      "Ġpil": 7105,
      "oration": 7106,
      "arn": 7107,
      "arity": 7108,
      "Ġlin": 7109,
      "Ġlav": 7110,
      "ĠTell": 7111,
      "ulating": 7112,
      "ĠWH": 7113,
      "ander": 7114,
      "ĠFort": 7115,
      "ĠOs": 7116,
      "ĠOliver": 7117,
      "Ġjam": 7118,
      "pled": 7119,
      "Ġages": 7120,
      "Ġspare": 7121,
      "ĠChinese": 7122,
      "icted": 7123,
      "henomen": 7124,
      "obody": 7125,
      "Ġinstinct": 7126,
      "Ġcleared": 7127,
      "Ġconfused": 7128,
      "Ġbreaking": 7129,
      "Ġtransform": 7130,
      "Ġpriest": 7131,
      "Ġwarned": 7132,
      "Ġexperiences": 7133,
      "Ġquestionna": 7134,
      "Ġautumn": 7135,
      "Ġmembership": 7136,
      "ĠSpain": 7137,
      "Ġrecognise": 7138,
      "ĠHarry": 7139,
      "Ġextraordin": 7140,
      "ĠAmong": 7141,
      "Ġtightly": 7142,
      "Ġrationality": 7143,
      "Ġenthusiasm": 7144,
      "Ġvulner": 7145,
      "ĠKenneth": 7146,
      "Ġfoss": 7147,
      "Ġpuzz": 7148,
      "alous": 7149,
      "Ġdancing": 7150,
      "asco": 7151,
      "ĠIv": 7152,
      "Ġrein": 7153,
      "Ġassemb": 7154,
      "ĠCredit": 7155,
      "ĠPack": 7156,
      "ĠLt": 7157,
      "ĠLinton": 7158,
      "ĠEas": 7159,
      "ĠNic": 7160,
      "Ġtender": 7161,
      "Ġclo": 7162,
      "Ġdisg": 7163,
      "Ġload": 7164,
      "Ġconserv": 7165,
      "Ġcourts": 7166,
      "Ġkeen": 7167,
      "crete": 7168,
      "Ġevil": 7169,
      "ĠSee": 7170,
      "Ġconsiderably": 7171,
      "ĠProg": 7172,
      "Ġpackages": 7173,
      "Ġlawn": 7174,
      "Ġprimarily": 7175,
      "ĠBarbara": 7176,
      "Ġapplications": 7177,
      "Ġremarkable": 7178,
      "ĠEcgfrith": 7179,
      "ĠLiby": 7180,
      "Ġinnocent": 7181,
      "Ġperspective": 7182,
      "Ġunexpected": 7183,
      "CH": 7184,
      "SS": 7185,
      "Some": 7186,
      "bre": 7187,
      "ball": 7188,
      "bell": 7189,
      "rim": 7190,
      "wel": 7191,
      "Ġoven": 7192,
      "erning": 7193,
      "Ġbother": 7194,
      "Ġincl": 7195,
      "ĠTable": 7196,
      "Ġrefe": 7197,
      "Ġislands": 7198,
      "terday": 7199,
      "ĠWed": 7200,
      "ĠWel": 7201,
      "andom": 7202,
      "ĠHead": 7203,
      "Ġunh": 7204,
      "inking": 7205,
      "eps": 7206,
      "Ġinstant": 7207,
      "ĠYear": 7208,
      "Ġmarks": 7209,
      "Ġcollar": 7210,
      "Ġestate": 7211,
      "Ġbasin": 7212,
      "Ġpayment": 7213,
      "Ġconcerns": 7214,
      "Ġproperties": 7215,
      "Ġsquee": 7216,
      "Ġholes": 7217,
      "Ġvillages": 7218,
      "Ġengaged": 7219,
      "Ġfeminist": 7220,
      "Ġsensitive": 7221,
      "Ġnegative": 7222,
      "Ġdespair": 7223,
      "Ġpreferred": 7224,
      "Ġautomatically": 7225,
      "gypt": 7226,
      "Ġselected": 7227,
      "Ġsubsequently": 7228,
      "Ġinstructions": 7229,
      "ĠIrish": 7230,
      "Ġinevitable": 7231,
      "ĠReport": 7232,
      "ĠPresident": 7233,
      "Ġsituations": 7234,
      "Ġsuppliers": 7235,
      "ĠRichard": 7236,
      "anchester": 7237,
      "ĠChairman": 7238,
      "TS": 7239,
      "garet": 7240,
      "pite": 7241,
      "Ġau": 7242,
      "Ġwake": 7243,
      "onel": 7244,
      "Ġphenomen": 7245,
      "Ġmail": 7246,
      "ashes": 7247,
      "Ġlux": 7248,
      "omatic": 7249,
      "ĠSever": 7250,
      "amar": 7251,
      "ĠBal": 7252,
      "ĠMen": 7253,
      "Ġrom": 7254,
      "Ġrum": 7255,
      "ĠPet": 7256,
      "ĠEqu": 7257,
      "pton": 7258,
      "Ġnov": 7259,
      "Ġspoon": 7260,
      "ordan": 7261,
      "Ġscen": 7262,
      "Ġdownstairs": 7263,
      "Ġpreced": 7264,
      "Ġconsists": 7265,
      "Ġamate": 7266,
      "Ġretail": 7267,
      "azz": 7268,
      "Ġinvolves": 7269,
      "Ġsorts": 7270,
      "Ġpresentation": 7271,
      "Ġsolic": 7272,
      "Ġstructural": 7273,
      "Ġhorri": 7274,
      "Ġhoriz": 7275,
      "coming": 7276,
      "Ġsatisf": 7277,
      "ĠBrownies": 7278,
      "Ġthousands": 7279,
      "Ġadults": 7280,
      "Ġcabin": 7281,
      "burgh": 7282,
      "Ġaltogether": 7283,
      "Ġvegetables": 7284,
      "Ġacknowled": 7285,
      "Ġdecentral": 7286,
      "Ġlunar": 7287,
      "Ġpenetration": 7288,
      "Ġcamera": 7289,
      "Ġfalse": 7290,
      "bel": 7291,
      "made": 7292,
      "Ġta": 7293,
      "herent": 7294,
      "inte": 7295,
      "inations": 7296,
      "Ġtheoret": 7297,
      "Ġwool": 7298,
      "isc": 7299,
      "Ġfilling": 7300,
      "Ġdried": 7301,
      "Ġnur": 7302,
      "Ġbell": 7303,
      "Ġbeast": 7304,
      "Ġgear": 7305,
      "Ġgathered": 7306,
      "Ġstim": 7307,
      "cely": 7308,
      "ĠHist": 7309,
      "ĠWord": 7310,
      "Ġkings": 7311,
      "Ġvit": 7312,
      "ĠDur": 7313,
      "unate": 7314,
      "unning": 7315,
      "Ġabrupt": 7316,
      "oded": 7317,
      "Ġarrest": 7318,
      "Ġperce": 7319,
      "ilde": 7320,
      "Ġpepper": 7321,
      "Ġrelating": 7322,
      "nessy": 7323,
      "Ġeverywhere": 7324,
      "Ġhelpful": 7325,
      "Ġnumerous": 7326,
      "Ġcraters": 7327,
      "Ġcontrols": 7328,
      "Ġlowered": 7329,
      "ESS": 7330,
      "Ġpulling": 7331,
      "Ġcompetitive": 7332,
      "Ġsuffering": 7333,
      "Ġamounts": 7334,
      "Ġdependent": 7335,
      "appy": 7336,
      "ĠSwed": 7337,
      "Ġgrav": 7338,
      "ĠBooks": 7339,
      "Ġdeliver": 7340,
      "Ġawful": 7341,
      "Ġcrowd": 7342,
      "Ġnewspapers": 7343,
      "Ġswimming": 7344,
      "Ġpresumably": 7345,
      "ĠHotel": 7346,
      "ĠLtd": 7347,
      "bling": 7348,
      "fa": 7349,
      "mouth": 7350,
      "occ": 7351,
      "ye": 7352,
      "Ġi": 7353,
      "Ġsch": 7354,
      "Ġwicked": 7355,
      "Ġpipe": 7356,
      "Ġhook": 7357,
      "Ġbeans": 7358,
      "ĠTV": 7359,
      "Ġgained": 7360,
      "Ġreward": 7361,
      "Ġrecip": 7362,
      "Ġweeping": 7363,
      "ĠHas": 7364,
      "essions": 7365,
      "redients": 7366,
      "Ġvig": 7367,
      "ĠRub": 7368,
      "Ġunre": 7369,
      "adequ": 7370,
      "Ġloving": 7371,
      "Ġnowhere": 7372,
      "Ġheaded": 7373,
      "Ġbelt": 7374,
      "Ġfinance": 7375,
      "Ġboards": 7376,
      "Ġconfusion": 7377,
      "Ġexamined": 7378,
      "mann": 7379,
      "prise": 7380,
      "Ġfarmer": 7381,
      "Ġvalid": 7382,
      "Ġbask": 7383,
      "Ġpleasant": 7384,
      "Ġteams": 7385,
      "Ġlosses": 7386,
      "iciently": 7387,
      "Ġproposal": 7388,
      "ĠIII": 7389,
      "Ġelectricity": 7390,
      "ĠCountry": 7391,
      "Ġprofessionals": 7392,
      "Ġsymbolic": 7393,
      "Ġimplementation": 7394,
      "Ġmanufacturers": 7395,
      "Ġsatisfaction": 7396,
      "Ġfabric": 7397,
      "Wh": 7398,
      "cm": 7399,
      "post": 7400,
      "view": 7401,
      "wide": 7402,
      "Ġbone": 7403,
      "Ġcu": 7404,
      "Ġcous": 7405,
      "Ġcrown": 7406,
      "Ġcycle": 7407,
      "Ġfuel": 7408,
      "ington": 7409,
      "Ġnaked": 7410,
      "sty": 7411,
      "Ġrenew": 7412,
      "Ġsending": 7413,
      "ĠPrentice": 7414,
      "iste": 7415,
      "ĠRay": 7416,
      "ntil": 7417,
      "Ġmyst": 7418,
      "Ġslip": 7419,
      "Ġremove": 7420,
      "Ġminimum": 7421,
      "Ġswitched": 7422,
      "Ġcontinues": 7423,
      "Ġmodernist": 7424,
      "Ġmodernism": 7425,
      "itches": 7426,
      "cretion": 7427,
      "ĠNext": 7428,
      "Ġfunctional": 7429,
      "Ġsongs": 7430,
      "Ġadvertise": 7431,
      "Ġconducted": 7432,
      "Ġdaily": 7433,
      "Ġinitiative": 7434,
      "Ġsample": 7435,
      "Ġinjury": 7436,
      "Ġyacht": 7437,
      "Ġwithdraw": 7438,
      "Ġmedicine": 7439,
      "ĠAfrica": 7440,
      "ĠProfessor": 7441,
      "Ġsequence": 7442,
      "ĠBusiness": 7443,
      "Ġpenalty": 7444,
      "Ġcitiz": 7445,
      "Ġdisgust": 7446,
      "dered": 7447,
      "free": 7448,
      "father": 7449,
      "long": 7450,
      "pread": 7451,
      "ule": 7452,
      "Ġwides": 7453,
      "erable": 7454,
      "Ġbast": 7455,
      "oning": 7456,
      "Ġcake": 7457,
      "Ġment": 7458,
      "Ġtoler": 7459,
      "arse": 7460,
      "ana": 7461,
      "Ġinch": 7462,
      "Ġbearing": 7463,
      "Ġgift": 7464,
      "Ġyield": 7465,
      "ĠManchester": 7466,
      "ola": 7467,
      "anthe": 7468,
      "ĠPass": 7469,
      "Ġchairs": 7470,
      "ĠFam": 7471,
      "umes": 7472,
      "Ġtheme": 7473,
      "Ġrob": 7474,
      "Ġreputation": 7475,
      "Ġcrack": 7476,
      "Ġmini": 7477,
      "Ġretire": 7478,
      "Ġexplicit": 7479,
      "Ġobjects": 7480,
      "Ġpencil": 7481,
      "Ġearliest": 7482,
      "Ġcomputers": 7483,
      "Ġkilling": 7484,
      "Ġconcentrate": 7485,
      "ĠEnvironment": 7486,
      "ĠAethelred": 7487,
      "Ġdisappear": 7488,
      "Ġdrug": 7489,
      "Ġcorporate": 7490,
      "Ġestimated": 7491,
      "Ġdestroyed": 7492,
      "Ġpreparation": 7493,
      "ĠTreaty": 7494,
      "Ġconspicuous": 7495,
      "oubted": 7496,
      "Ġwidespread": 7497,
      "An": 7498,
      "then": 7499,
      "Ġsizes": 7500,
      "Ġthigh": 7501,
      "Ġheaven": 7502,
      "ĠTsu": 7503,
      "uting": 7504,
      "Ġwashed": 7505,
      "ĠSix": 7506,
      "Ġwhisk": 7507,
      "amber": 7508,
      "ĠBro": 7509,
      "ĠMars": 7510,
      "Ġconcluded": 7511,
      "Ġraw": 7512,
      "about": 7513,
      "Ġshore": 7514,
      "Ġexists": 7515,
      "ĠLittle": 7516,
      "Ġcha": 7517,
      "ĠRel": 7518,
      "Ġdoctors": 7519,
      "inder": 7520,
      "Ġtends": 7521,
      "ĠInformation": 7522,
      "ĠJon": 7523,
      "Ġoverl": 7524,
      "rave": 7525,
      "Ġmyster": 7526,
      "Ġthanks": 7527,
      "Ġglazed": 7528,
      "Ġorganised": 7529,
      "Ġexplore": 7530,
      "HER": 7531,
      "Ġvisual": 7532,
      "Ġbusinesses": 7533,
      "ĠLeft": 7534,
      "Ġconstantly": 7535,
      "Ġlaws": 7536,
      "ĠIsrael": 7537,
      "Ġmagic": 7538,
      "ĠLiver": 7539,
      "Ġobjective": 7540,
      "Ġarrive": 7541,
      "Ġannoy": 7542,
      "Ġassociations": 7543,
      "Ġdetermine": 7544,
      "Ġmadrigal": 7545,
      "sellers": 7546,
      "ĠDespite": 7547,
      "Ġnineteen": 7548,
      "Ġconsequence": 7549,
      "ĠServices": 7550,
      "Ġweapon": 7551,
      "Ġsulphur": 7552,
      "EM": 7553,
      "FL": 7554,
      "VER": 7555,
      "figure": 7556,
      "hill": 7557,
      "lim": 7558,
      "anes": 7559,
      "Ġdining": 7560,
      "Ġlamp": 7561,
      "Ġeg": 7562,
      "ĠTurn": 7563,
      "Ġgames": 7564,
      "ĠPict": 7565,
      "ĠLane": 7566,
      "eled": 7567,
      "ĠFiona": 7568,
      "umph": 7569,
      "Ġjoy": 7570,
      "Ġovercome": 7571,
      "Ġsupplement": 7572,
      "ĠWhatever": 7573,
      "Ġadvent": 7574,
      "ĠRoom": 7575,
      "Ġdesigns": 7576,
      "Ġfalls": 7577,
      "Ġhorror": 7578,
      "ITY": 7579,
      "Ġarrival": 7580,
      "Ġimagination": 7581,
      "Ġprepare": 7582,
      "Ġarrangement": 7583,
      "Ġtendency": 7584,
      "ĠBeatrix": 7585,
      "Ġindependence": 7586,
      "Ġgranted": 7587,
      "Ġduties": 7588,
      "Ġminority": 7589,
      "ĠHywel": 7590,
      "Ġflexible": 7591,
      "ĠAustralia": 7592,
      "Maybe": 7593,
      "Ġvertical": 7594,
      "ĠConnelly": 7595,
      "ascoe": 7596,
      "pass": 7597,
      "Ġtide": 7598,
      "Ġokay": 7599,
      "Ġcant": 7600,
      "ench": 7601,
      "organ": 7602,
      "Ġinadequ": 7603,
      "Ġdwell": 7604,
      "Ġdirty": 7605,
      "icated": 7606,
      "Ġnurs": 7607,
      "ĠImp": 7608,
      "stand": 7609,
      "Ġstag": 7610,
      "ĠBes": 7611,
      "Ġrural": 7612,
      "Ġrush": 7613,
      "ĠEN": 7614,
      "Ġalle": 7615,
      "Ġfee": 7616,
      "Ġadap": 7617,
      "Ġdisaster": 7618,
      "Ġsports": 7619,
      "Ġworkshop": 7620,
      "ĠVent": 7621,
      "ĠKee": 7622,
      "Ġreconst": 7623,
      "Ġserving": 7624,
      "Ġskill": 7625,
      "Ġcrater": 7626,
      "Ġbreeding": 7627,
      "Ġexplains": 7628,
      "ucking": 7629,
      "ĠUnit": 7630,
      "Ġkeeps": 7631,
      "Ġsuccessfully": 7632,
      "ĠPlace": 7633,
      "ALL": 7634,
      "Ġyesterday": 7635,
      "Ġcreature": 7636,
      "Ġclimate": 7637,
      "ĠUSA": 7638,
      "Ġdistinguish": 7639,
      "Ġinvestigation": 7640,
      "Ġcode": 7641,
      "ĠDIA": 7642,
      "Ġvehicles": 7643,
      "Ġinevit": 7644,
      "Ġprecisely": 7645,
      "Ġjuice": 7646,
      "Ġgesture": 7647,
      "Ġentitled": 7648,
      "ĠLiverpool": 7649,
      "Ex": 7650,
      "II": 7651,
      "One": 7652,
      "TR": 7653,
      "yst": 7654,
      "zed": 7655,
      "Ġbree": 7656,
      "Ġhated": 7657,
      "Ġdad": 7658,
      "Ġdyn": 7659,
      "icial": 7660,
      "Ġeh": 7661,
      "ĠIll": 7662,
      "Ġgut": 7663,
      "Ġgates": 7664,
      "irable": 7665,
      "ĠAunt": 7666,
      "ams": 7667,
      "amic": 7668,
      "Ġanch": 7669,
      "Ġattended": 7670,
      "gered": 7671,
      "ĠMem": 7672,
      "Ġseats": 7673,
      "Ġexceed": 7674,
      "Ġsaved": 7675,
      "ĠEC": 7676,
      "ĠEgypt": 7677,
      "ems": 7678,
      "Ġjer": 7679,
      "Ġknock": 7680,
      "ĠJordan": 7681,
      "Ġembr": 7682,
      "necess": 7683,
      "Ġremote": 7684,
      "Ġinteraction": 7685,
      "psich": 7686,
      "obe": 7687,
      "Ġedition": 7688,
      "Ġboots": 7689,
      "Ġeffectiveness": 7690,
      "Ġexperiment": 7691,
      "Ġgenerous": 7692,
      "ucked": 7693,
      "Ġprocessor": 7694,
      "Ġincreases": 7695,
      "Ġlayer": 7696,
      "comm": 7697,
      "ĠBetween": 7698,
      "ĠChristine": 7699,
      "urtach": 7700,
      "Ġsufficiently": 7701,
      "Ġburden": 7702,
      "ursday": 7703,
      "Ġspecifically": 7704,
      "ĠSmall": 7705,
      "Ġsearching": 7706,
      "ĠXanthe": 7707,
      "Ġliterature": 7708,
      "ĠCounty": 7709,
      "Ġfolded": 7710,
      "Ġwardro": 7711,
      "Ġridic": 7712,
      "Ġbrilliant": 7713,
      "Ġfascin": 7714,
      "Ġphilosophy": 7715,
      "oubtedly": 7716,
      "Will": 7717,
      "friend": 7718,
      "ml": 7719,
      "athed": 7720,
      "atched": 7721,
      "Ġbars": 7722,
      "itate": 7723,
      "Ġpension": 7724,
      "Ġinse": 7725,
      "Ġindu": 7726,
      "Ġdraft": 7727,
      "Ġlord": 7728,
      "rose": 7729,
      "Ġsto": 7730,
      "Ġstars": 7731,
      "ĠSpr": 7732,
      "ĠBED": 7733,
      "ĠMake": 7734,
      "ĠMinist": 7735,
      "Ġseed": 7736,
      "abit": 7737,
      "Ġshit": 7738,
      "Ġdogs": 7739,
      "Ġlenders": 7740,
      "actions": 7741,
      "Ġfeeding": 7742,
      "ĠThrough": 7743,
      "ĠJane": 7744,
      "Ġspark": 7745,
      "Ġsched": 7746,
      "ĠUs": 7747,
      "airy": 7748,
      "ĠKr": 7749,
      "ĠKen": 7750,
      "Ġsupper": 7751,
      "uthors": 7752,
      "mend": 7753,
      "Ġedges": 7754,
      "Ġfactory": 7755,
      "Ġgreatly": 7756,
      "Ġincom": 7757,
      "ĠSex": 7758,
      "ĠScar": 7759,
      "Ġpromote": 7760,
      "conomic": 7761,
      "ĠAbber": 7762,
      "ropolitan": 7763,
      "Ġlinks": 7764,
      "Ġimprovements": 7765,
      "Ġutter": 7766,
      "Ġreligion": 7767,
      "Ġconsistent": 7768,
      "Ġrestricted": 7769,
      "Ġlandlord": 7770,
      "ĠMandru": 7771,
      "Ġfeathers": 7772,
      "ertificate": 7773,
      "ĠLewis": 7774,
      "Ġvulnerable": 7775,
      "Ġtheoretical": 7776,
      "Erm": 7777,
      "Go": 7778,
      "TH": 7779,
      "door": 7780,
      "iat": 7781,
      "life": 7782,
      "met": 7783,
      "uated": 7784,
      "wear": 7785,
      "Ġaer": 7786,
      "Ġoce": 7787,
      "atis": 7788,
      "Ġbac": 7789,
      "Ġbilingual": 7790,
      "Ġfier": 7791,
      "Ġpic": 7792,
      "Ġhier": 7793,
      "ĠTry": 7794,
      "ifies": 7795,
      "Ġprostit": 7796,
      "Ġdeeper": 7797,
      "Ġexcuse": 7798,
      "ĠPascoe": 7799,
      "Ġchose": 7800,
      "igg": 7801,
      "Ġcanvas": 7802,
      "asty": 7803,
      "Ġresent": 7804,
      "ordon": 7805,
      "ĠChief": 7806,
      "ĠViet": 7807,
      "Ġrecover": 7808,
      "Ġsurve": 7809,
      "aws": 7810,
      "Ã©e": 7811,
      "Ġcontinuous": 7812,
      "Ġtremb": 7813,
      "Ġprogramming": 7814,
      "Ġpostc": 7815,
      "Ġlisted": 7816,
      "ĠOrgan": 7817,
      "Ġdiam": 7818,
      "Ġswept": 7819,
      "Ġcompetence": 7820,
      "Ġseparated": 7821,
      "Ġcollective": 7822,
      "Ġcontribute": 7823,
      "Ġruf": 7824,
      "Ġharpsich": 7825,
      "Ġconcentrated": 7826,
      "Ġflew": 7827,
      "ĠAnyway": 7828,
      "ĠKingdom": 7829,
      "Ġillustrated": 7830,
      "Ġbirthday": 7831,
      "Ġtransferred": 7832,
      "Ġpermission": 7833,
      "ĠLouise": 7834,
      "Ġinstitutional": 7835,
      "Ġleaflet": 7836,
      "ĠWhether": 7837,
      "Ġliberal": 7838,
      "ĠCompany": 7839,
      "Ġmigration": 7840,
      "Ġnitrogen": 7841,
      "Ġdisease": 7842,
      "Urberville": 7843,
      "ĠAbberley": 7844,
      "Al": 7845,
      "bag": 7846,
      "houses": 7847,
      "mpt": 7848,
      "Ġbore": 7849,
      "enly": 7850,
      "Ġpace": 7851,
      "orne": 7852,
      "Ġmob": 7853,
      "alds": 7854,
      "asped": 7855,
      "ĠTony": 7856,
      "ĠSer": 7857,
      "ĠCathy": 7858,
      "Ġhaz": 7859,
      "terbury": 7860,
      "Ġride": 7861,
      "ules": 7862,
      "abilities": 7863,
      "Ġshame": 7864,
      "Ġchill": 7865,
      "Ġvag": 7866,
      "ĠRet": 7867,
      "Ġlemon": 7868,
      "Ġknee": 7869,
      "Ġpercent": 7870,
      "Ġtwisted": 7871,
      "Ġpecul": 7872,
      "Ġconsol": 7873,
      "Ġrecall": 7874,
      "athilde": 7875,
      "ĠYen": 7876,
      "phan": 7877,
      "Ġharder": 7878,
      "Ġleaders": 7879,
      "Ġincred": 7880,
      "Ġdivers": 7881,
      "ĠWithin": 7882,
      "Ġsweat": 7883,
      "ĠCanterbury": 7884,
      "ittees": 7885,
      "Ġsettlement": 7886,
      "Ġdisplays": 7887,
      "Ġpollut": 7888,
      "Ġhundreds": 7889,
      "Ġhoping": 7890,
      "Ġbreasts": 7891,
      "Ġsurrounded": 7892,
      "Ġvictims": 7893,
      "Ġappointment": 7894,
      "Ġaccurate": 7895,
      "Ġuniversities": 7896,
      "Ġthrust": 7897,
      "Ġmonitoring": 7898,
      "Ġconvenient": 7899,
      "Ġwrapped": 7900,
      "Ġpeculi": 7901,
      "CC": 7902,
      "iate": 7903,
      "iently": 7904,
      "Ġtal": 7905,
      "Ġtur": 7906,
      "Ġfert": 7907,
      "Ġpave": 7908,
      "Ġlake": 7909,
      "Ġgif": 7910,
      "ĠAud": 7911,
      "ĠHind": 7912,
      "ĠMurtach": 7913,
      "Ġrings": 7914,
      "quar": 7915,
      "ĠPG": 7916,
      "ĠPaper": 7917,
      "resents": 7918,
      "Ġchamp": 7919,
      "eling": 7920,
      "ĠDiv": 7921,
      "ĠOX": 7922,
      "Ġtrace": 7923,
      "Ġunknown": 7924,
      "Ġque": 7925,
      "Ġagric": 7926,
      "Ġenqu": 7927,
      "ĠVer": 7928,
      "Ġslam": 7929,
      "Ġrepresents": 7930,
      "Ġapolog": 7931,
      "Ġpresents": 7932,
      "Ġrealize": 7933,
      "Ġmoist": 7934,
      "Ġrefuse": 7935,
      "Ġreflection": 7936,
      "Ġextract": 7937,
      "Ġorganisational": 7938,
      "coat": 7939,
      "Ġraising": 7940,
      "Ġeleg": 7941,
      "ĠMyr": 7942,
      "Ġtrial": 7943,
      "Ġangle": 7944,
      "Ġbasement": 7945,
      "Ġmachines": 7946,
      "Ġirre": 7947,
      "ĠMean": 7948,
      "ĠEverything": 7949,
      "Ġhurried": 7950,
      "Ġcomposer": 7951,
      "Ġpurely": 7952,
      "Ġassistance": 7953,
      "Ġdragged": 7954,
      "Ġgrip": 7955,
      "Ġuncomfort": 7956,
      "Ġpermanent": 7957,
      "ĠMinistry": 7958,
      "Ġhierarch": 7959,
      "Ġrufous": 7960,
      "Bl": 7961,
      "bours": 7962,
      "ipp": 7963,
      "ipping": 7964,
      "serv": 7965,
      "inity": 7966,
      "Ġbiscu": 7967,
      "Ġcul": 7968,
      "Ġpound": 7969,
      "orse": 7970,
      "orters": 7971,
      "Ġmood": 7972,
      "alom": 7973,
      "Ġded": 7974,
      "Ġdread": 7975,
      "Ġdensity": 7976,
      "icians": 7977,
      "Ġnest": 7978,
      "str": 7979,
      "ghter": 7980,
      "ĠSW": 7981,
      "ĠSudd": 7982,
      "ilton": 7983,
      "ĠCe": 7984,
      "ĠCurt": 7985,
      "ĠCertainly": 7986,
      "Ġrit": 7987,
      "Ġorn": 7988,
      "ĠPL": 7989,
      "ĠPur": 7990,
      "ĠPoly": 7991,
      "ĠLast": 7992,
      "Ġvote": 7993,
      "ĠElect": 7994,
      "ĠDul": 7995,
      "Ġabbot": 7996,
      "ĠHell": 7997,
      "odox": 7998,
      "Ġunion": 7999,
      "ĠJose": 8000,
      "seless": 8001,
      "ordination": 8002,
      "Ġunderlying": 8003,
      "Ġwanting": 8004,
      "Ġemp": 8005,
      "...?'": 8006,
      "Ġgrabbed": 8007,
      "Ġputs": 8008,
      "Ġclearing": 8009,
      "Ġletting": 8010,
      "Ġminim": 8011,
      "Ġexplos": 8012,
      "Ġphotograp": 8013,
      "ĠMargaret": 8014,
      "Ġangrily": 8015,
      "Ġinfluenced": 8016,
      "Ġdrinks": 8017,
      "ĠGrand": 8018,
      "ĠSwiss": 8019,
      "Ġpanic": 8020,
      "Ġcoastal": 8021,
      "Ġstretch": 8022,
      "nesday": 8023,
      "Ġsucceeded": 8024,
      "ĠMiller": 8025,
      "At": 8026,
      "EP": 8027,
      "Was": 8028,
      "hib": 8029,
      "kward": 8030,
      "no": 8031,
      "sized": 8032,
      "viet": 8033,
      "inal": 8034,
      "Ġwre": 8035,
      "atin": 8036,
      "isp": 8037,
      "isy": 8038,
      "Ġpity": 8039,
      "ĠTor": 8040,
      "eted": 8041,
      "ĠSwe": 8042,
      "ĠAy": 8043,
      "herry": 8044,
      "ĠBob": 8045,
      "ĠMage": 8046,
      "Ġvac": 8047,
      "ĠFollow": 8048,
      "ĠRon": 8049,
      "ĠGet": 8050,
      "Ġcancer": 8051,
      "ĠNone": 8052,
      "Ġmanip": 8053,
      "Ġfeat": 8054,
      "ĠInf": 8055,
      "assy": 8056,
      "Ġcompens": 8057,
      "Ġrolling": 8058,
      "Ġresource": 8059,
      "Ġpoison": 8060,
      "ĠKer": 8061,
      "clude": 8062,
      "Ġadding": 8063,
      "ĠSoviet": 8064,
      "Ġgenerated": 8065,
      "Ġconcerning": 8066,
      "Ġinches": 8067,
      "Ġoccurs": 8068,
      "Ġartists": 8069,
      "Ġasks": 8070,
      "Ġjoke": 8071,
      "Ġtenants": 8072,
      "Ġdrawers": 8073,
      "Ġfoods": 8074,
      "Ġdevices": 8075,
      "ĠTele": 8076,
      "scale": 8077,
      "Ġcontrad": 8078,
      "Ġclubs": 8079,
      "Ġconsumers": 8080,
      "Ġsatisfied": 8081,
      "Ġfocused": 8082,
      "Ġoccupied": 8083,
      "ĠAethelbald": 8084,
      "ĠWashing": 8085,
      "Ġroughly": 8086,
      "Ġappreciate": 8087,
      "Ġcategory": 8088,
      "Ġautonomy": 8089,
      "ĠTurkey": 8090,
      "Ġpregnancy": 8091,
      "Ġguarantee": 8092,
      "Ġswallowed": 8093,
      "ĠModern": 8094,
      "occup": 8095,
      "ĠSuddenly": 8096,
      "gard": 8097,
      "mn": 8098,
      "nie": 8099,
      "yard": 8100,
      "Ġtact": 8101,
      "Ġauthors": 8102,
      "Ġbored": 8103,
      "Ġfought": 8104,
      "Ġfaster": 8105,
      "Ġmant": 8106,
      "arling": 8107,
      "anth": 8108,
      "Ġink": 8109,
      "Ġinher": 8110,
      "oma": 8111,
      "ĠImm": 8112,
      "stick": 8113,
      "Ġonion": 8114,
      "ĠSU": 8115,
      "ĠSqu": 8116,
      "ĠAL": 8117,
      "ĠCook": 8118,
      "ĠMah": 8119,
      "ĠMathilde": 8120,
      "anted": 8121,
      "Ġmeals": 8122,
      "ĠEver": 8123,
      "ĠFry": 8124,
      "Ġupwards": 8125,
      "Ġtray": 8126,
      "ĠThursday": 8127,
      "Ġenvel": 8128,
      "itella": 8129,
      "Ġarise": 8130,
      "anges": 8131,
      "Ġblur": 8132,
      "Ġunderparts": 8133,
      "ĠUr": 8134,
      "Ġformation": 8135,
      "Ġmoves": 8136,
      "Ġguy": 8137,
      "ĠRec": 8138,
      "Ġdepos": 8139,
      "Ġbiggest": 8140,
      "ĠAdm": 8141,
      "ĠAdv": 8142,
      "Ġresponses": 8143,
      "Ġcaut": 8144,
      "Ġpatron": 8145,
      "ĠWithout": 8146,
      "Ġtriumph": 8147,
      "Ġseparation": 8148,
      "Ġindicates": 8149,
      "white": 8150,
      "ĠZitella": 8151,
      "Ġvictory": 8152,
      "Ġhospitals": 8153,
      "Ġexcite": 8154,
      "Ġawkward": 8155,
      "Ġdelivered": 8156,
      "Ġdominated": 8157,
      "Ġscreaming": 8158,
      "Ġmagazines": 8159,
      "Ġcodes": 8160,
      "Ġinstrumental": 8161,
      "Ġpriority": 8162,
      "ĠHolly": 8163,
      "ĠNorthumbrian": 8164,
      "ĠAnglian": 8165,
      "Ġvolatiles": 8166,
      "ĠEastern": 8167,
      "ĠWednesday": 8168,
      "ĠMagee": 8169,
      "Ġenvelope": 8170,
      "Re": 8171,
      "aft": 8172,
      "bal": 8173,
      "chers": 8174,
      "ipt": 8175,
      "jamin": 8176,
      "pers": 8177,
      "vation": 8178,
      "wait": 8179,
      "Ġwives": 8180,
      "Ġlic": 8181,
      "Ġlosing": 8182,
      "Ġthread": 8183,
      "Ġthunder": 8184,
      "leavy": 8185,
      "Ġgy": 8186,
      "roll": 8187,
      "celer": 8188,
      "ĠHun": 8189,
      "ĠCath": 8190,
      "ĠBa": 8191,
      "ĠBBC": 8192,
      "Ġate": 8193,
      "Ġsus": 8194,
      "Ġshining": 8195,
      "Ġsheep": 8196,
      "ĠRam": 8197,
      "Ġupright": 8198,
      "ĠNEW": 8199,
      "Ġuniversity": 8200,
      "Ġaged": 8201,
      "Ġoverse": 8202,
      "Ġspat": 8203,
      "sels": 8204,
      "inted": 8205,
      "Ġjustice": 8206,
      "elling": 8207,
      "Ġrival": 8208,
      "Ġrecovery": 8209,
      "Ġdistress": 8210,
      "Ġpossibilities": 8211,
      "ieties": 8212,
      "Ġexperim": 8213,
      "Ġguess": 8214,
      "Ġadvis": 8215,
      "Ġbeds": 8216,
      "ĠReyn": 8217,
      "Ġartific": 8218,
      "Ġclassroom": 8219,
      "Ġcircles": 8220,
      "uffled": 8221,
      "Ġslept": 8222,
      "Ġdrawer": 8223,
      "Ġexisted": 8224,
      "ĠIsay": 8225,
      "helm": 8226,
      "Ġattracted": 8227,
      "Ġdisplayed": 8228,
      "OUR": 8229,
      "Ġneglect": 8230,
      "Ġdelay": 8231,
      "ĠYorkshire": 8232,
      "Ġprotest": 8233,
      "Ġkissed": 8234,
      "ĠBoard": 8235,
      "Ġintegrated": 8236,
      "ĠFurthermore": 8237,
      "ĠMadra": 8238,
      "Ġgovernments": 8239,
      "Ġabandoned": 8240,
      "Ġorganizations": 8241,
      "Ġcinema": 8242,
      "Ġquestionnaire": 8243,
      "ĠWashington": 8244,
      "ĠReynolds": 8245,
      "Be": 8246,
      "DER": 8247,
      "born": 8248,
      "cut": 8249,
      "do": 8250,
      "east": 8251,
      "iast": 8252,
      "law": 8253,
      "there": 8254,
      "Ġ+": 8255,
      "Ġtel": 8256,
      "Ġsons": 8257,
      "Ġwax": 8258,
      "Ġfuss": 8259,
      "Ġmould": 8260,
      "ĠIS": 8261,
      "acle": 8262,
      "selling": 8263,
      "Ġstraw": 8264,
      "ĠSing": 8265,
      "ĠAut": 8266,
      "Ġweep": 8267,
      "ĠCould": 8268,
      "oos": 8269,
      "ĠWall": 8270,
      "Ġshapes": 8271,
      "Ġneut": 8272,
      "Ġchicken": 8273,
      "unte": 8274,
      "Ġbutt": 8275,
      "Ġabund": 8276,
      "agraph": 8277,
      "Ġovert": 8278,
      "Ġbackwards": 8279,
      "Ġscan": 8280,
      "ĠUp": 8281,
      "Ġrivers": 8282,
      "Ġcenturies": 8283,
      "Ġsubur": 8284,
      "Ġbrush": 8285,
      "Ġstrat": 8286,
      "Ġparticles": 8287,
      "Ġplanets": 8288,
      "Ġapproaching": 8289,
      "ĠAlison": 8290,
      "Ġexamine": 8291,
      "ĠWhilst": 8292,
      "Ġvariation": 8293,
      "Ġcollabor": 8294,
      "ĠDevelopment": 8295,
      "Ġinspect": 8296,
      "Ġdrain": 8297,
      "Ġvisits": 8298,
      "ĠNews": 8299,
      "ĠDonleavy": 8300,
      "ĠAdobe": 8301,
      "Ġmodernity": 8302,
      "Ġchecking": 8303,
      "ĠMarie": 8304,
      "Ġassumption": 8305,
      "Ġassumptions": 8306,
      "Ġburned": 8307,
      "Ġestablishment": 8308,
      "Ġflexibility": 8309,
      "Ġpersuade": 8310,
      "Ġdelicate": 8311,
      "Ġdeliberately": 8312,
      "ĠCanada": 8313,
      "Ġrelieved": 8314,
      "ĠSeveral": 8315,
      "ĠBEDROOM": 8316,
      "ĠMeanwhile": 8317,
      "AIN": 8318,
      "Mr": 8319,
      "OP": 8320,
      "Please": 8321,
      "Tell": 8322,
      "rage": 8323,
      "Ġtough": 8324,
      "inburgh": 8325,
      "Ġod": 8326,
      "Ġwoke": 8327,
      "encing": 8328,
      "Ġpig": 8329,
      "Ġmal": 8330,
      "Ġtops": 8331,
      "Ġlid": 8332,
      "Ġlakes": 8333,
      "ica": 8334,
      "icer": 8335,
      "Ġhed": 8336,
      "ĠInt": 8337,
      "idently": 8338,
      "acher": 8339,
      "Ġconcrete": 8340,
      "Ġrust": 8341,
      "ĠDian": 8342,
      "ĠNobody": 8343,
      "Ġunnecess": 8344,
      "Ġoverw": 8345,
      "Ġcontaining": 8346,
      "Ġloans": 8347,
      "Ġnewly": 8348,
      "Ġprecip": 8349,
      "ĠUntil": 8350,
      "Ġintermedi": 8351,
      "Ġsympt": 8352,
      "Ġstudying": 8353,
      "Ġhelpless": 8354,
      "ribly": 8355,
      "Ġfindings": 8356,
      "Ġnights": 8357,
      "Ġdarker": 8358,
      "Ġplayers": 8359,
      "ĠSection": 8360,
      "Ġvisiting": 8361,
      "ĠShould": 8362,
      "ĠConway": 8363,
      "Ġperformed": 8364,
      "Ġenjoying": 8365,
      "Ġsettings": 8366,
      "Ġtaxi": 8367,
      "ĠFei": 8368,
      "ĠWilson": 8369,
      "Ġachievement": 8370,
      "Ġsubordinate": 8371,
      "ĠTolby": 8372,
      "ĠBenjamin": 8373,
      "ĠGreek": 8374,
      "Ġnearest": 8375,
      "ĠRyker": 8376,
      "Ġrigid": 8377,
      "Ġlandscape": 8378,
      "Ġtwentieth": 8379,
      "Ġsophisticated": 8380,
      "ĠProgram": 8381,
      "Ġcousin": 8382,
      "mo": 8383,
      "pired": 8384,
      "Ġsession": 8385,
      "Ġcush": 8386,
      "Ġmars": 8387,
      "ario": 8388,
      "aning": 8389,
      "alh": 8390,
      "Ġlane": 8391,
      "ĠTer": 8392,
      "ĠTen": 8393,
      "Ġstamp": 8394,
      "Ġstored": 8395,
      "ĠAlex": 8396,
      "ĠBishop": 8397,
      "ĠMO": 8398,
      "Ġconclus": 8399,
      "Ġrack": 8400,
      "Ġorbit": 8401,
      "Ġshru": 8402,
      "ĠLand": 8403,
      "Ġchoo": 8404,
      "Ġvic": 8405,
      "ĠFood": 8406,
      "umble": 8407,
      "ĠGer": 8408,
      "ago": 8409,
      "ĠNour": 8410,
      "Ġcock": 8411,
      "ĠThames": 8412,
      "Ġacceler": 8413,
      "ruption": 8414,
      "Ġflats": 8415,
      "Ġlob": 8416,
      "Ġscrap": 8417,
      "Ġdesce": 8418,
      "ĠStand": 8419,
      "Ġowned": 8420,
      "Ġmakeup": 8421,
      "pson": 8422,
      "Ġstudio": 8423,
      "Ġassert": 8424,
      "Ġsecular": 8425,
      "Ġlightning": 8426,
      "Ġexposure": 8427,
      "Ġdeter": 8428,
      "Ġconfined": 8429,
      "Ġlesson": 8430,
      "Ġpersonally": 8431,
      "Ġpublicity": 8432,
      "Ġshortly": 8433,
      "Ġexpecting": 8434,
      "Ġexpectations": 8435,
      "Ġsupporting": 8436,
      "Ġtopics": 8437,
      "ĠClass": 8438,
      "Ġpayments": 8439,
      "Ġfacility": 8440,
      "ĠEdinburgh": 8441,
      "Ġwinner": 8442,
      "Ġreducing": 8443,
      "Ġachieving": 8444,
      "Ġtexts": 8445,
      "Ġsignificantly": 8446,
      "Ġwriter": 8447,
      "Ġharness": 8448,
      "Ġundoubtedly": 8449,
      "front": 8450,
      "Ġatmospheric": 8451,
      "ĠAnglo": 8452,
      "Ġavoided": 8453,
      "ĠSuper": 8454,
      "Ġengineering": 8455,
      "Ġdemonstrated": 8456,
      "eyed": 8457,
      "ACK": 8458,
      "Ġvanished": 8459,
      "Ġmechanism": 8460,
      "Ġacknowledge": 8461,
      "ĠWheel": 8462,
      "ĠJapanese": 8463,
      "Ġaxial": 8464,
      "Ġhydrogen": 8465,
      "Ġconverted": 8466,
      "Ġgrateful": 8467,
      "ĠKuwait": 8468,
      "Ġamateur": 8469,
      "service": 8470,
      "ĠCurtis": 8471,
      "ok": 8472,
      "Ġtips": 8473,
      "rep": 8474,
      "Ġsed": 8475,
      "Ġol": 8476,
      "erving": 8477,
      "Ġbon": 8478,
      "Ġcass": 8479,
      "Ġcries": 8480,
      "inging": 8481,
      "Ġmaps": 8482,
      "Ġdare": 8483,
      "ĠTel": 8484,
      "utch": 8485,
      "Ġrevers": 8486,
      "ĠSHE": 8487,
      "ĠBod": 8488,
      "ĠBridge": 8489,
      "Ġsecre": 8490,
      "ĠPress": 8491,
      "Ġkids": 8492,
      "ĠDu": 8493,
      "unic": 8494,
      "Ġalter": 8495,
      "Ġlender": 8496,
      "umps": 8497,
      "Ġtrim": 8498,
      "Ġintr": 8499,
      "ĠJer": 8500,
      "Ġtwin": 8501,
      "Ġoffences": 8502,
      "Ġflash": 8503,
      "Ġimpressed": 8504,
      "Ġhandling": 8505,
      "ĠVol": 8506,
      "Ġaccord": 8507,
      "ĠYoung": 8508,
      "ĠBeh": 8509,
      "Ġsigned": 8510,
      "Ġprofound": 8511,
      "Ġincident": 8512,
      "Ġstead": 8513,
      "Ġpressures": 8514,
      "umbling": 8515,
      "ĠPrime": 8516,
      "Ġdealt": 8517,
      "Ġstrip": 8518,
      "Ġcompanion": 8519,
      "ĠGreater": 8520,
      "forced": 8521,
      "Ġclothing": 8522,
      "Ġversions": 8523,
      "Ġpositions": 8524,
      "Ġprotected": 8525,
      "Ġreveal": 8526,
      "Ġshouting": 8527,
      "Ġrubbed": 8528,
      "Ġhyp": 8529,
      "Ġmagnet": 8530,
      "going": 8531,
      "Ġunemployed": 8532,
      "Ġlogic": 8533,
      "Ġderived": 8534,
      "Ġweapons": 8535,
      "Ġoutlined": 8536,
      "ĠFelicity": 8537,
      "Ġwhisky": 8538,
      "quarters": 8539,
      "')": 8540,
      "IM": 8541,
      "aver": 8542,
      "fit": 8543,
      "taining": 8544,
      "Ġcater": 8545,
      "Ġfired": 8546,
      "Ġpile": 8547,
      "ĠTim": 8548,
      "ĠCamp": 8549,
      "ĠCorn": 8550,
      "ĠMount": 8551,
      "Ġrice": 8552,
      "Ġhissed": 8553,
      "ĠDun": 8554,
      "ĠRal": 8555,
      "Ġleisure": 8556,
      "ĠHearth": 8557,
      "ĠOri": 8558,
      "Ġintim": 8559,
      "Ġflu": 8560,
      "Ġflavour": 8561,
      "Ġsmog": 8562,
      "Ġsubsc": 8563,
      "Ġrepay": 8564,
      "Ġpointing": 8565,
      "Ġconcert": 8566,
      "Ġcolon": 8567,
      "ĠHerlu": 8568,
      "Ġprominent": 8569,
      "box": 8570,
      "Ġhumour": 8571,
      "Ġsuccession": 8572,
      "Ġwinning": 8573,
      "Ġresponsibilities": 8574,
      "Ġdrops": 8575,
      "Ġparagraph": 8576,
      "Ġdevoted": 8577,
      "retched": 8578,
      "Ġindication": 8579,
      "Ġaccompl": 8580,
      "ĠHarbury": 8581,
      "Ġcontributed": 8582,
      "Ġrequirement": 8583,
      "AST": 8584,
      "Ġacquis": 8585,
      "Ġboxes": 8586,
      "Ġignore": 8587,
      "Ġcruel": 8588,
      "Ġweakness": 8589,
      "Ġpockets": 8590,
      "ĠMercians": 8591,
      "Ġpossession": 8592,
      "Ġscreamed": 8593,
      "Ġblocks": 8594,
      "Ġrestaurants": 8595,
      "Ġsurprisingly": 8596,
      "Ġabsorbed": 8597,
      "Ġtools": 8598,
      "Ġdesperate": 8599,
      "Ġcomponents": 8600,
      "ĠOwl": 8601,
      "ĠGallery": 8602,
      "ĠAuthority": 8603,
      "Ġinevitably": 8604,
      "ĠVietnam": 8605,
      "Ġexcitement": 8606,
      "ĠHerluin": 8607,
      "aire": 8608,
      "path": 8609,
      "vo": 8610,
      "Ġx": 8611,
      "Ġsaint": 8612,
      "Ġwars": 8613,
      "itage": 8614,
      "isons": 8615,
      "Ġfix": 8616,
      "lem": 8617,
      "Ġgonna": 8618,
      "Ġric": 8619,
      "Ġrhy": 8620,
      "pection": 8621,
      "ĠWalk": 8622,
      "Ġsharing": 8623,
      "Ġcomments": 8624,
      "Ġvou": 8625,
      "ĠEnd": 8626,
      "ĠDoes": 8627,
      "unted": 8628,
      "ĠGal": 8629,
      "Ġupd": 8630,
      "Ġplains": 8631,
      "Ġjury": 8632,
      "Ġthereby": 8633,
      "....": 8634,
      "active": 8635,
      "Ġperf": 8636,
      "ounded": 8637,
      "Ġblond": 8638,
      "Ġimpat": 8639,
      "Ġhandful": 8640,
      "enses": 8641,
      "ensus": 8642,
      "Ġrecycl": 8643,
      "Ġcaring": 8644,
      "Ġglow": 8645,
      "ĠAnth": 8646,
      "Ġorganized": 8647,
      "Ġmodest": 8648,
      "Ġsignal": 8649,
      "Ġadvised": 8650,
      "Ġinspection": 8651,
      "Ġwaved": 8652,
      "Ġearn": 8653,
      "Ġreasonably": 8654,
      "Ġrede": 8655,
      "ĠDonalds": 8656,
      "bye": 8657,
      "Ġstructured": 8658,
      "Here": 8659,
      "cover": 8660,
      "Ġcausing": 8661,
      "Ġcommunities": 8662,
      "Ġreflects": 8663,
      "Ġcreatures": 8664,
      "Ġtested": 8665,
      "ĠJanice": 8666,
      "Ġcupboards": 8667,
      "Ġsafely": 8668,
      "Ġdefinitely": 8669,
      "ĠEveryone": 8670,
      "Ġutil": 8671,
      "Ġofficials": 8672,
      "Ġrows": 8673,
      "Ġrotation": 8674,
      "Ġheroin": 8675,
      "Ġsympathy": 8676,
      "Ġspectacular": 8677,
      "Ġingredients": 8678,
      "Ġguidance": 8679,
      "ĠLinda": 8680,
      "ĠScience": 8681,
      "Ġcasual": 8682,
      "Ġinterrupted": 8683,
      "Ġterrace": 8684,
      "ĠChampions": 8685,
      "Ġextraordinary": 8686,
      "Ġoverseas": 8687,
      "):": 8688,
      "cers": 8689,
      "jack": 8690,
      "mble": 8691,
      "nat": 8692,
      "pat": 8693,
      "rary": 8694,
      "wind": 8695,
      "zing": 8696,
      "Ġtale": 8697,
      "Ġtsp": 8698,
      "inter": 8699,
      "esus": 8700,
      "Ġtoss": 8701,
      "aned": 8702,
      "Ġdots": 8703,
      "asion": 8704,
      "Ġlone": 8705,
      "ller": 8706,
      "lec": 8707,
      "rot": 8708,
      "ĠSk": 8709,
      "ĠApart": 8710,
      "rive": 8711,
      "ĠMain": 8712,
      "Ġriding": 8713,
      "Ġextend": 8714,
      "ĠRO": 8715,
      "ĠRather": 8716,
      "ĠRiver": 8717,
      "Ġpla": 8718,
      "Ġplat": 8719,
      "Ġplaster": 8720,
      "inked": 8721,
      "Ġdishes": 8722,
      "Ġtwist": 8723,
      "Ġspots": 8724,
      "Ġbacked": 8725,
      "Ġscrew": 8726,
      "avoured": 8727,
      "onsense": 8728,
      "Ġsliced": 8729,
      "Ġcarriage": 8730,
      "Ġgrace": 8731,
      "Ġpolar": 8732,
      "pense": 8733,
      "Ġinstantly": 8734,
      "Ġsmallest": 8735,
      "Ġcheaper": 8736,
      "apel": 8737,
      "ĠFranc": 8738,
      "Ġresulted": 8739,
      "Ġdrawings": 8740,
      "EST": 8741,
      "ĠAmericans": 8742,
      "ĠConference": 8743,
      "Ġcompetitors": 8744,
      "Ġdeparture": 8745,
      "Ġmurdered": 8746,
      "Ġdivision": 8747,
      "Ġfarmers": 8748,
      "ĠManager": 8749,
      "Ġtypeset": 8750,
      "Ġapartment": 8751,
      "Ġmemories": 8752,
      "ĠVictoria": 8753,
      "Ġpredomin": 8754,
      "Ġsurvival": 8755,
      "Ġmagnetic": 8756,
      "Ġemergency": 8757,
      "Ġanxiety": 8758,
      "Ġemerge": 8759,
      "ĠGolding": 8760,
      "Ġquantities": 8761,
      "Ġfloors": 8762,
      "Ġvarying": 8763,
      "Ġpremises": 8764,
      "Ġevaluation": 8765,
      "ĠNorman": 8766,
      "ĠMidlands": 8767,
      "Ġthoroughly": 8768,
      "Ġpoliceman": 8769,
      "Ġlecture": 8770,
      "ĠRuby": 8771,
      "ĠDonaldson": 8772,
      "AK": 8773,
      "Cs": 8774,
      "DUC": 8775,
      "Would": 8776,
      "bish": 8777,
      "oid": 8778,
      "och": 8779,
      "rator": 8780,
      "heard": 8781,
      "Ġbin": 8782,
      "Ġcraw": 8783,
      "Ġpitch": 8784,
      "Ġhut": 8785,
      "Ġinland": 8786,
      "Ġinex": 8787,
      "Ġdairy": 8788,
      "lend": 8789,
      "Ġbelly": 8790,
      "ĠSid": 8791,
      "ĠCap": 8792,
      "Ġris": 8793,
      "uled": 8794,
      "Ġshattered": 8795,
      "ĠLow": 8796,
      "Ġchuck": 8797,
      "ĠDel": 8798,
      "unior": 8799,
      "Ġcanoe": 8800,
      "Ġtracks": 8801,
      "Ġpron": 8802,
      "Ġresol": 8803,
      "Ġsmart": 8804,
      "iley": 8805,
      "Ġslim": 8806,
      "Ġgrim": 8807,
      "Ġproduces": 8808,
      "Ġaccent": 8809,
      "Ġdistract": 8810,
      "Ġassured": 8811,
      "Ġfounded": 8812,
      "Ġorganic": 8813,
      "Ġminister": 8814,
      "Ġdirections": 8815,
      "Ġmanaging": 8816,
      "ĠJoan": 8817,
      "Ġsolo": 8818,
      "lights": 8819,
      "Ġreceiving": 8820,
      "Ġdescribes": 8821,
      "REE": 8822,
      "Ġvisitor": 8823,
      "ĠAbout": 8824,
      "Ġcooked": 8825,
      "Ġmidnight": 8826,
      "Ġdeclared": 8827,
      "Ġarguments": 8828,
      "Ġgazing": 8829,
      "Ġbowed": 8830,
      "Ġrubber": 8831,
      "Ġleaning": 8832,
      "Ġcells": 8833,
      "Ġhurry": 8834,
      "Ġcomposers": 8835,
      "Ġquantity": 8836,
      "igeon": 8837,
      "Ġdelighted": 8838,
      "Ġgloom": 8839,
      "Ġplumage": 8840,
      "ĠLebanese": 8841,
      "Ġsacri": 8842,
      "Ġregistered": 8843,
      "cribed": 8844,
      "Ġlawyer": 8845,
      "Ġimprison": 8846,
      "ĠWelsh": 8847,
      "Ġbastard": 8848,
      "Ġdwellings": 8849,
      "AG": 8850,
      "FF": 8851,
      "PR": 8852,
      "dis": 8853,
      "five": 8854,
      "rane": 8855,
      "table": 8856,
      "vance": 8857,
      "wic": 8858,
      "Ġ;": 8859,
      "Ġic": 8860,
      "Ġtorn": 8861,
      "Ġwise": 8862,
      "Ġwishes": 8863,
      "Ġboo": 8864,
      "Ġbass": 8865,
      "Ġfond": 8866,
      "Ġfaded": 8867,
      "inge": 8868,
      "Ġhob": 8869,
      "orick": 8870,
      "Ġmud": 8871,
      "Ġtoile": 8872,
      "Ġlined": 8873,
      "Ġstations": 8874,
      "ĠSuff": 8875,
      "ĠSaint": 8876,
      "ĠAber": 8877,
      "ĠCir": 8878,
      "ĠCup": 8879,
      "riers": 8880,
      "ĠBack": 8881,
      "ĠMike": 8882,
      "ĠWOR": 8883,
      "ĠLess": 8884,
      "istically": 8885,
      "usal": 8886,
      "Ġbutton": 8887,
      "ĠGi": 8888,
      "ĠNid": 8889,
      "ĠNorthern": 8890,
      "Ġplough": 8891,
      "Ġprime": 8892,
      "Ġdiscre": 8893,
      "angled": 8894,
      "Ġrescue": 8895,
      "Ġblade": 8896,
      "Ġspecially": 8897,
      "Ġrib": 8898,
      "Ġobst": 8899,
      "xton": 8900,
      "Ġcomplement": 8901,
      "Ġdrank": 8902,
      "ancers": 8903,
      "ĠTrade": 8904,
      "Ġdiary": 8905,
      "Ġorient": 8906,
      "ĠProject": 8907,
      "Ġtempt": 8908,
      "Ġtemporary": 8909,
      "Ġshallow": 8910,
      "Ġbottles": 8911,
      "Ġpacked": 8912,
      "Ġjudges": 8913,
      "Ġdegrees": 8914,
      "Ġcollections": 8915,
      "Ġsubstance": 8916,
      "Ġtypesetting": 8917,
      "Ġtests": 8918,
      "Ġfifth": 8919,
      "Ġpalm": 8920,
      "Ġchestnut": 8921,
      "ĠMcK": 8922,
      "ĠSecondly": 8923,
      "Ġrents": 8924,
      "Ġgloves": 8925,
      "ĠSurrey": 8926,
      "ĠYOUR": 8927,
      "Ġborder": 8928,
      "Ġtorch": 8929,
      "Ġcoinc": 8930,
      "ĠDistrict": 8931,
      "Ġenemy": 8932,
      "Ġadministrative": 8933,
      "Ġexpanded": 8934,
      "Ġphrase": 8935,
      "Ġritual": 8936,
      "ĠPolytechn": 8937,
      "ĠJoseph": 8938,
      "Ġartificial": 8939,
      "Get": 8940,
      "Le": 8941,
      "],": 8942,
      "gly": 8943,
      "iverse": 8944,
      "pher": 8945,
      "piece": 8946,
      "Ġtap": 8947,
      "Ġtherm": 8948,
      "Ġbold": 8949,
      "Ġcred": 8950,
      "Ġcared": 8951,
      "Ġpit": 8952,
      "Ġmock": 8953,
      "Ġmission": 8954,
      "Ġtooth": 8955,
      "Ġnamed": 8956,
      "level": 8957,
      "ston": 8958,
      "Ġrely": 8959,
      "Ġash": 8960,
      "ĠHass": 8961,
      "Ġrac": 8962,
      "ĠLock": 8963,
      "Ġliable": 8964,
      "unting": 8965,
      "Ġplates": 8966,
      "Ġmanif": 8967,
      "Ġfeared": 8968,
      "Ġcompuls": 8969,
      "ears": 8970,
      "angle": 8971,
      "Ġresorts": 8972,
      "Ġloyal": 8973,
      "ften": 8974,
      "Ġjustify": 8975,
      "Ġappra": 8976,
      "ĠUP": 8977,
      "cester": 8978,
      "Ġinterface": 8979,
      "Ġinstall": 8980,
      "Ġpersons": 8981,
      "Ġrefers": 8982,
      "Ġhardware": 8983,
      "Ġsword": 8984,
      "Ġguilt": 8985,
      "uesday": 8986,
      "ĠSche": 8987,
      "ĠLeices": 8988,
      "Ġmush": 8989,
      "ancies": 8990,
      "Ġcultures": 8991,
      "ĠOrder": 8992,
      "ARY": 8993,
      "Ġreceiver": 8994,
      "Ġremembering": 8995,
      "ĠIndia": 8996,
      "Ġpreparing": 8997,
      "Ġattempted": 8998,
      "Ġbuyer": 8999,
      "Ġclimbing": 9000,
      "ĠJanela": 9001,
      "Ġmultip": 9002,
      "ĠOthers": 9003,
      "Ġqualified": 9004,
      "Ġspotted": 9005,
      "Ġmeasured": 9006,
      "ĠOutside": 9007,
      "Ġassistant": 9008,
      "Ġmerch": 9009,
      "ĠLawrence": 9010,
      "Ġroutes": 9011,
      "ĠForester": 9012,
      "Ġpolyph": 9013,
      "ĠRussia": 9014,
      "Ġdrugs": 9015,
      "Ġtutors": 9016,
      "Ġarchitecture": 9017,
      "Ġwandered": 9018,
      "Ġembarrassed": 9019,
      "Ġethnic": 9020,
      "ĠPrior": 9021,
      "ĠMarshall": 9022,
      "Ġexclusive": 9023,
      "Ġdisturbed": 9024,
      "Ġexecutive": 9025,
      "Ġsubtle": 9026,
      "ĠVentura": 9027,
      "ĠHindley": 9028,
      "HT": 9029,
      "away": 9030,
      "apping": 9031,
      "bably": 9032,
      "cription": 9033,
      "ih": 9034,
      "lb": 9035,
      "lit": 9036,
      "rad": 9037,
      "rons": 9038,
      "Â°": 9039,
      "Ġtiss": 9040,
      "eration": 9041,
      "Ġbills": 9042,
      "Ġfan": 9043,
      "Ġfires": 9044,
      "Ġpine": 9045,
      "Ġpause": 9046,
      "Ġhi": 9047,
      "ester": 9048,
      "Ġmm": 9049,
      "Ġmum": 9050,
      "Ġdimin": 9051,
      "Ġeager": 9052,
      "ĠIx": 9053,
      "ĠTR": 9054,
      "Ġgoss": 9055,
      "Ġgiant": 9056,
      "acious": 9057,
      "ĠSH": 9058,
      "ĠCast": 9059,
      "ĠMot": 9060,
      "Ġsectors": 9061,
      "Ġshade": 9062,
      "ĠLanc": 9063,
      "Ġchat": 9064,
      "Ġvoc": 9065,
      "ĠEst": 9066,
      "ĠEli": 9067,
      "ĠEvent": 9068,
      "ĠEllen": 9069,
      "ĠFow": 9070,
      "ĠRorim": 9071,
      "ieval": 9072,
      "arted": 9073,
      "ĠGP": 9074,
      "ĠGiven": 9075,
      "agle": 9076,
      "agger": 9077,
      "Ġtear": 9078,
      "Ġroots": 9079,
      "Ġarmed": 9080,
      "Ġdisch": 9081,
      "Ġimposed": 9082,
      "Ġpoet": 9083,
      "ĠKa": 9084,
      "Ġamend": 9085,
      "Ġslopes": 9086,
      "Ġbund": 9087,
      "Ġbugg": 9088,
      "Ġcrushed": 9089,
      "Ġhappiness": 9090,
      "Ġconfident": 9091,
      "Ġservants": 9092,
      "shaped": 9093,
      "Ġmarital": 9094,
      "ĠAtl": 9095,
      "Ġpublications": 9096,
      "Ġplays": 9097,
      "HEN": 9098,
      "Ġbasically": 9099,
      "Ġholds": 9100,
      "Ġbarrier": 9101,
      "Ġwalks": 9102,
      "Ġcritique": 9103,
      "Ġacceptance": 9104,
      "ĠPrice": 9105,
      "ĠLiber": 9106,
      "Ġpicking": 9107,
      "Ġcompanions": 9108,
      "Ġsensible": 9109,
[...]
