{
  "version": "1.0",
  "truncation": null,
  "padding": null,
  "added_tokens": [
    {
      "id": 0,
      "content": "[UNK]",
      "single_word": false,
      "lstrip": false,
      "rstrip": false,
      "normalized": false,
      "special": true
    },
    {
      "id": 1,
      "content": "[CLS]",
      "single_word": false,
      "lstrip": false,
      "rstrip": false,
      "normalized": false,
      "special": true
    },
    {
      "id": 2,
      "content": "[SEP]",
      "single_word": false,
      "lstrip": false,
      "rstrip": false,
      "normalized": false,
      "special": true
    },
    {
      "id": 3,
      "content": "[PAD]",
      "single_word": false,
      "lstrip": false,
      "rstrip": false,
      "normalized": false,
      "special": true
    },
    {
      "id": 4,
      "content": "[MASK]",
      "single_word": false,
      "lstrip": false,
      "rstrip": false,
      "normalized": false,
      "special": true
    },
    {
      "id": 5,
      "content": "[PAR]",
      "single_word": false,
      "lstrip": false,
      "rstrip": false,
      "normalized": false,
      "special": true
    },
    {
      "id": 6,
      "content": "[TAB]",
      "single_word": false,
      "lstrip": false,
      "rstrip": false,
      "normalized": false,
      "special": true
    },
    {
      "id": 7,
      "content": "[DOC]",
      "single_word": false,
      "lstrip": false,
      "rstrip": false,
      "normalized": false,
      "special": true
    },
    {
      "id": 8,
      "content": "[EOD]",
      "single_word": false,
      "lstrip": false,
      "rstrip": false,
      "normalized": false,
      "special": true
    },
    {
      "id": 9,
      "content": "[SPK]",
      "single_word": false,
      "lstrip": false,
      "rstrip": false,
      "normalized": false,
      "special": true
    }
  ],
  "normalizer": null,
  "pre_tokenizer": {
    "type": "Sequence",
    "pretokenizers": [
      {
        "type": "ByteLevel",
        "add_prefix_space": true,
        "trim_offsets": true,
        "use_regex": true
      },
      {
        "type": "Digits",
        "individual_digits": true
      }
    ]
  },
  "post_processor": {
    "type": "ByteLevel",
    "add_prefix_space": true,
    "trim_offsets": true,
    "use_regex": true
  },
  "decoder": {
    "type": "ByteLevel",
    "add_prefix_space": true,
    "trim_offsets": true,
    "use_regex": true
  },
  "model": {
    "type": "WordPiece",
    "unk_token": "[UNK]",
    "continuing_subword_prefix": "",
    "max_input_chars_per_word": 100,
    "vocab": {
      "[UNK]": 0,
      "[CLS]": 1,
      "[SEP]": 2,
      "[PAD]": 3,
      "[MASK]": 4,
      "[PAR]": 5,
      "[TAB]": 6,
      "[DOC]": 7,
      "[EOD]": 8,
      "[SPK]": 9,
      "!": 10,
      "\"": 11,
      "#": 12,
      "$": 13,
      "%": 14,
      "&": 15,
      "'": 16,
      "(": 17,
      ")": 18,
      "*": 19,
      "+": 20,
      ",": 21,
      "-": 22,
      ".": 23,
      "/": 24,
      "0": 25,
      "1": 26,
      "2": 27,
      "3": 28,
      "4": 29,
      "5": 30,
      "6": 31,
      "7": 32,
      "8": 33,
      "9": 34,
      ":": 35,
      ";": 36,
      "<": 37,
      "=": 38,
      ">": 39,
      "?": 40,
      "@": 41,
      "A": 42,
      "B": 43,
      "C": 44,
      "D": 45,
      "E": 46,
      "F": 47,
      "G": 48,
      "H": 49,
      "I": 50,
      "J": 51,
      "K": 52,
      "L": 53,
      "M": 54,
      "N": 55,
      "O": 56,
      "P": 57,
      "Q": 58,
      "R": 59,
      "S": 60,
      "T": 61,
      "U": 62,
      "V": 63,
      "W": 64,
      "X": 65,
      "Y": 66,
      "Z": 67,
      "[": 68,
      "\\": 69,
      "]": 70,
      "_": 71,
      "`": 72,
      "a": 73,
      "b": 74,
      "c": 75,
      "d": 76,
      "e": 77,
      "f": 78,
      "g": 79,
      "h": 80,
      "i": 81,
      "j": 82,
      "k": 83,
      "l": 84,
      "m": 85,
      "n": 86,
      "o": 87,
      "p": 88,
      "q": 89,
      "r": 90,
      "s": 91,
      "t": 92,
      "u": 93,
      "v": 94,
      "w": 95,
      "x": 96,
      "y": 97,
      "z": 98,
      "{": 99,
      "|": 100,
      "}": 101,
      "¡": 102,
      "¢": 103,
      "£": 104,
      "¤": 105,
      "¥": 106,
      "¦": 107,
      "§": 108,
      "¨": 109,
      "©": 110,
      "ª": 111,
      "«": 112,
      "¬": 113,
      "®": 114,
      "¯": 115,
      "°": 116,
      "±": 117,
      "²": 118,
      "³": 119,
      "´": 120,
      "µ": 121,
      "¶": 122,
      "·": 123,
      "¸": 124,
      "¹": 125,
      "º": 126,
      "»": 127,
      "¼": 128,
      "½": 129,
      "¾": 130,
      "¿": 131,
      "Â": 132,
      "Ã": 133,
      "Ä": 134,
      "Å": 135,
      "Î": 136,
      "Ï": 137,
      "â": 138,
      "Ġ": 139,
      "Ģ": 140,
      "ģ": 141,
      "Ĥ": 142,
      "ĥ": 143,
      "Ħ": 144,
      "ħ": 145,
      "Ĩ": 146,
      "ĩ": 147,
      "Ī": 148,
      "ī": 149,
      "Ĭ": 150,
      "ĭ": 151,
      "Į": 152,
      "į": 153,
      "İ": 154,
      "ı": 155,
      "Ĳ": 156,
      "ĳ": 157,
      "Ĵ": 158,
      "ĵ": 159,
      "Ķ": 160,
      "ķ": 161,
      "ĸ": 162,
      "Ĺ": 163,
      "ĺ": 164,
      "Ļ": 165,
      "ļ": 166,
      "Ľ": 167,
      "ľ": 168,
      "Ŀ": 169,
      "ŀ": 170,
      "Ł": 171,
      "ł": 172,
      "Ń": 173,
      "Ġt": 174,
      "he": 175,
      "Ġa": 176,
      "in": 177,
      "Ġthe": 178,
      "re": 179,
      "Ġo": 180,
      "Ġs": 181,
      "Ġw": 182,
      "er": 183,
      "on": 184,
      "at": 185,
      "en": 186,
      "Ġc": 187,
      "Ġb": 188,
      "it": 189,
      "is": 190,
      "nd": 191,
      "ou": 192,
      "ed": 193,
      "Ġf": 194,
      "or": 195,
      "Ġp": 196,
      "Ġof": 197,
      "es": 198,
      "ing": 199,
      "Ġto": 200,
      "Ġm": 201,
      "an": 202,
      "Ġin": 203,
      "ar": 204,
      "al": 205,
      "Ġh": 206,
      "Ġd": 207,
      "Ġand": 208,
      "as": 209,
      "ic": 210,
      "Ġth": 211,
      "le": 212,
      "ion": 213,
      "om": 214,
      "ll": 215,
      "Ġn": 216,
      "ent": 217,
      "Ġbe": 218,
      "Ġl": 219,
      "Ġ'": 220,
      "ly": 221,
      "ve": 222,
      "Ġre": 223,
      "Ġe": 224,
      "ĠI": 225,
      "st": 226,
      "Ġg": 227,
      "ĠT": 228,
      "ro": 229,
      "ut": 230,
      "ot": 231,
      "ct": 232,
      "id": 233,
      "ad": 234,
      "Ġon": 235,
      "Ġhe": 236,
      "se": 237,
      "Ġthat": 238,
      "ow": 239,
      "im": 240,
      "ld": 241,
      "et": 242,
      "Ġy": 243,
      "Ġis": 244,
      "Ġfor": 245,
      "Ġit": 246,
      "ĠS": 247,
      "ay": 248,
      "ce": 249,
      "ĠA": 250,
      "Ġu": 251,
      "ver": 252,
      "gh": 253,
      "Ġwh": 254,
      "Ġwas": 255,
      "ur": 256,
      "ir": 257,
      "ch": 258,
      "Ġst": 259,
      "ation": 260,
      "ĠC": 261,
      "Ġwe": 262,
      "ith": 263,
      "'s": 264,
      "am": 265,
      "ĠThe": 266,
      "Ġas": 267,
      "ĠM": 268,
      "Ġyou": 269,
      "Ġwith": 270,
      "ri": 271,
      "Ġan": 272,
      "ol": 273,
      "ĠB": 274,
      "ra": 275,
      "il": 276,
      "ter": 277,
      "her": 278,
      "Ġha": 279,
      "Ġcon": 280,
      ".'": 281,
      "if": 282,
      "Ġat": 283,
      "ĠH": 284,
      "ill": 285,
      "ul": 286,
      "em": 287,
      "ght": 288,
      "Ġpro": 289,
      "Ġse": 290,
      "ould": 291,
      "ke": 292,
      "Ġsu": 293,
      "Ġare": 294,
      "pp": 295,
      "ĠP": 296,
      "ge": 297,
      "ĠW": 298,
      "ers": 299,
      "Ġde": 300,
      "Ġby": 301,
      "Ġnot": 302,
      "od": 303,
      "Ġex": 304,
      "ain": 305,
      "ac": 306,
      "Ġcom": 307,
      "rom": 308,
      "ab": 309,
      "ist": 310,
      "ess": 311,
      "ore": 312,
      "Ġor": 313,
      "th": 314,
      "ment": 315,
      "op": 316,
      "Ġhave": 317,
      "qu": 318,
      "ĠD": 319,
      "ate": 320,
      "Ġne": 321,
      "ich": 322,
      "Ġsh": 323,
      "est": 324,
      "ant": 325,
      "Ġhad": 326,
      "ĠL": 327,
      "res": 328,
      "us": 329,
      "os": 330,
      "Ġ-": 331,
      "ĠE": 332,
      "Ġfrom": 333,
      "Ġ(": 334,
      "and": 335,
      "ĠR": 336,
      "ive": 337,
      "ĠF": 338,
      "##": 339,
      "Ġr": 340,
      "our": 341,
      "art": 342,
      "pe": 343,
      "nt": 344,
      "red": 345,
      "Ġhis": 346,
      "Ġv": 347,
      "Ġch": 348,
      "ort": 349,
      "ĠG": 350,
      "ĠN": 351,
      "Ġal": 352,
      "ig": 353,
      "oc": 354,
      "ies": 355,
      "ard": 356,
      "ust": 357,
      "Ġwhich": 358,
      "ity": 359,
      "Ġle": 360,
      "um": 361,
      "ie": 362,
      "end": 363,
      "Ġthis": 364,
      "ome": 365,
      "un": 366,
      "Ġthey": 367,
      "el": 368,
      "Ġgo": 369,
      "Ġbut": 370,
      "iv": 371,
      "ĠJ": 372,
      "Ġk": 373,
      "Ġdo": 374,
      "'t": 375,
      "Ġme": 376,
      "all": 377,
      "Ġher": 378,
      "Ġwhe": 379,
      "Ġwere": 380,
      "ight": 381,
      "Ġab": 382,
      "UN": 383,
      "Ġwor": 384,
      "ally": 385,
      "rou": 386,
      "Ġall": 387,
      "Ġ[": 388,
      "Ġint": 389,
      "out": 390,
      "ĠO": 391,
      "ast": 392,
      "UNK": 393,
      "Ġj": 394,
      "ther": 395,
      "Ġshe": 396,
      "Ġsa": 397,
      "Ġcan": 398,
      "ok": 399,
      "Ġone": 400,
      "ud": 401,
      "ure": 402,
      "ag": 403,
      "ous": 404,
      "ear": 405,
      "Ġso": 406,
      "Ġbeen": 407,
      "ff": 408,
      "pt": 409,
      "Ġthere": 410,
      "ice": 411,
      "Ġout": 412,
      "Ġpl": 413,
      "one": 414,
      "Ġhas": 415,
      "ak": 416,
      "ost": 417,
      "Ġwill": 418,
      "ide": 419,
      "ial": 420,
      "Ġup": 421,
      "ack": 422,
      "ction": 423,
      "Ġtheir": 424,
      "pl": 425,
      "Ġwho": 426,
      "Ġwould": 427,
      "ry": 428,
      "ap": 429,
      "ine": 430,
      "ong": 431,
      "Ġman": 432,
      "Ġcl": 433,
      "ind": 434,
      "are": 435,
      "Ġkn": 436,
      "Ġli": 437,
      "Ġun": 438,
      "?'": 439,
      "ĠIn": 440,
      "Ġ##": 441,
      "ect": 442,
      "ary": 443,
      "very": 444,
      "Ġcont": 445,
      "Ġag": 446,
      "ĠIt": 447,
      "able": 448,
      "Ġim": 449,
      "ĠTh": 450,
      "Ġcomp": 451,
      "ere": 452,
      "ber": 453,
      "cc": 454,
      "Ġmore": 455,
      "ell": 456,
      "ime": 457,
      "ated": 458,
      "Ġad": 459,
      "ook": 460,
      "Ġthem": 461,
      "ish": 462,
      "Ġsaid": 463,
      "au": 464,
      "ame": 465,
      "Ġover": 466,
      "ance": 467,
      "Ġus": 468,
      "Ġen": 469,
      "ence": 470,
      "per": 471,
      "Ġtw": 472,
      "ose": 473,
      "Ġpart": 474,
      "Ġabout": 475,
      "ĠHe": 476,
      "Ġdis": 477,
      "Ġper": 478,
      "Ġapp": 479,
      "Ġsome": 480,
      "ble": 481,
      "Ġhim": 482,
      "Ġqu": 483,
      "age": 484,
      "ake": 485,
      "ven": 486,
      "ond": 487,
      "Ġother": 488,
      "Ġno": 489,
      "Ġif": 490,
      "ical": 491,
      "Ġres": 492,
      "ru": 493,
      "Ġwhat": 494,
      "ition": 495,
      "Ġar": 496,
      "og": 497,
      "Ġany": 498,
      "Ġoff": 499,
      "Ġwhen": 500,
      "Ġfa": 501,
      "Ġknow": 502,
      "ire": 503,
      "Ġwork": 504,
      "ip": 505,
      "ans": 506,
      "ations": 507,
      "ound": 508,
      "te": 509,
      "ord": 510,
      "Ġlike": 511,
      "ult": 512,
      "ass": 513,
      "ays": 514,
      "Ġyear": 515,
      "ĠK": 516,
      "du": 517,
      "Ġinto": 518,
      "Ġinc": 519,
      "rit": 520,
      "Ġbec": 521,
      "Ġcould": 522,
      "orm": 523,
      "ink": 524,
      "Ġthan": 525,
      "ree": 526,
      "Ġits": 527,
      "wn": 528,
      "ress": 529,
      "ĠU": 530,
      "ach": 531,
      "port": 532,
      "Ġtime": 533,
      "ount": 534,
      "hed": 535,
      "ign": 536,
      "erm": 537,
      "Ġmy": 538,
      "Ġro": 539,
      "Ġpe": 540,
      "ĠCh": 541,
      "Ġtwo": 542,
      "ub": 543,
      "ep": 544,
      "own": 545,
      "ark": 546,
      "ade": 547,
      "..": 548,
      "ough": 549,
      "Ġfe": 550,
      "Ġsp": 551,
      "ang": 552,
      "Ġrec": 553,
      "ue": 554,
      "Ġonly": 555,
      "ings": 556,
      "oy": 557,
      "Ġfir": 558,
      "Ġyour": 559,
      "reat": 560,
      "vel": 561,
      "ase": 562,
      "ions": 563,
      "ite": 564,
      "int": 565,
      "ick": 566,
      "Ġte": 567,
      "so": 568,
      "ild": 569,
      "iff": 570,
      "nder": 571,
      "Ġpre": 572,
      "fter": 573,
      "Ġthen": 574,
      "Ġsc": 575,
      "sel": 576,
      "av": 577,
      "we": 578,
      "ious": 579,
      "ove": 580,
      "Ġbet": 581,
      "Ġind": 582,
      "ĠY": 583,
      "Ġtr": 584,
      "Ġdid": 585,
      "Ġjust": 586,
      "Ġnew": 587,
      "ces": 588,
      "ĠV": 589,
      "Ġspe": 590,
      "erv": 591,
      "ople": 592,
      "ĠSt": 593,
      ",'": 594,
      "ause": 595,
      "ens": 596,
      "right": 597,
      "ood": 598,
      "Ġpo": 599,
      "Ġmay": 600,
      "Ġalso": 601,
      "Ġget": 602,
      "itt": 603,
      "ck": 604,
      "li": 605,
      "ne": 606,
      "ater": 607,
      "ace": 608,
      "ile": 609,
      "Ġunder": 610,
      "Ġnow": 611,
      "Ġco": 612,
      "Ġback": 613,
      "urn": 614,
      "Ġshould": 615,
      "ons": 616,
      "ia": 617,
      "Ġvery": 618,
      "Ġcomm": 619,
      "Ġfirst": 620,
      "Ġpeople": 621,
      "ng": 622,
      "Ġlook": 623,
      "ise": 624,
      "ents": 625,
      "ory": 626,
      "fore": 627,
      "ced": 628,
      "Ġcons": 629,
      "iz": 630,
      "ors": 631,
      "ea": 632,
      "Ġdiff": 633,
      "ict": 634,
      "ft": 635,
      "ĠBut": 636,
      "Ġafter": 637,
      "Ġhow": 638,
      "Ġagain": 639,
      "ĠShe": 640,
      "Ġpol": 641,
      "Ġbl": 642,
      "Ġsee": 643,
      "ved": 644,
      "hing": 645,
      "uch": 646,
      "Ġdes": 647,
      "Ġwell": 648,
      "Ġatt": 649,
      "Ġacc": 650,
      "Ġthink": 651,
      "ual": 652,
      "Ġpr": 653,
      "ward": 654,
      "Ġfl": 655,
      "Ġrel": 656,
      "ian": 657,
      "act": 658,
      "form": 659,
      "ĠThis": 660,
      "Ġam": 661,
      "Ġcent": 662,
      "Ġwhere": 663,
      "ull": 664,
      "Ġem": 665,
      "rough": 666,
      "oss": 667,
      "hat": 668,
      "Ġrem": 669,
      "ĠAnd": 670,
      "Ġra": 671,
      "ning": 672,
      "Ġsuch": 673,
      "ph": 674,
      "Ġthese": 675,
      "Ġdown": 676,
      "pect": 677,
      "other": 678,
      "Ġsm": 679,
      "ular": 680,
      "Ġway": 681,
      "ail": 682,
      "Ġneed": 683,
      "Ġform": 684,
      "amp": 685,
      "oth": 686,
      "ather": 687,
      ").": 688,
      "ĠMr": 689,
      "ty": 690,
      "ational": 691,
      "Ġer": 692,
      "self": 693,
      "Ġact": 694,
      "Ġinv": 695,
      "ween": 696,
      "Ġmade": 697,
      "ock": 698,
      "land": 699,
      "Ġmost": 700,
      "ied": 701,
      "Ġthrough": 702,
      "Ġdec": 703,
      "lic": 704,
      "ath": 705,
      "Ġob": 706,
      "tain": 707,
      "Ġbecause": 708,
      "ily": 709,
      "Ġour": 710,
      "Ġsub": 711,
      "Ġright": 712,
      "ib": 713,
      "Ġbetween": 714,
      "Ġgot": 715,
      "ject": 716,
      "oll": 717,
      "iss": 718,
      "ob": 719,
      "Ġwant": 720,
      "Ġyears": 721,
      "Ġeven": 722,
      "way": 723,
      "Ġsupp": 724,
      "Ġmuch": 725,
      "Ġac": 726,
      "ren": 727,
      "Ġcar": 728,
      "Ġgood": 729,
      "round": 730,
      "'ve": 731,
      "tern": 732,
      "Ġbeing": 733,
      "Ġsy": 734,
      "Ġdon": 735,
      "ities": 736,
      "ract": 737,
      "ates": 738,
      "les": 739,
      "Ġown": 740,
      "Ġsec": 741,
      "Ġsay": 742,
      "eah": 743,
      "ix": 744,
      "Ġtra": 745,
      "ments": 746,
      "Ġlong": 747,
      "ife": 748,
      "row": 749,
      "Ġcour": 750,
      "old": 751,
      "ative": 752,
      "'re": 753,
      "ĠAn": 754,
      "Ġthose": 755,
      "oun": 756,
      "igh": 757,
      "ible": 758,
      "Ġbefore": 759,
      "hen": 760,
      "iet": 761,
      "Ġimp": 762,
      "vers": 763,
      "ful": 764,
      "Ġreg": 765,
      "ener": 766,
      "Ġass": 767,
      "cess": 768,
      "ew": 769,
      "ought": 770,
      "vern": 771,
      "ange": 772,
      "]:": 773,
      "ool": 774,
      "led": 775,
      "Ġmany": 776,
      "ank": 777,
      "lect": 778,
      "ific": 779,
      "Ġprov": 780,
      "Ġbu": 781,
      "Ġthree": 782,
      "oh": 783,
      "omet": 784,
      "ĠAs": 785,
      "ever": 786,
      "Ġhand": 787,
      "alk": 788,
      "Ġmake": 789,
      "xt": 790,
      "cept": 791,
      "gg": 792,
      "ec": 793,
      "ĠThere": 794,
      "air": 795,
      "rib": 796,
      "Ġeff": 797,
      "Ġear": 798,
      "gan": 799,
      "Ġlast": 800,
      "ident": 801,
      "Ġprodu": 802,
      "ating": 803,
      "Ġev": 804,
      "ving": 805,
      "Ġset": 806,
      "Ġpres": 807,
      "hes": 808,
      "Ġdisc": 809,
      "lud": 810,
      "ouse": 811,
      "Ġ###": 812,
      "day": 813,
      "Â£": 814,
      "aking": 815,
      "ĠThey": 816,
      "als": 817,
      "ting": 818,
      "ised": 819,
      "ave": 820,
      "velop": 821,
      "Ġuse": 822,
      "Ġend": 823,
      "Ġ\"": 824,
      "Ġevery": 825,
      "ually": 826,
      "und": 827,
      "Ġmust": 828,
      "Ġdiffere": 829,
      "The": 830,
      "Ġsur": 831,
      "Ġchild": 832,
      "ĠWe": 833,
      "Ġstill": 834,
      "omm": 835,
      "'ll": 836,
      "ek": 837,
      "Ġke": 838,
      "anc": 839,
      "Ġmin": 840,
      "Ġtake": 841,
      "ered": 842,
      "Ġfin": 843,
      "Ġspec": 844,
      "ower": 845,
      "aw": 846,
      "ĠÂ£": 847,
      "ures": 848,
      "Ġcol": 849,
      "arg": 850,
      "Ġpers": 851,
      "any": 852,
      "Ġconc": 853,
      "Ġref": 854,
      "up": 855,
      "Ġpub": 856,
      "ility": 857,
      "!'": 858,
      "olog": 859,
      "ms": 860,
      "ten": 861,
      "stem": 862,
      "Ġput": 863,
      "ement": 864,
      "Ġused": 865,
      "Ġcount": 866,
      "Ġsoc": 867,
      "ts": 868,
      "Ġbel": 869,
      "Ġtoo": 870,
      "Ġent": 871,
      "Ġmon": 872,
      "ĠAl": 873,
      "Ġnum": 874,
      "roup": 875,
      "vernment": 876,
      "ittle": 877,
      "iew": 878,
      "sh": 879,
      "Ġsomet": 880,
      "its": 881,
      "Ġfact": 882,
      "ution": 883,
      "'m": 884,
      "ram": 885,
      "man": 886,
      "ĠUn": 887,
      "...": 888,
      "Ġgoing": 889,
      "Ġext": 890,
      "Ġdef": 891,
      "Ġgreat": 892,
      "Ġinter": 893,
      "'d": 894,
      "Ġdevelop": 895,
      "ĠBrit": 896,
      "Ġsl": 897,
      "ern": 898,
      "Ġdoes": 899,
      "Ġserv": 900,
      "ale": 901,
      "ited": 902,
      "Ġpoint": 903,
      "Ġstud": 904,
      "ĠIf": 905,
      "Ġpartic": 906,
      "ince": 907,
      "Ġcall": 908,
      "Ġph": 909,
      "ient": 910,
      "Ġgiv": 911,
      "Ġinst": 912,
      "Ġseem": 913,
      "Ġcome": 914,
      "Ġsame": 915,
      "Ġexp": 916,
      "ollow": 917,
      "uth": 918,
      "ric": 919,
      "Ġcle": 920,
      "Ġrep": 921,
      "Ġconf": 922,
      "Ġmight": 923,
      "),": 924,
      "Ġmem": 925,
      "ys": 926,
      "Ġgener": 927,
      "Ġlittle": 928,
      "Ġsim": 929,
      "Ġboth": 930,
      "ased": 931,
      "Ġstr": 932,
      "erest": 933,
      "ters": 934,
      "uring": 935,
      "Ġthought": 936,
      "ady": 937,
      "Ġhere": 938,
      "Ġop": 939,
      "Ġday": 940,
      "Ġdep": 941,
      "Ġadd": 942,
      "ision": 943,
      "Ġsystem": 944,
      "ohn": 945,
      "mer": 946,
      "ves": 947,
      "arge": 948,
      "ices": 949,
      "ax": 950,
      "ont": 951,
      "ret": 952,
      "Ġposs": 953,
      "Ġdist": 954,
      "Ġplay": 955,
      "Ġloc": 956,
      "ros": 957,
      "chool": 958,
      "Ġmark": 959,
      "Ġmat": 960,
      "ined": 961,
      "Ġdet": 962,
      "Ġhel": 963,
      "Yeah": 964,
      "uc": 965,
      "ness": 966,
      "ĠJohn": 967,
      "Ġold": 968,
      "Ġask": 969,
      "Ġfar": 970,
      "ef": 971,
      "Ġwom": 972,
      "ably": 973,
      "Ġturn": 974,
      "Ġinclud": 975,
      "Ġproble": 976,
      "oice": 977,
      "Ġfound": 978,
      "get": 979,
      "Ġfollow": 980,
      "Ġinterest": 981,
      "Ġhead": 982,
      "Ġweek": 983,
      "Ġshow": 984,
      "arch": 985,
      "Ġret": 986,
      "Ġmean": 987,
      "Ġeach": 988,
      "Ġimport": 989,
      "ĠYou": 990,
      "gin": 991,
      "ody": 992,
      "Ġins": 993,
      "Ġgroup": 994,
      "Ġfour": 995,
      "Ġlife": 996,
      "Ġagainst": 997,
      "nce": 998,
      "Ġhelp": 999,
      "me": 1000,
      "imes": 1001,
      "Ġpat": 1002,
      "ism": 1003,
      "der": 1004,
      "ĠSo": 1005,
      "Ġnever": 1006,
      "Ġmod": 1007,
      "Ġbr": 1008,
      "Ġfam": 1009,
      "Ġfind": 1010,
      "con": 1011,
      "here": 1012,
      "'.": 1013,
      "ists": 1014,
      "ertain": 1015,
      "ics": 1016,
      "ton": 1017,
      "hip": 1018,
      "Ġdifferent": 1019,
      "ished": 1020,
      "Ġhigh": 1021,
      "ling": 1022,
      "ways": 1023,
      "ork": 1024,
      "ried": 1025,
      "bers": 1026,
      "Ġbus": 1027,
      "Ġmet": 1028,
      "cy": 1029,
      "Ġeffect": 1030,
      "Ġanother": 1031,
      "Ġmain": 1032,
      "Ġsmall": 1033,
      "Ġstart": 1034,
      "Ġgu": 1035,
      "Ġappro": 1036,
      "Ġ####": 1037,
      "Ġtrans": 1038,
      "ner": 1039,
      "ctions": 1040,
      "Ġparticular": 1041,
      "Ġcur": 1042,
      "Ġsign": 1043,
      "Ġdire": 1044,
      "ĠAr": 1045,
      "Ġperson": 1046,
      "Ġreal": 1047,
      "Ġbo": 1048,
      "Ġche": 1049,
      "ĠEng": 1050,
      "Ġwar": 1051,
      "iness": 1052,
      "Ġgl": 1053,
      "ted": 1054,
      "ury": 1055,
      "Ġlead": 1056,
      "Ġexper": 1057,
      "Ġhome": 1058,
      "ris": 1059,
      "ĠFor": 1060,
      "ĠSc": 1061,
      "Ġgr": 1062,
      "ĠRe": 1063,
      "Ġcor": 1064,
      "Ġincre": 1065,
      "ider": 1066,
      "Ġed": 1067,
      "Ġnumber": 1068,
      "ross": 1069,
      "Ġsecond": 1070,
      "ention": 1071,
      "ute": 1072,
      "Ġcourse": 1073,
      "Ġadv": 1074,
      "Ġlet": 1075,
      "Ġplace": 1076,
      "Ġaway": 1077,
      "Ġworld": 1078,
      "ploy": 1079,
      "ened": 1080,
      "Ġsomething": 1081,
      "ues": 1082,
      "Ġinf": 1083,
      "ason": 1084,
      "Ġdem": 1085,
      "Ġschool": 1086,
      "Ġrequ": 1087,
      "less": 1088,
      "Ġhapp": 1089,
      "Ġerm": 1090,
      "osition": 1091,
      "thing": 1092,
      "Ġmanag": 1093,
      "Ġcare": 1094,
      "ĠLe": 1095,
      "Ġtak": 1096,
      "the": 1097,
      "ĠHow": 1098,
      "ield": 1099,
      "ives": 1100,
      "ared": 1101,
      "ĠWh": 1102,
      "alf": 1103,
      "Ġwhile": 1104,
      "uss": 1105,
      "ided": 1106,
      "Ġbro": 1107,
      "pped": 1108,
      "Ġwent": 1109,
      "wards": 1110,
      "Ġresp": 1111,
      "ital": 1112,
      "Ġgovernment": 1113,
      "Ġpublic": 1114,
      "Ġfeel": 1115,
      "Ġwrit": 1116,
      "Ġreport": 1117,
      "osed": 1118,
      "Ġfew": 1119,
      "aps": 1120,
      "aj": 1121,
      "Ġinform": 1122,
      "Ġcame": 1123,
      "Ġrest": 1124,
      "Ġterm": 1125,
      "Ġleft": 1126,
      "Ġstand": 1127,
      "Ġless": 1128,
      "Ġexpl": 1129,
      "Ġcase": 1130,
      "Ġquest": 1131,
      "ants": 1132,
      "though": 1133,
      "Ġcomple": 1134,
      "Ġreally": 1135,
      "Ġlocal": 1136,
      "ins": 1137,
      "It": 1138,
      "Ġrun": 1139,
      "outh": 1140,
      "ĠComm": 1141,
      "uro": 1142,
      "You": 1143,
      "Oh": 1144,
      "ley": 1145,
      "rist": 1146,
      "ural": 1147,
      "ience": 1148,
      "Ġocc": 1149,
      "Ġword": 1150,
      "Ġide": 1151,
      "Ġcontin": 1152,
      "Ġprog": 1153,
      "Ġalways": 1154,
      "Ġav": 1155,
      "Ġpri": 1156,
      "Ġbeh": 1157,
      "lish": 1158,
      "Ġresult": 1159,
      "Ġdidn": 1160,
      "Ġest": 1161,
      "Ġcontro": 1162,
      "Ġwithin": 1163,
      "Ġser": 1164,
      "ired": 1165,
      "Ġhouse": 1166,
      "Ġaround": 1167,
      "ĠAt": 1168,
      "Ġchildren": 1169,
      "Ġvar": 1170,
      "na": 1171,
      "Ġgive": 1172,
      "Ġval": 1173,
      "Ġsince": 1174,
      "ages": 1175,
      "Ġnext": 1176,
      "Ġlarge": 1177,
      "Ġwithout": 1178,
      "Ġmo": 1179,
      "ister": 1180,
      "No": 1181,
      "conom": 1182,
      "med": 1183,
      "Ġbelie": 1184,
      "ines": 1185,
      "riend": 1186,
      "Ġleg": 1187,
      "Ġfull": 1188,
      "oney": 1189,
      "ott": 1190,
      "ral": 1191,
      "ĠCl": 1192,
      "Ġclear": 1193,
      "ounc": 1194,
      "Ġunt": 1195,
      "Ġbre": 1196,
      "ample": 1197,
      "Ġpolit": 1198,
      "Ġdra": 1199,
      "ently": 1200,
      "Ġconst": 1201,
      "Ġmonth": 1202,
      "Ġsix": 1203,
      "ci": 1204,
      "Ġfr": 1205,
      "ically": 1206,
      "uthor": 1207,
      "Ġsk": 1208,
      "Ġsupport": 1209,
      "ird": 1210,
      "ER": 1211,
      "ĠOn": 1212,
      "Ġnight": 1213,
      "Ġopp": 1214,
      "Ġel": 1215,
      "ĠFr": 1216,
      "Ġbook": 1217,
      "Ġey": 1218,
      "Ġpass": 1219,
      "ature": 1220,
      "ining": 1221,
      "Ġrather": 1222,
      "Ġimportant": 1223,
      "Ġread": 1224,
      "ĠEuro": 1225,
      "Ġhard": 1226,
      "Ġfive": 1227,
      "Ġmarket": 1228,
      "Ġthings": 1229,
      "Ġorgan": 1230,
      "Ġcost": 1231,
      "Ġpur": 1232,
      "Ġmeet": 1233,
      "Ġthough": 1234,
      "ajor": 1235,
      "Ġplan": 1236,
      "orth": 1237,
      "Ġdirect": 1238,
      "Ġsocial": 1239,
      "urther": 1240,
      "Ġsays": 1241,
      "Ġmen": 1242,
      "Ġgiven": 1243,
      "vious": 1244,
      "Ġequ": 1245,
      "Ġpay": 1246,
      "ruct": 1247,
      "ately": 1248,
      "',": 1249,
      "Ġtalk": 1250,
      "ĠThat": 1251,
      "Ġprof": 1252,
      "Ġpower": 1253,
      "Ġpresent": 1254,
      "cl": 1255,
      "chn": 1256,
      "Ġvis": 1257,
      "Ġcertain": 1258,
      "ither": 1259,
      "]'": 1260,
      "ĠNo": 1261,
      "ham": 1262,
      "ple": 1263,
      "Ġquite": 1264,
      "Ġlevel": 1265,
      "Ġpolic": 1266,
      "ours": 1267,
      "ĠEurope": 1268,
      "alth": 1269,
      "Ġbusiness": 1270,
      "ĠSe": 1271,
      "Ġpar": 1272,
      "Ġview": 1273,
      "ug": 1274,
      "Ġtook": 1275,
      "Ġtell": 1276,
      "Ġuntil": 1277,
      "Ġinvol": 1278,
      "ĠDe": 1279,
      "ccess": 1280,
      "Ġyes": 1281,
      "Ġtry": 1282,
      "Ġyoung": 1283,
      "arent": 1284,
      "ier": 1285,
      "aim": 1286,
      "ash": 1287,
      "ched": 1288,
      "az": 1289,
      "Ġduring": 1290,
      "Ġseen": 1291,
      "ged": 1292,
      "Ġca": 1293,
      "Ġpract": 1294,
      "Ġwater": 1295,
      "Ġele": 1296,
      "Ġlater": 1297,
      "Ġeconom": 1298,
      "ense": 1299,
      "Ġmoney": 1300,
      "Ġopen": 1301,
      "ries": 1302,
      "Ġsit": 1303,
      "ember": 1304,
      "icult": 1305,
      "Ġhalf": 1306,
      "ases": 1307,
      "Ġlo": 1308,
      "Ġclass": 1309,
      "Ġoften": 1310,
      "Ġland": 1311,
      "iety": 1312,
      "oint": 1313,
      "Ġstat": 1314,
      "irc": 1315,
      "Ġauthor": 1316,
      "Ġtold": 1317,
      "Ġexpect": 1318,
      "Ġty": 1319,
      "Ġchang": 1320,
      "Ġexample": 1321,
      "ĠNew": 1322,
      "Ġinformation": 1323,
      "Ġmove": 1324,
      "Ġaff": 1325,
      "ivid": 1326,
      "ondon": 1327,
      "Ġcommun": 1328,
      "Ġoper": 1329,
      "ĠWhat": 1330,
      "Ġallow": 1331,
      "ĠBritish": 1332,
      "Ġcompany": 1333,
      "side": 1334,
      "ouncil": 1335,
      "Ġsw": 1336,
      "Ġbest": 1337,
      "Ġprocess": 1338,
      "Ġcr": 1339,
      "Ġiss": 1340,
      "ĠChrist": 1341,
      "Ġconsider": 1342,
      "ional": 1343,
      "stand": 1344,
      "Ġcap": 1345,
      "ggest": 1346,
      "Ġside": 1347,
      "Well": 1348,
      "ĠLondon": 1349,
      "Ġtaken": 1350,
      "Ġdifficult": 1351,
      "Ġwomen": 1352,
      "Ġround": 1353,
      "ĠWhen": 1354,
      "Ġdone": 1355,
      "Ġsuggest": 1356,
      "ived": 1357,
      "by": 1358,
      "Ġbas": 1359,
      "ĠSh": 1360,
      "Ġbetter": 1361,
      "haps": 1362,
      "Ġkeep": 1363,
      "ready": 1364,
      "Ġeas": 1365,
      "rew": 1366,
      "io": 1367,
      "Ġrecord": 1368,
      "Ġthing": 1369,
      "Ġdesc": 1370,
      "idence": 1371,
      "Ġpossible": 1372,
      "ards": 1373,
      "Ġremain": 1374,
      "Ġmar": 1375,
      "Ġdri": 1376,
      "Ġorder": 1377,
      "Ġcountry": 1378,
      "pri": 1379,
      "ering": 1380,
      "Ġart": 1381,
      "Ġmajor": 1382,
      "Ġchar": 1383,
      "Ġsuccess": 1384,
      "omp": 1385,
      "ended": 1386,
      "Ġfurther": 1387,
      "most": 1388,
      "ope": 1389,
      "Ġface": 1390,
      "Ġindust": 1391,
      "Ġroom": 1392,
      "Ġbuild": 1393,
      "Ġemploy": 1394,
      "Ġgra": 1395,
      "Ġlight": 1396,
      "ances": 1397,
      "ery": 1398,
      "used": 1399,
      "elt": 1400,
      "uck": 1401,
      "ames": 1402,
      "Ġbit": 1403,
      "Ġalready": 1404,
      "be": 1405,
      "iron": 1406,
      "Ġhowever": 1407,
      "ĠAll": 1408,
      "ane": 1409,
      "Ġmill": 1410,
      "Ġlooked": 1411,
      "Ġwhether": 1412,
      "Ġcalled": 1413,
      "Ġreturn": 1414,
      "ology": 1415,
      "Ġnear": 1416,
      "aff": 1417,
      "ĠMar": 1418,
      "Ġearly": 1419,
      "Yes": 1420,
      "Ġfore": 1421,
      "idd": 1422,
      "Ġlot": 1423,
      "Ġsort": 1424,
      "Ġlaw": 1425,
      "ĠPro": 1426,
      "ned": 1427,
      "Ġwhy": 1428,
      "Ġdays": 1429,
      "Ġjob": 1430,
      "empt": 1431,
      "Ġadm": 1432,
      "atch": 1433,
      "ising": 1434,
      "ued": 1435,
      "son": 1436,
      "ales": 1437,
      "ĠMin": 1438,
      "Ġfamily": 1439,
      "inc": 1440,
      "Ġmor": 1441,
      "Ġinvest": 1442,
      "Ġgeneral": 1443,
      "ON": 1444,
      "Ġarea": 1445,
      "ency": 1446,
      "ĠRo": 1447,
      "Ġcontrol": 1448,
      "Ġoffic": 1449,
      "Ġmembers": 1450,
      "Ġasked": 1451,
      "Ġmed": 1452,
      "Ġaccount": 1453,
      "Ġenough": 1454,
      "iod": 1455,
      "Ġtop": 1456,
      "ets": 1457,
      "Ġbig": 1458,
      "Ġclaim": 1459,
      "Ġkind": 1460,
      "Ġwhole": 1461,
      "Ġprogram": 1462,
      "meric": 1463,
      "ĠCar": 1464,
      "Ġchange": 1465,
      "Ġprom": 1466,
      "Ġshort": 1467,
      "ality": 1468,
      "ides": 1469,
      "Ġleast": 1470,
      "Ġpress": 1471,
      "ES": 1472,
      "ivers": 1473,
      "What": 1474,
      "Ġhaving": 1475,
      "Ġfriend": 1476,
      "Ġquestion": 1477,
      "IN": 1478,
      "Ġhum": 1479,
      "Ġcond": 1480,
      "Ġtechn": 1481,
      "Ġfun": 1482,
      "Ġben": 1483,
      "Ġpast": 1484,
      "Ġable": 1485,
      "rent": 1486,
      "Ġdeal": 1487,
      "Ġprob": 1488,
      "Ġmind": 1489,
      "Ġbecome": 1490,
      "Ġpop": 1491,
      "Ġtre": 1492,
      "orn": 1493,
      "Ġonce": 1494,
      "par": 1495,
      "oot": 1496,
      "ĠOne": 1497,
      "ĠBe": 1498,
      "irl": 1499,
      "Ġsol": 1500,
      "aid": 1501,
      "Ġagre": 1502,
      "Ġann": 1503,
      "une": 1504,
      "Ġsubject": 1505,
      "atic": 1506,
      "br": 1507,
      "Ġperiod": 1508,
      "Ġproblem": 1509,
      "vent": 1510,
      "Ġconcern": 1511,
      "ĠAmeric": 1512,
      "gether": 1513,
      "Ġtogether": 1514,
      "Ġstre": 1515,
      "Ġgrow": 1516,
      "ĠInd": 1517,
      "ured": 1518,
      "Ġrece": 1519,
      "ĠNone": 1520,
      "Ġdesign": 1521,
      "ified": 1522,
      "Ġhist": 1523,
      "Ġhimself": 1524,
      "Ġspecial": 1525,
      "Ġreason": 1526,
      "erg": 1527,
      "ying": 1528,
      "Ġprop": 1529,
      "Ġworking": 1530,
      "Ġavail": 1531,
      "reen": 1532,
      "ee": 1533,
      "not": 1534,
      "Ġalmost": 1535,
      "dd": 1536,
      "Ġrese": 1537,
      "Ġindivid": 1538,
      "ny": 1539,
      "Ġstate": 1540,
      "Ġcre": 1541,
      "ission": 1542,
      "selves": 1543,
      "Ġlist": 1544,
      "Ġsing": 1545,
      "Ġmil": 1546,
      "Ġrelations": 1547,
      "rodu": 1548,
      "por": 1549,
      "abour": 1550,
      "ĠQ": 1551,
      "Ġdevelopment": 1552,
      "Ġnothing": 1553,
      "Ġple": 1554,
      "Ġredu": 1555,
      "Ġpolitical": 1556,
      "oci": 1557,
      "Ġdou": 1558,
      "ats": 1559,
      "Ġposition": 1560,
      "erence": 1561,
      "Ġeight": 1562,
      "ulation": 1563,
      "AN": 1564,
      "Ġten": 1565,
      "resent": 1566,
      "Ġes": 1567,
      "Ġwind": 1568,
      "ination": 1569,
      "Ġarg": 1570,
      "Ġeduc": 1571,
      "ĠPr": 1572,
      "ĠUS": 1573,
      "Ġeyes": 1574,
      "app": 1575,
      "osp": 1576,
      "Ġdoing": 1577,
      "Ġever": 1578,
      "ized": 1579,
      "Ġsure": 1580,
      "Ġindividual": 1581,
      "raph": 1582,
      "ctor": 1583,
      "ĠHis": 1584,
      "Ġproper": 1585,
      "Ġaccept": 1586,
      "Ġrev": 1587,
      "ament": 1588,
      "ĠHowever": 1589,
      "ĠVoice": 1590,
      "aper": 1591,
      "ford": 1592,
      "ĠIs": 1593,
      "erc": 1594,
      "ration": 1595,
      "ware": 1596,
      "And": 1597,
      "Ġpain": 1598,
      "to": 1599,
      "ĠCon": 1600,
      "Ġwalk": 1601,
      "ony": 1602,
      "Ġname": 1603,
      "Ġheld": 1604,
      "ĠTo": 1605,
      "Ġtowards": 1606,
      "akes": 1607,
      "Ġwon": 1608,
      "Ġfac": 1609,
      "Ġparty": 1610,
      "Ġelect": 1611,
      "ars": 1612,
      "Ġavailable": 1613,
      "Ġproblems": 1614,
      "ize": 1615,
      "Ġanything": 1616,
      "Ġwa": 1617,
      "Ġcut": 1618,
      "Ġmeans": 1619,
      "Ġlove": 1620,
      "Ġterms": 1621,
      "ps": 1622,
      "ully": 1623,
      "Ġnecess": 1624,
      "Ġ'[": 1625,
      "Ġfelt": 1626,
      "Ġappear": 1627,
      "Ġri": 1628,
      "Ġdoor": 1629,
      "Ġalthough": 1630,
      "ape": 1631,
      "Ġwin": 1632,
      "Ġclose": 1633,
      "Ġactiv": 1634,
      "ilar": 1635,
      "Ġunderstand": 1636,
      "itions": 1637,
      "sp": 1638,
      "Ġeither": 1639,
      "Ġhold": 1640,
      "Ġmom": 1641,
      "Ġmaking": 1642,
      "Ġalong": 1643,
      "Ġmother": 1644,
      "Ġtax": 1645,
      "Mm": 1646,
      "Ġcirc": 1647,
      "ĠGo": 1648,
      "Ġtri": 1649,
      "ption": 1650,
      "Ġ>": 1651,
      "enty": 1652,
      "Ġsaw": 1653,
      "work": 1654,
      "ĠDav": 1655,
      "ogn": 1656,
      "Ġyet": 1657,
      "Ġsent": 1658,
      "Ġpriv": 1659,
      "Ġtrad": 1660,
      "Ġlim": 1661,
      "itive": 1662,
      "Ġtimes": 1663,
      "ending": 1664,
      "Ġlear": 1665,
      "Ġothers": 1666,
      "ex": 1667,
      "ert": 1668,
      "rown": 1669,
      "lf": 1670,
      "Ġinfl": 1671,
      "ĠThese": 1672,
      "Ġsat": 1673,
      "We": 1674,
      "Ġsum": 1675,
      "Ġsuff": 1676,
      "Ġdiscuss": 1677,
      "tle": 1678,
      "over": 1679,
      "Ġmillion": 1680,
      "iled": 1681,
      "Ġpolicy": 1682,
      "Ġservice": 1683,
      "utes": 1684,
      "Ġelse": 1685,
      "Ġbed": 1686,
      "unt": 1687,
      "Ġknown": 1688,
      "Ġste": 1689,
      "Ġpost": 1690,
      "Ġmus": 1691,
      "ster": 1692,
      "ron": 1693,
      "iting": 1694,
      "iving": 1695,
      "val": 1696,
      "ĠSp": 1697,
      "sw": 1698,
      "urch": 1699,
      "ressed": 1700,
      "ential": 1701,
      "ĠTH": 1702,
      "Ġprobably": 1703,
      "ĠBritain": 1704,
      "Ġbody": 1705,
      "ĠSte": 1706,
      "Ġdi": 1707,
      "ories": 1708,
      "ients": 1709,
      "Ġmonths": 1710,
      "Ġcrit": 1711,
      "viron": 1712,
      "ĠGe": 1713,
      "Ġrespons": 1714,
      "Ġactually": 1715,
      "ians": 1716,
      "aring": 1717,
      "chie": 1718,
      "see": 1719,
      "Ġori": 1720,
      "Ġexist": 1721,
      "Ġtot": 1722,
      "use": 1723,
      "Ġtest": 1724,
      "ĠEnglish": 1725,
      "AT": 1726,
      "Ġfree": 1727,
      "Ġfollowing": 1728,
      "ah": 1729,
      "lished": 1730,
      "Ġknew": 1731,
      "Ġrepresent": 1732,
      "ences": 1733,
      "que": 1734,
      "aster": 1735,
      "Ġfig": 1736,
      "itted": 1737,
      "ĠGerm": 1738,
      "OR": 1739,
      "Ġperform": 1740,
      "ortun": 1741,
      "ĠSec": 1742,
      "Ġblack": 1743,
      "Ġline": 1744,
      "Ġlooking": 1745,
      "aul": 1746,
      "ained": 1747,
      "augh": 1748,
      "ĠBar": 1749,
      "angu": 1750,
      "].": 1751,
      "eed": 1752,
      "Ġnational": 1753,
      "ability": 1754,
      "Ġproduct": 1755,
      "ĠEd": 1756,
      "That": 1757,
      "Ġacross": 1758,
      "Ġgirl": 1759,
      "Ġperhaps": 1760,
      "Ġstrong": 1761,
      "Ġfut": 1762,
      "mb": 1763,
      "eng": 1764,
      "my": 1765,
      "acher": 1766,
      "Ġanal": 1767,
      "ibility": 1768,
      "itte": 1769,
      "Ġestab": 1770,
      "AR": 1771,
      "Ġwords": 1772,
      "Ġbegin": 1773,
      "fer": 1774,
      "uation": 1775,
      "Ġitself": 1776,
      "lev": 1777,
      "Ġamong": 1778,
      "Ġexam": 1779,
      "ison": 1780,
      "Ġthemselves": 1781,
      "Ġdescrib": 1782,
      "undred": 1783,
      "Ġill": 1784,
      "Ġlow": 1785,
      "Ġlikely": 1786,
      "Ġturned": 1787,
      "ingly": 1788,
      "Ġground": 1789,
      "Ġident": 1790,
      "vironment": 1791,
      "let": 1792,
      "Ġmoment": 1793,
      "yn": 1794,
      "ung": 1795,
      "Ġareas": 1796,
      "ĠNot": 1797,
      "Ġsound": 1798,
      "Ġfil": 1799,
      "els": 1800,
      "ring": 1801,
      "Ġstra": 1802,
      "Ġair": 1803,
      "ior": 1804,
      "Ġfund": 1805,
      ".\"": 1806,
      "ively": 1807,
      "Ġabove": 1808,
      "no": 1809,
      "Ġdetail": 1810,
      "inet": 1811,
      "ĠEngland": 1812,
      "ĠWith": 1813,
      "Ġupon": 1814,
      "Ġpot": 1815,
      "ĠPh": 1816,
      "oura": 1817,
      "Ġcompet": 1818,
      "ĠAd": 1819,
      "Ġfall": 1820,
      "Ġusing": 1821,
      "ĠCol": 1822,
      "ternational": 1823,
      "body": 1824,
      "ĠOr": 1825,
      "Ġteam": 1826,
      "Ġstruct": 1827,
      "EN": 1828,
      "Ġcharact": 1829,
      "Ġtru": 1830,
      "ium": 1831,
      "Ġrecogn": 1832,
      "Ġdemand": 1833,
      "Ġroad": 1834,
      "Ġabs": 1835,
      "Ġnon": 1836,
      "Ġsever": 1837,
      "Ġenc": 1838,
      "Ġseemed": 1839,
      "ĠEx": 1840,
      "Ġprovide": 1841,
      "Ġincluding": 1842,
      "Ġmater": 1843,
      "ks": 1844,
      "Ġwanted": 1845,
      "Ġdeb": 1846,
      "Ġhundred": 1847,
      "istic": 1848,
      "Ġpolice": 1849,
      "Ġmatter": 1850,
      "Ġgave": 1851,
      "ina": 1852,
      "Ġcommon": 1853,
      "Ġbecame": 1854,
      "Ġattempt": 1855,
      "sc": 1856,
      "hod": 1857,
      "Ġnorm": 1858,
      "Ġbenef": 1859,
      "Ġrepl": 1860,
      "ially": 1861,
      "ev": 1862,
      "ĠJune": 1863,
      "ata": 1864,
      "Ġfuture": 1865,
      "Ġtreat": 1866,
      "Ġorigin": 1867,
      "Ġhealth": 1868,
      "Ġstaff": 1869,
      "Ġimpro": 1870,
      "ached": 1871,
      "ĠGod": 1872,
      "eal": 1873,
      "uff": 1874,
      "Ġcolle": 1875,
      "urs": 1876,
      "ĠMay": 1877,
      "ief": 1878,
      "bert": 1879,
      "Ġtoday": 1880,
      "Ġcannot": 1881,
      "Ġsense": 1882,
      "Ġwoman": 1883,
      "Ġbehind": 1884,
      "Ġachie": 1885,
      "Ġdr": 1886,
      "ĠNow": 1887,
      "Ġage": 1888,
      "Ġfront": 1889,
      "ĠTr": 1890,
      "rought": 1891,
      "Ġdeath": 1892,
      "Ġprot": 1893,
      "ĠSome": 1894,
      "eter": 1895,
      "Ġfather": 1896,
      "ming": 1897,
      "ĠBl": 1898,
      "Ġidea": 1899,
      "Ġfre": 1900,
      "Ġant": 1901,
      "airs": 1902,
      "fully": 1903,
      "Ġresearch": 1904,
      "ĠCo": 1905,
      "Ġter": 1906,
      "He": 1907,
      "ĠDavid": 1908,
      "Ġparticularly": 1909,
      "ows": 1910,
      "Ġseveral": 1911,
      "Ġservices": 1912,
      "Ġobject": 1913,
      "where": 1914,
      "Ġstudy": 1915,
      "But": 1916,
      "isation": 1917,
      "Ġcurrent": 1918,
      "Ġjud": 1919,
      "Ġmeas": 1920,
      "Ġsimilar": 1921,
      "Ġbegan": 1922,
      "Ġboy": 1923,
      "Ġtherefore": 1924,
      "Ġexc": 1925,
      "ĠCouncil": 1926,
      "artment": 1927,
      "Ġbank": 1928,
      "Ġlangu": 1929,
      "Ġseems": 1930,
      "ograph": 1931,
      "rict": 1932,
      "oke": 1933,
      "Ġmaterial": 1934,
      "Ġbar": 1935,
      "ĠHer": 1936,
      "ĠPar": 1937,
      "].'": 1938,
      "Ġmot": 1939,
      "ilt": 1940,
      "Ġsignific": 1941,
      "Ġparent": 1942,
      "Ġexperience": 1943,
      "Ġeng": 1944,
      "hy": 1945,
      "Ġevidence": 1946,
      "ply": 1947,
      "Ġhon": 1948,
      "ening": 1949,
      "ĠLi": 1950,
      "for": 1951,
      "Ġtaking": 1952,
      "ches": 1953,
      "ĠMrs": 1954,
      "Ġplac": 1955,
      "ills": 1956,
      "ression": 1957,
      "ĠZ": 1958,
      "Ġhig": 1959,
      "ĠBy": 1960,
      "ateg": 1961,
      "Ġcomplete": 1962,
      "Ġbelieve": 1963,
      "Ġbad": 1964,
      "Ġproject": 1965,
      "lling": 1966,
      "Ġhuman": 1967,
      "ump": 1968,
      "ĠEuropean": 1969,
      "ĠWest": 1970,
      "Ġeconomic": 1971,
      "ĠChar": 1972,
      "Ġoutside": 1973,
      "ĠThen": 1974,
      "cing": 1975,
      "Ġshall": 1976,
      "Ġaction": 1977,
      "rong": 1978,
      "itional": 1979,
      "Ġvol": 1980,
      "Ġsoon": 1981,
      "ĠHar": 1982,
      "read": 1983,
      "Ġintrodu": 1984,
      "ops": 1985,
      "ĠWill": 1986,
      "Ġfield": 1987,
      "ĠMinister": 1988,
      "illed": 1989,
      "room": 1990,
      "Ġdom": 1991,
      "Ġinvolved": 1992,
      "sequ": 1993,
      "ĠAnn": 1994,
      "mber": 1995,
      "ĠTHE": 1996,
      "oor": 1997,
      "Ġneeds": 1998,
      "ession": 1999,
      "rop": 2000,
      "Ġve": 2001,
      "Ġwhite": 2002,
      "ittee": 2003,
      "ĠPart": 2004,
      "Ġcontract": 2005,
      "Ġbrought": 2006,
      "ĠPaul": 2007,
      "Ġrad": 2008,
      "Ġrange": 2009,
      "Ġlate": 2010,
      "Ġdoub": 2011,
      "Ġmeeting": 2012,
      "terday": 2013,
      "ĠEr": 2014,
      "ĠAct": 2015,
      "Ġmorning": 2016,
      "Ġeducation": 2017,
      "rench": 2018,
      "Ġago": 2019,
      "ples": 2020,
      "Th": 2021,
      "ĠRich": 2022,
      "Ġhands": 2023,
      "Ġris": 2024,
      "Ġspeak": 2025,
      "iding": 2026,
      "Ġwasn": 2027,
      "Ġneg": 2028,
      "Ġcompan": 2029,
      "of": 2030,
      "Ġmag": 2031,
      "ones": 2032,
      "ĠNorth": 2033,
      "Ġrespect": 2034,
      "ĠNational": 2035,
      "itor": 2036,
      "Ġtown": 2037,
      "ored": 2038,
      "Ġrate": 2039,
      "Ġbring": 2040,
      "pr": 2041,
      "Ġdiv": 2042,
      "ator": 2043,
      "Ġsingle": 2044,
      "ĠAfter": 2045,
      "Ġheard": 2046,
      "Ġfood": 2047,
      "Ġapplic": 2048,
      "Ġcou": 2049,
      "ĠSouth": 2050,
      "Ġquick": 2051,
      "Ġcourt": 2052,
      "epend": 2053,
      "medi": 2054,
      "Ġcoming": 2055,
      "Ġevent": 2056,
      "Ġgroups": 2057,
      "Ġwhose": 2058,
      "Ġcentury": 2059,
      "cially": 2060,
      "Ġsil": 2061,
      "ĠMan": 2062,
      "ceed": 2063,
      "ological": 2064,
      "Ġsuper": 2065,
      "Ġthird": 2066,
      "Ġgetting": 2067,
      "Ġhot": 2068,
      "Ġwond": 2069,
      "ote": 2070,
      "Ġleave": 2071,
      "Ġcult": 2072,
      "Ġself": 2073,
      "head": 2074,
      "ots": 2075,
      "Ġcharacter": 2076,
      "Ġteacher": 2077,
      "ĠTe": 2078,
      "itting": 2079,
      "omes": 2080,
      "Ġansw": 2081,
      "ene": 2082,
      "idge": 2083,
      "Ġmethod": 2084,
      "inal": 2085,
      "Ġdraw": 2086,
      "AL": 2087,
      "Ġbreak": 2088,
      "Ġrelationship": 2089,
      "pping": 2090,
      "ush": 2091,
      "ument": 2092,
      "shire": 2093,
      "Ġstay": 2094,
      "ler": 2095,
      "lier": 2096,
      "ains": 2097,
      "Ġred": 2098,
      "lled": 2099,
      "uter": 2100,
      "Ġ$": 2101,
      "Ġsche": 2102,
      "Ġlost": 2103,
      "ners": 2104,
      "ilities": 2105,
      "Ġwide": 2106,
      "Ġchanges": 2107,
      "Ġhours": 2108,
      "ĠJan": 2109,
      "Ġprevious": 2110,
      "Ġyesterday": 2111,
      "Ġord": 2112,
      "Ġtraining": 2113,
      "overed": 2114,
      "Ġdel": 2115,
      "Ġdecision": 2116,
      "Ġfif": 2117,
      "Ġdev": 2118,
      "Ġsex": 2119,
      "Ġbra": 2120,
      "Ġhous": 2121,
      "Ġdam": 2122,
      "Ġtwenty": 2123,
      "Ġcases": 2124,
      "Ġgone": 2125,
      "Ġrole": 2126,
      "Ġbased": 2127,
      "Ġmanagement": 2128,
      "aving": 2129,
      "iversity": 2130,
      "eg": 2131,
      "Ġstri": 2132,
      "ead": 2133,
      "Ġsaying": 2134,
      "Ġobs": 2135,
      "Ġconv": 2136,
      "Ġyeah": 2137,
      "Ġnecessary": 2138,
      "Ġamount": 2139,
      "IC": 2140,
      "Ġapproach": 2141,
      "ole": 2142,
      "Ġvalue": 2143,
      "Ġenvironment": 2144,
      "ĠDo": 2145,
      "arm": 2146,
      "Ġdeterm": 2147,
      "ĠUnited": 2148,
      "ĠSoc": 2149,
      "ĠPl": 2150,
      "Ġindic": 2151,
      "pecially": 2152,
      "ream": 2153,
      "Ġserious": 2154,
      "iter": 2155,
      "ĠUK": 2156,
      "Ġinit": 2157,
      "ils": 2158,
      "Ġformer": 2159,
      "Ġremember": 2160,
      "ustom": 2161,
      "Ġtrying": 2162,
      "like": 2163,
      "Ġminutes": 2164,
      "Ġunc": 2165,
      "ĠFrench": 2166,
      "Ġusually": 2167,
      "Ġjo": 2168,
      "Ġnat": 2169,
      "ises": 2170,
      "ĠGl": 2171,
      "Ġlanguage": 2172,
      "Ġdark": 2173,
      "ension": 2174,
      "Ġcamp": 2175,
      "Ġinflu": 2176,
      "Ġwall": 2177,
      "Ġshare": 2178,
      "ĠLord": 2179,
      "Ġassoci": 2180,
      "Ġcapital": 2181,
      "ĠGovernment": 2182,
      "Ġhor": 2183,
      "eb": 2184,
      "aret": 2185,
      "ges": 2186,
      "Ġattack": 2187,
      "Ġindustry": 2188,
      "ules": 2189,
      "ĠCor": 2190,
      "retary": 2191,
      "sy": 2192,
      "Ġfav": 2193,
      "fact": 2194,
      "Ġarri": 2195,
      "rang": 2196,
      "ected": 2197,
      "eth": 2198,
      "Ġobvious": 2199,
      "ĠMc": 2200,
      "rey": 2201,
      "ĠMark": 2202,
      "IS": 2203,
      "ization": 2204,
      "hel": 2205,
      "ources": 2206,
      "Ġspecific": 2207,
      "Ġsqu": 2208,
      "hern": 2209,
      "Ġblood": 2210,
      "Ġfoot": 2211,
      "ĠLabour": 2212,
      "Ġtem": 2213,
      "Ġcal": 2214,
      "Ġsaf": 2215,
      "Ġcompl": 2216,
      "Ġtyp": 2217,
      "set": 2218,
      "Ġbuilding": 2219,
      "icient": 2220,
      "ledge": 2221,
      "Ġlive": 2222,
      "itud": 2223,
      "Ġpersonal": 2224,
      "iddle": 2225,
      "Ġsimply": 2226,
      "Ġhope": 2227,
      "Ġcentre": 2228,
      "olution": 2229,
      "Ġprogramme": 2230,
      "Ġincrease": 2231,
      "Ġsoft": 2232,
      "ĠGra": 2233,
      "Ġstarted": 2234,
      "ald": 2235,
      "leg": 2236,
      "Ġwrong": 2237,
      "Ġcover": 2238,
      "Ġlay": 2239,
      "Ġprice": 2240,
      "Ġoffice": 2241,
      "Ġpound": 2242,
      "Ġregard": 2243,
      "ancial": 2244,
      "off": 2245,
      "Ġlonger": 2246,
      "Ġbuy": 2247,
      "irt": 2248,
      "Ġpaper": 2249,
      "Ġpack": 2250,
      "Ġhistory": 2251,
      "joy": 2252,
      "Ġtrade": 2253,
      "Ġcompanies": 2254,
      "uty": 2255,
      "Ġprivate": 2256,
      "Ġpict": 2257,
      "Ġdoesn": 2258,
      "bed": 2259,
      "Ġtotal": 2260,
      "bo": 2261,
      "Ġseven": 2262,
      "ĠHouse": 2263,
      "stit": 2264,
      "Ġexpected": 2265,
      "part": 2266,
      "ney": 2267,
      "hold": 2268,
      "Ġprovided": 2269,
      "Ġmakes": 2270,
      "Ġaut": 2271,
      "ements": 2272,
      "Ġlat": 2273,
      "Ġmach": 2274,
      "Ġpatients": 2275,
      "ean": 2276,
      "inary": 2277,
      "Ġcountries": 2278,
      "Ġrequired": 2279,
      "Ġanalys": 2280,
      "Ġwife": 2281,
      "ĠWor": 2282,
      "Ġdecl": 2283,
      "Ġheart": 2284,
      "Ġsepar": 2285,
      "wh": 2286,
      "Ġtrue": 2287,
      "Ġpick": 2288,
      "Ġfell": 2289,
      "ĠAmerican": 2290,
      "Ġfair": 2291,
      "Ġvisit": 2292,
      "ĠComp": 2293,
      "inist": 2294,
      "ording": 2295,
      "Ġcommunity": 2296,
      "Ġess": 2297,
      "ĠEn": 2298,
      "cent": 2299,
      "ends": 2300,
      "ili": 2301,
      "Ġespecially": 2302,
      "Ġvoice": 2303,
      "ger": 2304,
      "Ã©": 2305,
      "rad": 2306,
      "Ġoffer": 2307,
      "usion": 2308,
      "Ġisn": 2309,
      "ospital": 2310,
      "Ġconcerned": 2311,
      "Ġsomeone": 2312,
      "Ġnature": 2313,
      "ov": 2314,
      "urity": 2315,
      "Ġneeded": 2316,
      "Ġfirm": 2317,
      "Ġpractice": 2318,
      "Ġassum": 2319,
      "Ġhy": 2320,
      "Ġissue": 2321,
      "Ġdata": 2322,
      "Ġrequire": 2323,
      "Ġherself": 2324,
      "af": 2325,
      "Ġpurp": 2326,
      "ift": 2327,
      "Ġtable": 2328,
      "Ġenjoy": 2329,
      "Ġopportun": 2330,
      "ify": 2331,
      "Ġfire": 2332,
      "ĠKing": 2333,
      "vert": 2334,
      "ousand": 2335,
      "ĠAm": 2336,
      "Ġpie": 2337,
      "Ġsituation": 2338,
      "Ġsignificant": 2339,
      "ann": 2340,
      "Ġled": 2341,
      "Ġeverything": 2342,
      "Ġimmedi": 2343,
      "Ġsens": 2344,
      "Ġcomb": 2345,
      "Ġur": 2346,
      "Ġcouldn": 2347,
      "Ġsociety": 2348,
      "oid": 2349,
      "Ġstage": 2350,
      "Ġcross": 2351,
      "unch": 2352,
      "yle": 2353,
      "Ġsn": 2354,
      "Ġanim": 2355,
      "Ġcomes": 2356,
      "ule": 2357,
      "IT": 2358,
      "Ġfinal": 2359,
      "vey": 2360,
      "Ġbri": 2361,
      "reet": 2362,
      "Ġsometimes": 2363,
      "Ġexcept": 2364,
      "Ġtype": 2365,
      "Ġcertainly": 2366,
      "Ġstep": 2367,
      "Ġauthority": 2368,
      "Ġhop": 2369,
      "Ġvill": 2370,
      "ification": 2371,
      "Ġcontrib": 2372,
      "ĠPol": 2373,
      "ael": 2374,
      "ensive": 2375,
      "Ġhigher": 2376,
      "Ġphys": 2377,
      "Ġearlier": 2378,
      "Ġnet": 2379,
      "Ġwouldn": 2380,
      "orrow": 2381,
      "ĠEm": 2382,
      "Ġlink": 2383,
      "],": 2384,
      "Ġdeep": 2385,
      "year": 2386,
      "Ġcarry": 2387,
      "Ġens": 2388,
      "bs": 2389,
      "Ġchair": 2390,
      "Ġliving": 2391,
      "ĠAlthough": 2392,
      "Ġinclude": 2393,
      "rial": 2394,
      "men": 2395,
      "ĠMy": 2396,
      "Ġparents": 2397,
      "avi": 2398,
      "Ġmusic": 2399,
      "ĠPer": 2400,
      "Ġthousand": 2401,
      "Ġcell": 2402,
      "Ġworth": 2403,
      "Ġdecided": 2404,
      "ĠRichard": 2405,
      "So": 2406,
      "Ġpaid": 2407,
      "Ġcentral": 2408,
      "Ġquality": 2409,
      "Ġtrou": 2410,
      "ĠOff": 2411,
      "Ġdisp": 2412,
      "aching": 2413,
      "rated": 2414,
      "Ġvarious": 2415,
      "mes": 2416,
      "anger": 2417,
      "wo": 2418,
      "Ġaim": 2419,
      "Ġloss": 2420,
      "ĠMarg": 2421,
      "ĠSim": 2422,
      "utions": 2423,
      "onna": 2424,
      "Ġweeks": 2425,
      "EC": 2426,
      "Ġforward": 2427,
      "Ġwatch": 2428,
      "Ġextra": 2429,
      "ĠDep": 2430,
      "ien": 2431,
      "Ġproduction": 2432,
      "ĠGu": 2433,
      "lex": 2434,
      "hib": 2435,
      "pril": 2436,
      "oyal": 2437,
      "Ġpattern": 2438,
      "Ġconditions": 2439,
      "Ġdue": 2440,
      "spect": 2441,
      "Ġcosts": 2442,
      "enth": 2443,
      "eared": 2444,
      "Ġpred": 2445,
      "Ġoccas": 2446,
      "Ġshown": 2447,
      "asing": 2448,
      "uted": 2449,
      "atives": 2450,
      "Ġadded": 2451,
      "Ġhair": 2452,
      "ĠPat": 2453,
      "ze": 2454,
      "Ġsle": 2455,
      "Ġrecent": 2456,
      "Ġheav": 2457,
      "ĠGeor": 2458,
      "Ġbat": 2459,
      "cher": 2460,
      "Ġinterv": 2461,
      "Ġsection": 2462,
      "ĠCent": 2463,
      "iam": 2464,
      "isions": 2465,
      "ĠMarch": 2466,
      "Ġcat": 2467,
      "Ġways": 2468,
      "action": 2469,
      "ĠAg": 2470,
      "incip": 2471,
      "ĠCour": 2472,
      "yl": 2473,
      "Ġdeg": 2474,
      "Ġdescribed": 2475,
      "Ġbur": 2476,
      "ĠPeter": 2477,
      "Ġencoura": 2478,
      "ext": 2479,
      "liament": 2480,
      "Ġbal": 2481,
      "ĠOct": 2482,
      "ĠPres": 2483,
      "ĠMart": 2484,
      "Ġcustom": 2485,
      "Ġclub": 2486,
      "ĠYork": 2487,
      "anced": 2488,
      "reg": 2489,
      "ĠApril": 2490,
      "Ġforce": 2491,
      "come": 2492,
      "ask": 2493,
      "pite": 2494,
      "Ġfollowed": 2495,
      "ĠWell": 2496,
      "rely": 2497,
      "Ġannoun": 2498,
      "Ġgoes": 2499,
      "Ġbasis": 2500,
      "itch": 2501,
      "Ġmiss": 2502,
      "Ġsystems": 2503,
      "Ġknowledge": 2504,
      "Ġofficial": 2505,
      "Ġgame": 2506,
      "Ġresults": 2507,
      "ival": 2508,
      "Ġtou": 2509,
      "ators": 2510,
      "Ġsal": 2511,
      "Ġprep": 2512,
      "irty": 2513,
      "Ġinternational": 2514,
      "Ġfinancial": 2515,
      "Ġtried": 2516,
      "AS": 2517,
      "onst": 2518,
      "ik": 2519,
      "Ġslow": 2520,
      "ĠCons": 2521,
      "Ġagreed": 2522,
      "ĠPe": 2523,
      "Ġeasy": 2524,
      "itary": 2525,
      "Ġmid": 2526,
      "Ġpen": 2527,
      "Ġprim": 2528,
      "Ġcra": 2529,
      "osing": 2530,
      "ague": 2531,
      "Ġfish": 2532,
      "apter": 2533,
      "oe": 2534,
      "Ġindepend": 2535,
      "Ġanswer": 2536,
      "aught": 2537,
      "Ġthreat": 2538,
      "Ġcouncil": 2539,
      "ING": 2540,
      "reme": 2541,
      "lected": 2542,
      "Ġdoubt": 2543,
      "Ġ&": 2544,
      "ĠEven": 2545,
      "Ġschools": 2546,
      "Ġet": 2547,
      "ĠScot": 2548,
      "idered": 2549,
      "iment": 2550,
      "rian": 2551,
      "ror": 2552,
      "Ġmass": 2553,
      "Ġmember": 2554,
      "Ġpoints": 2555,
      "Ġmoved": 2556,
      "Ġinj": 2557,
      "Ġconstit": 2558,
      "Ġassess": 2559,
      "arily": 2560,
      "een": 2561,
      "aviour": 2562,
      "Ġfail": 2563,
      "aries": 2564,
      "ĠCan": 2565,
      "ares": 2566,
      "Ġaware": 2567,
      "Ġpoor": 2568,
      "ĠEast": 2569,
      "Ġgreater": 2570,
      "Ġkey": 2571,
      "Ġcos": 2572,
      "ips": 2573,
      "Ġbott": 2574,
      "iday": 2575,
      "Ġla": 2576,
      "Ġpull": 2577,
      "Ġhear": 2578,
      "ĠWorld": 2579,
      "Ġdead": 2580,
      "cer": 2581,
      "bit": 2582,
      "ĠRes": 2583,
      "Ġmis": 2584,
      "Ġarrang": 2585,
      "Ġemb": 2586,
      "uly": 2587,
      "Ġstop": 2588,
      "Ġoccur": 2589,
      "tained": 2590,
      "Ġsold": 2591,
      "Ġkept": 2592,
      "ĠAf": 2593,
      "ĠFrom": 2594,
      "Ġmodern": 2595,
      "Ġappoint": 2596,
      "Ġcity": 2597,
      "iol": 2598,
      "irst": 2599,
      "Ġworkers": 2600,
      "dden": 2601,
      "ĠCommun": 2602,
      "band": 2603,
      "ĠSept": 2604,
      "ĠSw": 2605,
      "ĠDr": 2606,
      "Ġninet": 2607,
      "Ġquestions": 2608,
      "Ġdied": 2609,
      "Ġcarried": 2610,
      "Ġund": 2611,
      "Ġhol": 2612,
      "ĠScott": 2613,
      "ĠSu": 2614,
      "Ġlarg": 2615,
      "Ġdrink": 2616,
      "Ġconcent": 2617,
      "itable": 2618,
      "Ġseries": 2619,
      "Ġeffort": 2620,
      "Ġcop": 2621,
      "owers": 2622,
      "Ġce": 2623,
      "Ġprincip": 2624,
      "ivil": 2625,
      "Ġrelative": 2626,
      "Ġgard": 2627,
      "Ġnatural": 2628,
      "Ġstructure": 2629,
      "ĠParty": 2630,
      "rest": 2631,
      "ĠSm": 2632,
      "Ġconsidered": 2633,
      "Ġfeet": 2634,
      "Ġreported": 2635,
      "acy": 2636,
      "Ġsimple": 2637,
      "Ġstudents": 2638,
      "Ġsudden": 2639,
      "Ġattention": 2640,
      "rect": 2641,
      "ĠAb": 2642,
      "Ġsun": 2643,
      "ox": 2644,
      "Ġalone": 2645,
      "Ġimag": 2646,
      "ables": 2647,
      "Ġimpl": 2648,
      "Ġfear": 2649,
      "che": 2650,
      "oph": 2651,
      "oming": 2652,
      "Ġchance": 2653,
      "Ġhappened": 2654,
      "Ġcontact": 2655,
      "aughter": 2656,
      "lying": 2657,
      "ĠJames": 2658,
      "...'": 2659,
      "Ġwritten": 2660,
      "Ġprec": 2661,
      "ublic": 2662,
      "atory": 2663,
      "Ġbehaviour": 2664,
      "Ġrunning": 2665,
      "ruction": 2666,
      "Ġappropri": 2667,
      "Ġclearly": 2668,
      "Ġprofess": 2669,
      "ĠJack": 2670,
      "ĠWar": 2671,
      "Ġrisk": 2672,
      "teen": 2673,
      "Ġtext": 2674,
      "Ġstory": 2675,
      "Ġreceived": 2676,
      "Ġtend": 2677,
      "ĠSir": 2678,
      "Ġbea": 2679,
      "ique": 2680,
      "UR": 2681,
      "Ġnine": 2682,
      "lear": 2683,
      "ĠFl": 2684,
      "Ġwish": 2685,
      "ese": 2686,
      "Ġgen": 2687,
      "rate": 2688,
      "Ġvers": 2689,
      "ĠMargaret": 2690,
      "ĠBr": 2691,
      "well": 2692,
      "Ġson": 2693,
      "Ġphot": 2694,
      "Ġinvestig": 2695,
      "ike": 2696,
      "enn": 2697,
      "Ġbuilt": 2698,
      "Ġvict": 2699,
      "Ġlack": 2700,
      "ternal": 2701,
      "Ġletter": 2702,
      "pper": 2703,
      "Ġworks": 2704,
      "ĠAss": 2705,
      "Ġcolour": 2706,
      "aign": 2707,
      "There": 2708,
      "Ġaud": 2709,
      "Ġswe": 2710,
      "Ġbelow": 2711,
      "Ġcause": 2712,
      "Ġarm": 2713,
      "atever": 2714,
      "Ġaccess": 2715,
      "Ġfriends": 2716,
      "apan": 2717,
      "Ġwood": 2718,
      "oses": 2719,
      "Ġsize": 2720,
      "Ġmult": 2721,
      "bur": 2722,
      "Ġbroad": 2723,
      "ichael": 2724,
      "Ġcoll": 2725,
      "Ġport": 2726,
      "put": 2727,
      "Ġcho": 2728,
      "Ġchurch": 2729,
      "gs": 2730,
      "They": 2731,
      "Ġproduced": 2732,
      "fort": 2733,
      "add": 2734,
      "field": 2735,
      "Ġincreased": 2736,
      "Ġhaven": 2737,
      "Ġdoc": 2738,
      "Ġstraight": 2739,
      "ging": 2740,
      "Ġdro": 2741,
      "nces": 2742,
      "Ġquar": 2743,
      "ids": 2744,
      "Ġanyone": 2745,
      "ously": 2746,
      "ma": 2747,
      "Ġrefer": 2748,
      "imate": 2749,
      "Ġdest": 2750,
      "lied": 2751,
      "rs": 2752,
      "ĠFin": 2753,
      "face": 2754,
      "rap": 2755,
      "Ġconcept": 2756,
      "Ġgrowth": 2757,
      "Ġwhom": 2758,
      "ergy": 2759,
      "Ġacqu": 2760,
      "umb": 2761,
      "Ġnice": 2762,
      "ires": 2763,
      "Ġfavour": 2764,
      "ĠJapan": 2765,
      "ĠDon": 2766,
      "Ġsubst": 2767,
      "Ġspace": 2768,
      "Ġrele": 2769,
      "ĠScotland": 2770,
      "Ġhus": 2771,
      "Ġthinking": 2772,
      "aves": 2773,
      "Ġfem": 2774,
      "Ġcheck": 2775,
      "uge": 2776,
      "verse": 2777,
      "Ġfight": 2778,
      "uary": 2779,
      "Ġfine": 2780,
      "Ġallowed": 2781,
      "Ġworked": 2782,
      "Ġ#####": 2783,
      "co": 2784,
      "Ġcomplex": 2785,
      "Ġcold": 2786,
      "aged": 2787,
      "tered": 2788,
      "Ġlower": 2789,
      "Ġtalking": 2790,
      "uses": 2791,
      "sych": 2792,
      "Ġinside": 2793,
      "Ġexerc": 2794,
      "ĠBill": 2795,
      "ection": 2796,
      "Ġmanager": 2797,
      "Ġperformance": 2798,
      "Ġcomputer": 2799,
      "Ġauthorities": 2800,
      "Ġfunction": 2801,
      "Ġimprove": 2802,
      "ĠWilliam": 2803,
      "aint": 2804,
      "aur": 2805,
      "orry": 2806,
      "Ġanalysis": 2807,
      "Ġtheory": 2808,
      "lement": 2809,
      "Ġgonna": 2810,
      "Ġdisapp": 2811,
      "ĠCourt": 2812,
      "Ġengine": 2813,
      "ĠKe": 2814,
      "LE": 2815,
      "Ġcreat": 2816,
      "Ġplanning": 2817,
      "ĠMichael": 2818,
      "Ġrout": 2819,
      "Ġslight": 2820,
      "Ġstood": 2821,
      "ION": 2822,
      "Ġinstit": 2823,
      "Ġevening": 2824,
      "ĠAug": 2825,
      "Ġpopulation": 2826,
      "Ġseason": 2827,
      "asons": 2828,
      "Ġden": 2829,
      "Ġdeveloped": 2830,
      "onse": 2831,
      "Ġindeed": 2832,
      "kay": 2833,
      "Ġones": 2834,
      "Ġcontinued": 2835,
      "Ġmeant": 2836,
      "Ġparties": 2837,
      "Ġstru": 2838,
      "Ġattract": 2839,
      "ufact": 2840,
      "Ġincluded": 2841,
      "Ġvari": 2842,
      "Ġhospital": 2843,
      "Ġsurv": 2844,
      "ource": 2845,
      "Ġnews": 2846,
      "Ġcred": 2847,
      "Ġmodel": 2848,
      "Ġcircum": 2849,
      "Ġsatis": 2850,
      "Ġfeeling": 2851,
      "Ġqual": 2852,
      "Ġlegal": 2853,
      "Ġmur": 2854,
      "Ġmess": 2855,
      "ls": 2856,
      "ĠFrance": 2857,
      "apt": 2858,
      "Ġtour": 2859,
      "Ġgiving": 2860,
      "ĠNor": 2861,
      "Ġmyself": 2862,
      "Ġnormal": 2863,
      "Ġdeli": 2864,
      "oper": 2865,
      "ĠSy": 2866,
      "Ġexact": 2867,
      "ĠGeorge": 2868,
      "Ġcouple": 2869,
      "Ġobserv": 2870,
      "Ġagreement": 2871,
      "viet": 2872,
      "Ġstandard": 2873,
      "icle": 2874,
      "ĠJust": 2875,
      "Ġball": 2876,
      "iction": 2877,
      "mond": 2878,
      "oman": 2879,
      "Ġperf": 2880,
      "ĠAward": 2881,
      "Ġsto": 2882,
      ",\"": 2883,
      "ĠAfric": 2884,
      "ĠUniversity": 2885,
      "Ġproperty": 2886,
      "ĠJuly": 2887,
      "Ġreached": 2888,
      "thur": 2889,
      "go": 2890,
      "Ġdispl": 2891,
      "Ġforeign": 2892,
      "Ġbeginning": 2893,
      "Ġbooks": 2894,
      "Ġcharge": 2895,
      "Ġlevels": 2896,
      "Ġarch": 2897,
      "Ġmiddle": 2898,
      "lands": 2899,
      "eneral": 2900,
      "ees": 2901,
      "Ġglass": 2902,
      "Ġissues": 2903,
      "Ġapparent": 2904,
      "ĠSoviet": 2905,
      "ĠDor": 2906,
      "AC": 2907,
      "Ġcampaign": 2908,
      "ancy": 2909,
      "Ġmention": 2910,
      "Ġdate": 2911,
      "Ġbox": 2912,
      "Ġestablished": 2913,
      "Ġcharg": 2914,
      "Ġhusband": 2915,
      "Ġtreatment": 2916,
      "Ġresponse": 2917,
      "ocr": 2918,
      "Ġdanger": 2919,
      "Ġregular": 2920,
      "Ġfrequ": 2921,
      "Ġindustrial": 2922,
      "Ġfigure": 2923,
      "Ġquickly": 2924,
      "Ġentire": 2925,
      "Ġpressure": 2926,
      ".)": 2927,
      "Ġmovement": 2928,
      "ĠState": 2929,
      "ixed": 2930,
      "Ġreve": 2931,
      "Ġleaders": 2932,
      "lin": 2933,
      "king": 2934,
      "Er": 2935,
      "ĠOf": 2936,
      "Ġrecently": 2937,
      "ication": 2938,
      "ĠPresident": 2939,
      "Ġestablish": 2940,
      "lection": 2941,
      "Ġrights": 2942,
      "ength": 2943,
      "Ġaltern": 2944,
      "Ġproduce": 2945,
      "ray": 2946,
      "Ġreview": 2947,
      "Ġshows": 2948,
      "Ġspent": 2949,
      "Ġtakes": 2950,
      "wise": 2951,
      "Ġstock": 2952,
      "Ġfloor": 2953,
      "Ġrock": 2954,
      "Ġjour": 2955,
      "ĠIr": 2956,
      "Ġopt": 2957,
      "Ġincome": 2958,
      "EL": 2959,
      "Ġoh": 2960,
      "yond": 2961,
      "Ġgreen": 2962,
      "Ġclean": 2963,
      "line": 2964,
      "Ġcontinue": 2965,
      "oted": 2966,
      "Ġstrateg": 2967,
      "Ġimm": 2968,
      "ĠApp": 2969,
      "Ġrates": 2970,
      "ĠArthur": 2971,
      "isl": 2972,
      "Ġchoice": 2973,
      "Ġaspect": 2974,
      "Ġmanufact": 2975,
      "Ġpopular": 2976,
      "rim": 2977,
      "Ġappropriate": 2978,
      "Ġforms": 2979,
      "ken": 2980,
      "Ġassist": 2981,
      "Ġcontr": 2982,
      "Ġboard": 2983,
      "irth": 2984,
      "oes": 2985,
      "RO": 2986,
      "Ġparts": 2987,
      "Ġliter": 2988,
      "Ġpret": 2989,
      "nes": 2990,
      "ĠTra": 2991,
      "Ġpotential": 2992,
      "Ġproced": 2993,
      "ĠGerman": 2994,
      "Ġbill": 2995,
      "ĠQu": 2996,
      "Ġbab": 2997,
      "Ġconsum": 2998,
      "ĠFeb": 2999,
      "Ġprote": 3000,
      "Ġhour": 3001,
      "ĠAust": 3002,
      "cast": 3003,
      "Ġadminist": 3004,
      "time": 3005,
      "ĠStreet": 3006,
      "ĠDes": 3007,
      "xford": 3008,
      "Ġcoun": 3009,
      "Ġang": 3010,
      "Ġfeat": 3011,
      "Ġdistin": 3012,
      "Ġactivities": 3013,
      "Ġachieve": 3014,
      "ulated": 3015,
      "aining": 3016,
      "ecause": 3017,
      "She": 3018,
      "Ġactivity": 3019,
      "antly": 3020,
      "light": 3021,
      "Ġdifference": 3022,
      "Ġchanged": 3023,
      "Ġstreng": 3024,
      "Ġtit": 3025,
      "iling": 3026,
      "ĠX": 3027,
      "ĠBel": 3028,
      "ĠSecretary": 3029,
      "Ġviol": 3030,
      "Ġir": 3031,
      "ĠRuss": 3032,
      "Ġoriginal": 3033,
      "Ġbrother": 3034,
      "Ġoccup": 3035,
      "Ġwonder": 3036,
      "Ġplant": 3037,
      "Ġthroughout": 3038,
      "Ġz": 3039,
      "erry": 3040,
      "Ġinterp": 3041,
      "uing": 3042,
      "phas": 3043,
      "Ġsell": 3044,
      "Ġdefin": 3045,
      "Ġcircumst": 3046,
      "eds": 3047,
      "aced": 3048,
      "Ġplayed": 3049,
      "ses": 3050,
      "Ġdemonst": 3051,
      "Ġstudies": 3052,
      "Right": 3053,
      "ground": 3054,
      "Ġtrust": 3055,
      "ĠChris": 3056,
      "ober": 3057,
      "Ġpsych": 3058,
      "Ġaver": 3059,
      "oured": 3060,
      "Ġscheme": 3061,
      "Ġsea": 3062,
      "Ġwriting": 3063,
      "Ġfarm": 3064,
      "ĠMore": 3065,
      "Ġnumbers": 3066,
      "Ġplans": 3067,
      "imum": 3068,
      "ibly": 3069,
      "aker": 3070,
      "Ġthus": 3071,
      "Ġopened": 3072,
      "Ġexec": 3073,
      "ĠDepartment": 3074,
      "udget": 3075,
      "Ġmatch": 3076,
      "Ġsuggested": 3077,
      "att": 3078,
      "orthern": 3079,
      "rel": 3080,
      "estern": 3081,
      "Ġpropos": 3082,
      "Ġfigures": 3083,
      "het": 3084,
      "Ġleading": 3085,
      "rote": 3086,
      "itude": 3087,
      "Ġsym": 3088,
      "Ġpos": 3089,
      "icit": 3090,
      "Ġgenerally": 3091,
      "ĠItal": 3092,
      "If": 3093,
      "now": 3094,
      "Ġhur": 3095,
      "Ġflat": 3096,
      "ĠHel": 3097,
      "lo": 3098,
      "Ġappeal": 3099,
      "Ġforces": 3100,
      "ĠReg": 3101,
      "Ġlooks": 3102,
      "dom": 3103,
      "ĠOh": 3104,
      "Ġaccording": 3105,
      "Ġreasons": 3106,
      "Ġhistor": 3107,
      "Ġshop": 3108,
      "isc": 3109,
      "Ġcivil": 3110,
      "ĠAN": 3111,
      "cious": 3112,
      "riage": 3113,
      "Ġmilitary": 3114,
      "oud": 3115,
      "Ġdise": 3116,
      "Ġlab": 3117,
      "ingu": 3118,
      "ET": 3119,
      "oned": 3120,
      "Ġeffects": 3121,
      "ett": 3122,
      "Ġsales": 3123,
      "Ġenergy": 3124,
      "Ġlabour": 3125,
      "ĠOther": 3126,
      "ĠUnion": 3127,
      "ĠOctober": 3128,
      "Ġadop": 3129,
      "ĠRoyal": 3130,
      "ĠRay": 3131,
      "Ġsuccessful": 3132,
      "Ġideas": 3133,
      "alled": 3134,
      "ĠRobert": 3135,
      "Ġgrant": 3136,
      "Ġfra": 3137,
      "Ġprofessional": 3138,
      "Ġaw": 3139,
      "Ġhappy": 3140,
      "Ġoffered": 3141,
      "duct": 3142,
      "Ġpublished": 3143,
      "Ġshowed": 3144,
      "Ġannounced": 3145,
      "amb": 3146,
      "Ġadvant": 3147,
      "inated": 3148,
      "Ġdistrib": 3149,
      "Ġbenefit": 3150,
      "ĠMany": 3151,
      "Ġeveryone": 3152,
      "Ġinterests": 3153,
      "astic": 3154,
      "Ġtransfer": 3155,
      "Ġrelig": 3156,
      "Ġquiet": 3157,
      "Ġbeyond": 3158,
      "ems": 3159,
      "Ġchall": 3160,
      "Ġteachers": 3161,
      "ĠTwo": 3162,
      "Ġbreat": 3163,
      "lig": 3164,
      "ED": 3165,
      "ocked": 3166,
      "atur": 3167,
      "Ġsecurity": 3168,
      "ĠFirst": 3169,
      "Ġcontext": 3170,
      "employ": 3171,
      "Ġcand": 3172,
      "udd": 3173,
      "mas": 3174,
      "Ġcritic": 3175,
      "Ġsleep": 3176,
      "Ġnorth": 3177,
      "ties": 3178,
      "Ġnar": 3179,
      "Ġprepared": 3180,
      "Ġpup": 3181,
      "Ġinfluence": 3182,
      "ĠMor": 3183,
      "Ġtele": 3184,
      "ech": 3185,
      "Ġprevent": 3186,
      "Ġrise": 3187,
      "Ġsummer": 3188,
      "ications": 3189,
      "Ġmount": 3190,
      "Ġplaying": 3191,
      "Ġuseful": 3192,
      "cies": 3193,
      "Ġspir": 3194,
      "Ġprogress": 3195,
      "Ġyourself": 3196,
      "Ġemphas": 3197,
      "Ġnearly": 3198,
      "Ġappeared": 3199,
      "ha": 3200,
      "Ġcircumstances": 3201,
      "Ġbi": 3202,
      "Ġgives": 3203,
      "ban": 3204,
      "ĠSeptember": 3205,
      "Ġdru": 3206,
      "Ġdetails": 3207,
      "cle": 3208,
      "Ġpassed": 3209,
      "Ġfit": 3210,
      "Ġrecomm": 3211,
      "ĠMag": 3212,
      "Ġmouth": 3213,
      "Ġweight": 3214,
      "In": 3215,
      "Ġaddition": 3216,
      "Ġband": 3217,
      "Ġunf": 3218,
      "Ġbound": 3219,
      "Ġwrite": 3220,
      "ĠGermany": 3221,
      "ĠIN": 3222,
      "eness": 3223,
      "Ġfing": 3224,
      "asc": 3225,
      "Ġconsult": 3226,
      "Ġstyle": 3227,
      "Ġwat": 3228,
      "ĠBo": 3229,
      "isters": 3230,
      "Ġpurch": 3231,
      "ĠAmerica": 3232,
      "Ġwindow": 3233,
      "pid": 3234,
      "Ġensure": 3235,
      "Ġremark": 3236,
      "Ġextreme": 3237,
      "ĠIre": 3238,
      "orough": 3239,
      "ĠNove": 3240,
      "IL": 3241,
      "cell": 3242,
      "Ġbasic": 3243,
      "ĠJoy": 3244,
      "Ġpicture": 3245,
      "Ġrepe": 3246,
      "Ġlives": 3247,
      "ĠJanuary": 3248,
      "Ġreports": 3249,
      "Ġinstead": 3250,
      "urance": 3251,
      "Ġready": 3252,
      "Ġoil": 3253,
      "ĠPhil": 3254,
      "Ġfilm": 3255,
      "Ġopportunity": 3256,
      "Ġtarg": 3257,
      "Ġextent": 3258,
      "Ġinvestment": 3259,
      "Ġpurpose": 3260,
      "Ġlength": 3261,
      "ĠChurch": 3262,
      "change": 3263,
      "Ġvillage": 3264,
      "Ġpounds": 3265,
      "ked": 3266,
      "Ġreform": 3267,
      "Ġraised": 3268,
      "Ġpeace": 3269,
      "othes": 3270,
      "utif": 3271,
      "ĠNe": 3272,
      "ĠMost": 3273,
      "Ġdepend": 3274,
      "bour": 3275,
      "ĠJean": 3276,
      "Ġsouth": 3277,
      "Ġevents": 3278,
      "ĠCount": 3279,
      "Ġreturned": 3280,
      "Ġproducts": 3281,
      "ode": 3282,
      "Ġconsequ": 3283,
      "Ġenter": 3284,
      "levision": 3285,
      "Ġlines": 3286,
      "wood": 3287,
      "apers": 3288,
      "Ġlif": 3289,
      "Ġsurpr": 3290,
      "ii": 3291,
      "ĠAny": 3292,
      "Is": 3293,
      "Ġfast": 3294,
      "cial": 3295,
      "Ġtom": 3296,
      "Ġbrief": 3297,
      "ĠSund": 3298,
      "ĠBank": 3299,
      "amed": 3300,
      "Ġarms": 3301,
      "ĠFore": 3302,
      "Ġesc": 3303,
      "omb": 3304,
      "ĠAcc": 3305,
      "oti": 3306,
      "Ġhost": 3307,
      "Ġwhatever": 3308,
      "Ġconfir": 3309,
      "Ġmajority": 3310,
      "Ġdesigned": 3311,
      "Ġhit": 3312,
      "ĠServ": 3313,
      "Ġwrote": 3314,
      "Ġdegree": 3315,
      "Ġlegisl": 3316,
      "Ġthirty": 3317,
      "Ġresources": 3318,
      "utive": 3319,
      "Ġcondition": 3320,
      "Ġprison": 3321,
      "ĠScottish": 3322,
      "Ġcommittee": 3323,
      "ĠAndrew": 3324,
      "erve": 3325,
      "aled": 3326,
      "Ġkit": 3327,
      "olute": 3328,
      "ests": 3329,
      "iqu": 3330,
      "ĠPark": 3331,
      "Ġimmediately": 3332,
      "ĠRoad": 3333,
      "Ġstation": 3334,
      "Ġeffective": 3335,
      "Ġproport": 3336,
      "Ġda": 3337,
      "Ġeconomy": 3338,
      "Ġgoods": 3339,
      "Ġmist": 3340,
      "ĠMary": 3341,
      "How": 3342,
      "Ġton": 3343,
      "Ġperfect": 3344,
      "Ġrules": 3345,
      "ĠWhere": 3346,
      "ental": 3347,
      "ĠDar": 3348,
      "Ġsite": 3349,
      "Ġinstru": 3350,
      "Ġgold": 3351,
      "Ġcorrect": 3352,
      "pro": 3353,
      "Ġadvice": 3354,
      "Ġign": 3355,
      "Ġfoc": 3356,
      "Ġspl": 3357,
      "Ġaverage": 3358,
      "Ġmarried": 3359,
      "Ġpath": 3360,
      "Ġinterview": 3361,
      "Ġperm": 3362,
      "iture": 3363,
      "Ġmiles": 3364,
      "Ġwarm": 3365,
      "oly": 3366,
      "ĠStates": 3367,
      "Ġeasily": 3368,
      "entle": 3369,
      "Ġimportance": 3370,
      "ports": 3371,
      "ript": 3372,
      "cember": 3373,
      "Ġprior": 3374,
      "Ġheavy": 3375,
      "Ġlimited": 3376,
      "ĠII": 3377,
      "ushed": 3378,
      "Ġeye": 3379,
      "Ġrelev": 3380,
      "Ġmeaning": 3381,
      "Ġasse": 3382,
      "Ġscient": 3383,
      "itation": 3384,
      "ĠOxford": 3385,
      "isted": 3386,
      "Ġexisting": 3387,
      "ID": 3388,
      "Ġcru": 3389,
      "Ġbird": 3390,
      "Ġrestrict": 3391,
      "Ġsatisf": 3392,
      "Ġcollect": 3393,
      "ĠIreland": 3394,
      "Ġplaces": 3395,
      "ĠThus": 3396,
      "ĠWales": 3397,
      "Ġremo": 3398,
      "Ġcaused": 3399,
      "Ġadj": 3400,
      "Ġtouch": 3401,
      "Ġstatement": 3402,
      "Ġexactly": 3403,
      "Ġprovision": 3404,
      "Ġclosed": 3405,
      "Ġgarden": 3406,
      "ĠInc": 3407,
      "ĠJul": 3408,
      "Ġgrad": 3409,
      "Ġunion": 3410,
      "ĠMiss": 3411,
      "Ġoperation": 3412,
      "ĠPal": 3413,
      "Ġpiece": 3414,
      "Ġtraditional": 3415,
      "Ġjobs": 3416,
      "Ġwaiting": 3417,
      "Ġsumm": 3418,
      "ĠAugust": 3419,
      "Ġnotice": 3420,
      "Ġagree": 3421,
      "ĠSpe": 3422,
      "Ġbudget": 3423,
      "Ġrail": 3424,
      "ball": 3425,
      "ume": 3426,
      "Ġinteg": 3427,
      "ĠRob": 3428,
      "Ġwel": 3429,
      "Ġconsiderable": 3430,
      "Ġnor": 3431,
      "Ġtrain": 3432,
      "Ġapplication": 3433,
      "ĠHere": 3434,
      "ĠDecember": 3435,
      "Ġinteresting": 3436,
      "Ġhouses": 3437,
      "Ġsupply": 3438,
      "Ġprices": 3439,
      "Ġbase": 3440,
      "ĠNovember": 3441,
      "ety": 3442,
      "Ġcomment": 3443,
      "Ġbirth": 3444,
      "Ġpositive": 3445,
      "de": 3446,
      "US": 3447,
      "ky": 3448,
      "ĠSand": 3449,
      ");": 3450,
      "Ġcast": 3451,
      "Ġblue": 3452,
      "phone": 3453,
      "Ġgrand": 3454,
      "iced": 3455,
      "ĠHigh": 3456,
      "ĠCommittee": 3457,
      "Ġpleas": 3458,
      "ĠCity": 3459,
      "sec": 3460,
      "Ġdaughter": 3461,
      "ĠDan": 3462,
      "ĠMac": 3463,
      "ĠJo": 3464,
      "ship": 3465,
      "chen": 3466,
      "Ġkill": 3467,
      "Ġsuppose": 3468,
      "Ġpan": 3469,
      "Ġresponsible": 3470,
      "hem": 3471,
      "Ġemployment": 3472,
      "Ġreading": 3473,
      "Ġbeautif": 3474,
      "resh": 3475,
      "Ġproceed": 3476,
      "Ġsuddenly": 3477,
      "Ġplease": 3478,
      "Ġul": 3479,
      "Ġfailed": 3480,
      "Ġunderstanding": 3481,
      "ipment": 3482,
      "Ġsem": 3483,
      "Ġinstance": 3484,
      "Ġtechnology": 3485,
      "ores": 3486,
      "eenth": 3487,
      "omen": 3488,
      "Ġhighly": 3489,
      "raft": 3490,
      "Ġconvers": 3491,
      "Ġmeasure": 3492,
      "Ġgrowing": 3493,
      "Ġcompar": 3494,
      "Ġmoving": 3495,
      "erson": 3496,
      "Ġunit": 3497,
      "ading": 3498,
      "Ġability": 3499,
      "ĠWend": 3500,
      "umn": 3501,
      "lict": 3502,
      "ĠLaw": 3503,
      "AM": 3504,
      "chan": 3505,
      "ĠPrime": 3506,
      "Ġchem": 3507,
      "using": 3508,
      "pris": 3509,
      "uments": 3510,
      "ica": 3511,
      "Ġtypes": 3512,
      "Ġprint": 3513,
      "lyn": 3514,
      "Ġleaving": 3515,
      "ĠErm": 3516,
      "Ġgovern": 3517,
      "Ġresponsibility": 3518,
      "odd": 3519,
      "Ġsearch": 3520,
      "Ġstopped": 3521,
      "Ġfully": 3522,
      "Ġnegoti": 3523,
      "Ġdram": 3524,
      "ae": 3525,
      "Ġspecies": 3526,
      "Ġinterpret": 3527,
      "Ġsurface": 3528,
      "bury": 3529,
      "Ġstates": 3530,
      "gy": 3531,
      "Ġclim": 3532,
      "Ġassociated": 3533,
      "Ġregion": 3534,
      "Ġopin": 3535,
      "ĠSunday": 3536,
      "iny": 3537,
      "Ġtrack": 3538,
      "Ġphysical": 3539,
      "ĠEar": 3540,
      "ĠMal": 3541,
      "Ġpoll": 3542,
      "ai": 3543,
      "Ġseparate": 3544,
      "Ġremained": 3545,
      "Ġdespite": 3546,
      "Ġobviously": 3547,
      "Ġskills": 3548,
      "Ġmachine": 3549,
      "ĠSchool": 3550,
      "Ġstanding": 3551,
      "uclear": 3552,
      "Ġremains": 3553,
      "Ġdirector": 3554,
      "Ġprem": 3555,
      "ĠWendy": 3556,
      "ĠCommission": 3557,
      "Ġessential": 3558,
      "olic": 3559,
      "iles": 3560,
      "Ġbought": 3561,
      "back": 3562,
      "ĠConserv": 3563,
      "Ġdisplay": 3564,
      "othy": 3565,
      "aches": 3566,
      "Ġtrouble": 3567,
      "Ġunless": 3568,
      "ĠWhy": 3569,
      "Ġhar": 3570,
      "ye": 3571,
      "Ġspeed": 3572,
      "Ġsource": 3573,
      "rol": 3574,
      "aded": 3575,
      "Ġaccepted": 3576,
      "ercial": 3577,
      "ĠCharles": 3578,
      "Ġpage": 3579,
      "RE": 3580,
      "based": 3581,
      "ĠSar": 3582,
      "Ġinterested": 3583,
      "ulations": 3584,
      "Ġhappen": 3585,
      "Ġdism": 3586,
      "ĠOld": 3587,
      "ĠChristian": 3588,
      "mark": 3589,
      "ĠGeneral": 3590,
      "anch": 3591,
      "ĠCO": 3592,
      "Ġelection": 3593,
      "ocks": 3594,
      "Ġstatus": 3595,
      "Ġminute": 3596,
      "Ġstar": 3597,
      "Ġsector": 3598,
      "Ġparticip": 3599,
      "hm": 3600,
      "rant": 3601,
      "Ġwants": 3602,
      "Ġcomfort": 3603,
      "iers": 3604,
      "Ġstandards": 3605,
      "Ġanyway": 3606,
      "ĠMartin": 3607,
      "Ġwalked": 3608,
      "rupt": 3609,
      "Ġtelevision": 3610,
      "Ġaddress": 3611,
      "ilies": 3612,
      "ĠSocial": 3613,
      "Ġrespond": 3614,
      "fast": 3615,
      "Ġban": 3616,
      "Ġeat": 3617,
      "Ġpolicies": 3618,
      "Ġdefend": 3619,
      "Ġdisease": 3620,
      "Ġprin": 3621,
      "Ġdirection": 3622,
      "Don": 3623,
      "ĠCont": 3624,
      "ĠSmith": 3625,
      "ivity": 3626,
      "Ġspread": 3627,
      "Ġsitting": 3628,
      "Ġspok": 3629,
      "Ġbow": 3630,
      "ĠFig": 3631,
      "ĠSuch": 3632,
      "ĠWil": 3633,
      "Ġrule": 3634,
      "Ġoccasion": 3635,
      "Ġcompetition": 3636,
      "Wh": 3637,
      "Ġfifty": 3638,
      "Ġalternative": 3639,
      "ĠAre": 3640,
      "):": 3641,
      "nal": 3642,
      "Ġbalance": 3643,
      "Ġver": 3644,
      "Ġtask": 3645,
      "Ġsubstant": 3646,
      "ĠKen": 3647,
      "Ġdirectly": 3648,
      "equ": 3649,
      "Ġavoid": 3650,
      "ipl": 3651,
      "Ġprefer": 3652,
      "ĠBre": 3653,
      "Ġlibr": 3654,
      "rog": 3655,
      "Ġclaims": 3656,
      "Ġcy": 3657,
      "Ġfactors": 3658,
      "ĠEl": 3659,
      "estic": 3660,
      "Ġindependent": 3661,
      "Ġintroduced": 3662,
      "Ġvariety": 3663,
      "uct": 3664,
      "fl": 3665,
      "ruary": 3666,
      "Ġcreated": 3667,
      "This": 3668,
      "Ġfeatures": 3669,
      "ĠWhile": 3670,
      "Ġminor": 3671,
      "house": 3672,
      "Ġlog": 3673,
      "Ġteaching": 3674,
      "enior": 3675,
      "ston": 3676,
      "Ġslightly": 3677,
      "Ġge": 3678,
      "Ġunemploy": 3679,
      "ĠTheir": 3680,
      "gel": 3681,
      "Ġcash": 3682,
      "Ġpark": 3683,
      "hester": 3684,
      "Ġdefence": 3685,
      "Ġquarter": 3686,
      "resp": 3687,
      "olly": 3688,
      "ĠAssoci": 3689,
      "Ġolder": 3690,
      "Ġpatient": 3691,
      "Ġlearn": 3692,
      "Ġnetwork": 3693,
      "Ġarrived": 3694,
      "oring": 3695,
      "Ġshot": 3696,
      "Ġrelated": 3697,
      "Ġamb": 3698,
      "ĠHen": 3699,
      "Ġafterno": 3700,
      "Ġdream": 3701,
      "ĠYet": 3702,
      "Ġkilled": 3703,
      "Ġmatters": 3704,
      "Ġcontrast": 3705,
      "Ġplaced": 3706,
      "Ġsurvey": 3707,
      "ĠBlack": 3708,
      "Ġdouble": 3709,
      "Ġlearning": 3710,
      "Ġtruth": 3711,
      "Ġargument": 3712,
      "Ġconduct": 3713,
      "Ġwild": 3714,
      "Ġaffect": 3715,
      "ĠChristmas": 3716,
      "porary": 3717,
      "ites": 3718,
      "raw": 3719,
      "Ġchief": 3720,
      "Ġdog": 3721,
      "Ġdrive": 3722,
      "Ġnote": 3723,
      "Ġgirls": 3724,
      "Ġprovides": 3725,
      "Ġdress": 3726,
      "Ġinvolve": 3727,
      "Ġsusp": 3728,
      "Ġsufficient": 3729,
      "Not": 3730,
      "Ġunlike": 3731,
      "Ġpet": 3732,
      "Ġahead": 3733,
      "Ġran": 3734,
      "Ġmaintain": 3735,
      "Ġsevent": 3736,
      "Ġjoint": 3737,
      "Ġexpress": 3738,
      "quir": 3739,
      "inner": 3740,
      "su": 3741,
      "Ġsale": 3742,
      "ĠFebruary": 3743,
      "Ġi": 3744,
      "ĠOffice": 3745,
      "Ġexhib": 3746,
      "ĠDem": 3747,
      "Ġfinally": 3748,
      "ĠSatur": 3749,
      "Ġgas": 3750,
      "Ġclaimed": 3751,
      "Ġweak": 3752,
      "uel": 3753,
      "Ġcry": 3754,
      "min": 3755,
      "ulf": 3756,
      "Ġsecret": 3757,
      "Ġcompared": 3758,
      "Ġmechan": 3759,
      "Ġleader": 3760,
      "uous": 3761,
      "pir": 3762,
      "Ġtemper": 3763,
      "ĠGroup": 3764,
      "istics": 3765,
      "gged": 3766,
      "zz": 3767,
      "Ġexercise": 3768,
      "Ġcompletely": 3769,
      "Ġmethods": 3770,
      "Ġproposed": 3771,
      "eral": 3772,
      "rie": 3773,
      "Ġcommit": 3774,
      "Ġstuff": 3775,
      "Ġfinished": 3776,
      "Ġclos": 3777,
      "Ġillust": 3778,
      "ĠMo": 3779,
      "ulate": 3780,
      "odies": 3781,
      "Ġprotect": 3782,
      "pool": 3783,
      "ricult": 3784,
      "istry": 3785,
      "ĠBen": 3786,
      "Ġbaby": 3787,
      "Ġbag": 3788,
      "Ġabsolute": 3789,
      "NA": 3790,
      "ĠTony": 3791,
      "Ġadvert": 3792,
      "useum": 3793,
      "ĠGreat": 3794,
      "Ġconflict": 3795,
      "Ġanimals": 3796,
      "Ġorganis": 3797,
      "ĠOF": 3798,
      "iant": 3799,
      "Ġshar": 3800,
      "Ġdamage": 3801,
      "Ġap": 3802,
      "etic": 3803,
      "Ġcaught": 3804,
      "Ġstrugg": 3805,
      "adem": 3806,
      "Ġhorse": 3807,
      "ĠEC": 3808,
      "Ġdocument": 3809,
      "Ġreflect": 3810,
      "kes": 3811,
      "vis": 3812,
      "Ġcapt": 3813,
      "Ġcandid": 3814,
      "Ġhardly": 3815,
      "Ġrapid": 3816,
      "Ġkitchen": 3817,
      "Ġtea": 3818,
      "Ġstreet": 3819,
      "Ġchamp": 3820,
      "Ġconsist": 3821,
      "Ġwait": 3822,
      "Ġsettle": 3823,
      "Ġsight": 3824,
      "night": 3825,
      "Ġut": 3826,
      "road": 3827,
      "Ġinn": 3828,
      "ĠBet": 3829,
      "Ġknows": 3830,
      "Ġbelieved": 3831,
      "Ġfort": 3832,
      "Ġapart": 3833,
      "ctors": 3834,
      "vere": 3835,
      "hood": 3836,
      "Ġtomorrow": 3837,
      "Why": 3838,
      "Ġlived": 3839,
      "Ġsafe": 3840,
      "Do": 3841,
      "term": 3842,
      "ĠRoman": 3843,
      "Ġstrength": 3844,
      "Ġlatter": 3845,
      "Ġshares": 3846,
      "Ġequipment": 3847,
      "ĠSince": 3848,
      "Ġmort": 3849,
      "RA": 3850,
      "idents": 3851,
      "Ġhadn": 3852,
      "ĠEvery": 3853,
      "Ġcreate": 3854,
      "Ġbeautiful": 3855,
      "Ġprinciple": 3856,
      "Ġreduced": 3857,
      "ĠGreen": 3858,
      "ĠInternational": 3859,
      "Ġcovered": 3860,
      "ĠWork": 3861,
      "ĠDorothy": 3862,
      "Ġundert": 3863,
      "Ġafternoon": 3864,
      "ription": 3865,
      "ĠInstit": 3866,
      "Ġachieved": 3867,
      "ĠHall": 3868,
      "duc": 3869,
      "oms": 3870,
      "ĠTre": 3871,
      "hens": 3872,
      "ĠCam": 3873,
      "ĠSaturday": 3874,
      "ĠStu": 3875,
      "Ġhousing": 3876,
      "ENT": 3877,
      "Ġetc": 3878,
      "Ġincreasing": 3879,
      "Ġfamilies": 3880,
      "Ġestim": 3881,
      "ĠQue": 3882,
      "Ġemot": 3883,
      "Ġpresented": 3884,
      "Ġpresence": 3885,
      "Ġofficers": 3886,
      "ashion": 3887,
      "Ġadult": 3888,
      "ĠMon": 3889,
      "Ġforced": 3890,
      "Ġrose": 3891,
      "Ġcommercial": 3892,
      "Ġreach": 3893,
      "Ġplayers": 3894,
      "ĠAustral": 3895,
      "Ġbeat": 3896,
      "ĠUN": 3897,
      "Ġder": 3898,
      "Ġtitle": 3899,
      "ĠParliament": 3900,
      "ĠYes": 3901,
      "ĠSociety": 3902,
      "rowd": 3903,
      "omas": 3904,
      "Ġforg": 3905,
      "Ġsorry": 3906,
      "Ġrelevant": 3907,
      "Ġhuge": 3908,
      "Ġiniti": 3909,
      "ĠIm": 3910,
      "Ġcup": 3911,
      "ruit": 3912,
      "Ġmale": 3913,
      "Ġdepart": 3914,
      "Ġversion": 3915,
      "Ġsexual": 3916,
      "ffic": 3917,
      "Ġring": 3918,
      "Ġking": 3919,
      "Ġcredit": 3920,
      "ĠBoth": 3921,
      "Ġvirt": 3922,
      "Ġcard": 3923,
      "Ġrelatively": 3924,
      "Ġapply": 3925,
      "ols": 3926,
      "ught": 3927,
      "Ġdiscussion": 3928,
      "Ġduty": 3929,
      "Ġtrees": 3930,
      "Ġtro": 3931,
      "Ġindividuals": 3932,
      "oul": 3933,
      "Ġradio": 3934,
      "ĠPerhaps": 3935,
      "ĠRaymond": 3936,
      "mon": 3937,
      "Ġmer": 3938,
      "Ġmedical": 3939,
      "Ġspeech": 3940,
      "Ġdepartment": 3941,
      "Ġchapter": 3942,
      "Ġscience": 3943,
      "Ġholding": 3944,
      "ĠCup": 3945,
      "antic": 3946,
      "Ġbecomes": 3947,
      "Ġopposition": 3948,
      "Ġborn": 3949,
      "com": 3950,
      "bing": 3951,
      "Ġdetermined": 3952,
      "ĠFred": 3953,
      "ades": 3954,
      "Ġearth": 3955,
      "Ġreference": 3956,
      "ĠStuart": 3957,
      "Ġcommand": 3958,
      "Ġculture": 3959,
      "ĠSer": 3960,
      "ĠHelen": 3961,
      "ĠArt": 3962,
      "Ġappears": 3963,
      "ĠSus": 3964,
      "Ġemerg": 3965,
      "Ġimpact": 3966,
      "gl": 3967,
      "icro": 3968,
      "Ġchallen": 3969,
      "ĠJane": 3970,
      "Ġfat": 3971,
      "Ġcareer": 3972,
      "arian": 3973,
      "ĠFrank": 3974,
      "Ġadvantage": 3975,
      "Ġpupils": 3976,
      "ager": 3977,
      "Ġnewsp": 3978,
      "Ġsend": 3979,
      "Ġaid": 3980,
      "IF": 3981,
      "ĠMed": 3982,
      "Ġanti": 3983,
      "Ġchairman": 3984,
      "Ġconference": 3985,
      "Ġcells": 3986,
      "roy": 3987,
      "ĠAnother": 3988,
      "Ġfresh": 3989,
      "Ġcourses": 3990,
      "ĠTO": 3991,
      "ĠPre": 3992,
      "Ġdifferences": 3993,
      "Ġlarger": 3994,
      "Ġhotel": 3995,
      "Ġcoff": 3996,
      "Ġrace": 3997,
      "ĠCath": 3998,
      "Ġcateg": 3999,
      "Ġdry": 4000,
      "Ġphone": 4001,
      "icated": 4002,
      "Ġmut": 4003,
      "Ġtrave": 4004,
      "Ġintended": 4005,
      "iliar": 4006,
      "Ġexplain": 4007,
      "Ġappre": 4008,
      "Ġorganisation": 4009,
      "Ġvalues": 4010,
      "Ġskin": 4011,
      "Ġtarget": 4012,
      "Ġgets": 4013,
      "Ġcalc": 4014,
      "Ġnames": 4015,
      "Ġotherwise": 4016,
      "ĠOur": 4017,
      "Ġrelation": 4018,
      "uke": 4019,
      "ille": 4020,
      "Ġbenefits": 4021,
      "Ġreceive": 4022,
      "Ġmotor": 4023,
      "Ġsubsequ": 4024,
      "Ġpractical": 4025,
      "ĠAng": 4026,
      "ĠEli": 4027,
      "Ġexpression": 4028,
      "Ġstick": 4029,
      "ĠKath": 4030,
      "ĠAssociation": 4031,
      "ĠOnly": 4032,
      "Ġvot": 4033,
      "ĠMat": 4034,
      "Ġspend": 4035,
      "Ġhelped": 4036,
      "Ġeld": 4037,
      "Ġcounter": 4038,
      "Ġdrawn": 4039,
      "Ġbelief": 4040,
      "ĠDis": 4041,
      "Ġmerely": 4042,
      "ooking": 4043,
      "Ġviews": 4044,
      "Ġscale": 4045,
      "Ġnormally": 4046,
      "Ġtight": 4047,
      "Ġcontem": 4048,
      "ta": 4049,
      "ĠBra": 4050,
      "order": 4051,
      "Ġfirms": 4052,
      "ĠSecond": 4053,
      "Ġforty": 4054,
      "Ġsoftware": 4055,
      "Ġnarrow": 4056,
      "opher": 4057,
      "Ġsubjects": 4058,
      "Ġcris": 4059,
      "ĠUnder": 4060,
      "Ġhang": 4061,
      "Ġsurround": 4062,
      "Ġmanaged": 4063,
      "ux": 4064,
      "Ġlad": 4065,
      "Ġeventually": 4066,
      "Ġusual": 4067,
      "rif": 4068,
      "Ġmix": 4069,
      "Ġbottom": 4070,
      "Ġlic": 4071,
      "Ġfacilities": 4072,
      "Ġtim": 4073,
      "icial": 4074,
      "Ġmarriage": 4075,
      "Ġdecisions": 4076,
      "Ġpun": 4077,
      "Ġmedia": 4078,
      "ault": 4079,
      "Ġopinion": 4080,
      "Ġneigh": 4081,
      "Ġbes": 4082,
      "ĠEduc": 4083,
      "Ġstone": 4084,
      "Ġjoin": 4085,
      "Ġfailure": 4086,
      "Ġimposs": 4087,
      "Ġsafety": 4088,
      "ĠTim": 4089,
      "but": 4090,
      "Ġrul": 4091,
      "ĠMer": 4092,
      "Ġopening": 4093,
      "Ġenvironmental": 4094,
      "Ġsand": 4095,
      "Ġtelephone": 4096,
      "ĠRep": 4097,
      "iver": 4098,
      "Ġapplied": 4099,
      "Ġspeaker": 4100,
      "Ġlargely": 4101,
      "Ġannual": 4102,
      "Ġphotograph": 4103,
      "Ġcontent": 4104,
      "OS": 4105,
      "ĠDire": 4106,
      "ocratic": 4107,
      "Ġspirit": 4108,
      "Ġiron": 4109,
      "ĠRight": 4110,
      "Ġproportion": 4111,
      "ĠMe": 4112,
      "encies": 4113,
      "ĠIan": 4114,
      "Ġgoal": 4115,
      "Ġrow": 4116,
      "lies": 4117,
      "ĠSam": 4118,
      "Ġmemory": 4119,
      "Ġvide": 4120,
      "rick": 4121,
      "Ġspot": 4122,
      "Ġpretty": 4123,
      "Ġnuclear": 4124,
      "Ġsubs": 4125,
      "inate": 4126,
      "Ġoverall": 4127,
      "Ġtravel": 4128,
      "Ġimage": 4129,
      "Ġdebate": 4130,
      "OT": 4131,
      "theless": 4132,
      "Ġtransport": 4133,
      "ĠDuring": 4134,
      "lor": 4135,
      "ĠAnne": 4136,
      "ĠInt": 4137,
      "Ġexchange": 4138,
      "ĠAlex": 4139,
      "Ġproviding": 4140,
      "ĠST": 4141,
      "Ġrich": 4142,
      "Ġmax": 4143,
      "Ġholiday": 4144,
      "Ġjoined": 4145,
      "Ġexpressed": 4146,
      "you": 4147,
      "Ġconcl": 4148,
      "Ġsenior": 4149,
      "Ġsupposed": 4150,
      "Ġsetting": 4151,
      "ĠOnce": 4152,
      "ĠVal": 4153,
      "Ġcorpor": 4154,
      "Ġexcell": 4155,
      "Ġpartners": 4156,
      "itect": 4157,
      "Ġhall": 4158,
      "Ġaspects": 4159,
      "Ġrain": 4160,
      "ĠBrian": 4161,
      "ears": 4162,
      "beral": 4163,
      "Ġsmaller": 4164,
      "ĠBecause": 4165,
      "ĠMa": 4166,
      "Ġimplement": 4167,
      "ĠLt": 4168,
      "Ġtwel": 4169,
      "ĠHealth": 4170,
      "Ġsett": 4171,
      "Ġvolunt": 4172,
      "olf": 4173,
      "Ġactual": 4174,
      "Ġformal": 4175,
      "Ġpossibility": 4176,
      "what": 4177,
      "Ġsequ": 4178,
      "Ġcars": 4179,
      "Ġframe": 4180,
      "Ġdim": 4181,
      "Ġedge": 4182,
      "Ġpowerful": 4183,
      "ĠJim": 4184,
      "Ġofficer": 4185,
      "olk": 4186,
      "Ġveh": 4187,
      "Ġprospect": 4188,
      "Ġjudg": 4189,
      "Ġdoctor": 4190,
      "Ġbecoming": 4191,
      "Ġreduce": 4192,
      "Ġprofit": 4193,
      "board": 4194,
      "iance": 4195,
      "ĠFriend": 4196,
      "Ġaccident": 4197,
      "ĠColle": 4198,
      "Ġcorner": 4199,
      "Ġvote": 4200,
      "Ġputting": 4201,
      "ius": 4202,
      "ception": 4203,
      "Ġconne": 4204,
      "ĠAlan": 4205,
      "Ġspect": 4206,
      "Ġregarded": 4207,
      "Ġfeed": 4208,
      "ĠEdward": 4209,
      "Ġtreated": 4210,
      "ashed": 4211,
      "Ġsmiled": 4212,
      "Ġgun": 4213,
      "ĠTom": 4214,
      "burgh": 4215,
      "ancing": 4216,
      "anks": 4217,
      "ĠLet": 4218,
      "Ġshape": 4219,
      "Ġletters": 4220,
      "ran": 4221,
      "Ġharm": 4222,
      "Ġnurs": 4223,
      "key": 4224,
      "ĠWhite": 4225,
      "ĠTV": 4226,
      "Ġpromot": 4227,
      "Ġactive": 4228,
      "ĠSal": 4229,
      "Ġcrowd": 4230,
      "ĠMP": 4231,
      "Ġformed": 4232,
      "Ġboys": 4233,
      "ĠBur": 4234,
      "Ġplants": 4235,
      "Ġslowly": 4236,
      "Ġriver": 4237,
      "Ġarmy": 4238,
      "Ġthick": 4239,
      "OL": 4240,
      "lebr": 4241,
      "Ġdiscussed": 4242,
      "Ġcollection": 4243,
      "Ġquant": 4244,
      "Ġrat": 4245,
      "Ġflow": 4246,
      "Ġpresident": 4247,
      "Ġproved": 4248,
      "Ġcoal": 4249,
      "den": 4250,
      "Ġforest": 4251,
      "Ġstudent": 4252,
      "Ġagg": 4253,
      "Ġadditional": 4254,
      "ĠAfrica": 4255,
      "oration": 4256,
      "ĠWas": 4257,
      "Ġbroken": 4258,
      "Ġluck": 4259,
      "ĠCharl": 4260,
      "Ġclothes": 4261,
      "Ġmentioned": 4262,
      "ĠCal": 4263,
      "Ġgri": 4264,
      "Ġsmile": 4265,
      "ishing": 4266,
      "unk": 4267,
      "Ġbright": 4268,
      "iques": 4269,
      "Ġnovel": 4270,
      "Ġreb": 4271,
      "Ġunits": 4272,
      "ici": 4273,
      "Ġexplained": 4274,
      "Ġdomestic": 4275,
      "cester": 4276,
      "ĠCentre": 4277,
      "Ġprotection": 4278,
      "TER": 4279,
      "Ġrub": 4280,
      "Ġprepar": 4281,
      "iously": 4282,
      "Ġrecords": 4283,
      "force": 4284,
      "ĠPort": 4285,
      "Ġexplan": 4286,
      "Ġequal": 4287,
      "Ġlegislation": 4288,
      "Ġwithd": 4289,
      "Ġconfidence": 4290,
      "respond": 4291,
      "while": 4292,
      "Ġnone": 4293,
      "sey": 4294,
      "ĠThomas": 4295,
      "Ġworry": 4296,
      "lington": 4297,
      "Ġentirely": 4298,
      "ĠVict": 4299,
      "Ġempt": 4300,
      "Ġoblig": 4301,
      "asingly": 4302,
      "Ġsuggests": 4303,
      "My": 4304,
      "Ġcapac": 4305,
      "Ġcopy": 4306,
      "osen": 4307,
      "emb": 4308,
      "Ġmainly": 4309,
      "iences": 4310,
      "Ġcarefully": 4311,
      "atherine": 4312,
      "ether": 4313,
      "Ġimpossible": 4314,
      "Ġdifficulties": 4315,
      "ipe": 4316,
      "icles": 4317,
      "osite": 4318,
      "Ġprimary": 4319,
      "ĠCommunity": 4320,
      "ested": 4321,
      "Ġsolution": 4322,
      "Ġlaugh": 4323,
      "Ġincludes": 4324,
      "gar": 4325,
      "ĠNorthern": 4326,
      "Ġobtain": 4327,
      "Ġmeasures": 4328,
      "Ġdear": 4329,
      "Ġstrange": 4330,
      "ommod": 4331,
      "ressive": 4332,
      "Ġresist": 4333,
      "Ġmagn": 4334,
      "nel": 4335,
      "Ġinitial": 4336,
      "Ġexpert": 4337,
      "uries": 4338,
      "Ġep": 4339,
      "Ġaccounts": 4340,
      "Ġsuit": 4341,
      "ĠPeople": 4342,
      "ĠSimon": 4343,
      "ĠRed": 4344,
      "Mhm": 4345,
      "Ġexcl": 4346,
      "arr": 4347,
      "Ġpaint": 4348,
      "OW": 4349,
      "Ġapparently": 4350,
      "ference": 4351,
      "inn": 4352,
      "Ġodd": 4353,
      "ĠGeoff": 4354,
      "ĠMel": 4355,
      "racy": 4356,
      "Ġdiss": 4357,
      "Ġplus": 4358,
      "Ġproposals": 4359,
      "oon": 4360,
      "ĠSun": 4361,
      "class": 4362,
      "Ġbul": 4363,
      "Ġbodies": 4364,
      "ĠProf": 4365,
      "ĠKev": 4366,
      "Ġenth": 4367,
      "ĠClare": 4368,
      "Ġpowers": 4369,
      "IV": 4370,
      "Ġextremely": 4371,
      "Ġlimit": 4372,
      "Ġbackground": 4373,
      "Ġwaste": 4374,
      "Ġspoke": 4375,
      "Ġfixed": 4376,
      ".,": 4377,
      "Ġcatch": 4378,
      "aste": 4379,
      "ĠHenry": 4380,
      "Ġult": 4381,
      "Ġphil": 4382,
      "Ġelectric": 4383,
      "mar": 4384,
      "Ġworse": 4385,
      "luded": 4386,
      "Ġconserv": 4387,
      "nda": 4388,
      "nown": 4389,
      "EM": 4390,
      "Ġtradition": 4391,
      "Ġanx": 4392,
      "Ġfreed": 4393,
      "ĠQueen": 4394,
      "Ġitems": 4395,
      "Ġdistance": 4396,
      "Ġowners": 4397,
      "arant": 4398,
      "ĠEducation": 4399,
      "Ġcelebr": 4400,
      "Ġbelong": 4401,
      "Ġvictim": 4402,
      "Ġfairly": 4403,
      "Ġforget": 4404,
      "ĠFranc": 4405,
      "ĠStep": 4406,
      "Ġpulled": 4407,
      "Ġmessage": 4408,
      "Ġspending": 4409,
      "Ġexistence": 4410,
      "ĠGood": 4411,
      "earch": 4412,
      "Ġburn": 4413,
      "St": 4414,
      "Ġrecorded": 4415,
      "aces": 4416,
      "ĠLuc": 4417,
      "ĠStud": 4418,
      "Ġdecide": 4419,
      "ĠAnt": 4420,
      "Ġstress": 4421,
      "ĠRose": 4422,
      "Ġanc": 4423,
      "Ġcustomers": 4424,
      "abinet": 4425,
      "lly": 4426,
      "Ġexperiment": 4427,
      "Ġparliament": 4428,
      "Ġaf": 4429,
      "ishop": 4430,
      "Ġpredict": 4431,
      "ĠBob": 4432,
      "Ġdebt": 4433,
      "Ġsong": 4434,
      "Ġargued": 4435,
      "ĠTy": 4436,
      "Ġfemale": 4437,
      "Ġcurrently": 4438,
      "ĠEve": 4439,
      "Ġreject": 4440,
      "Ġpossibly": 4441,
      "Ġappointed": 4442,
      "ishes": 4443,
      "Ġsteps": 4444,
      "ĠWestern": 4445,
      "Ġscene": 4446,
      "imately": 4447,
      "Ġpreviously": 4448,
      "Ġdistinct": 4449,
      "ĠRec": 4450,
      "Ġgall": 4451,
      "ara": 4452,
      "Ġmaterials": 4453,
      "col": 4454,
      "Ġcrime": 4455,
      "tering": 4456,
      "Ġelement": 4457,
      "ĠAND": 4458,
      "rid": 4459,
      "Ġshowing": 4460,
      "hest": 4461,
      "entially": 4462,
      "ender": 4463,
      "Ġshout": 4464,
      "Ġremind": 4465,
      "Ġoutput": 4466,
      "ĠNorm": 4467,
      "ellig": 4468,
      "Ġneck": 4469,
      "Ġclient": 4470,
      "ĠGraham": 4471,
      "Ġsister": 4472,
      "Ġpolitics": 4473,
      "ari": 4474,
      "Ġsides": 4475,
      "ieties": 4476,
      "ĠLike": 4477,
      "ĠMil": 4478,
      "Ġfamiliar": 4479,
      "Ġmaybe": 4480,
      "Ġsources": 4481,
      "ĠSub": 4482,
      "ellow": 4483,
      "BC": 4484,
      "lec": 4485,
      "how": 4486,
      "Ġpoly": 4487,
      "Ġpointed": 4488,
      "Ġmarked": 4489,
      "rative": 4490,
      "Ġexamples": 4491,
      "Ġarrest": 4492,
      "Ġobtained": 4493,
      "ĠBer": 4494,
      "Ġfeature": 4495,
      "Ġsomebody": 4496,
      "Ġordinary": 4497,
      "Ġappreci": 4498,
      "bl": 4499,
      "Ġleaves": 4500,
      "Ġincreasingly": 4501,
      "Ġexperien": 4502,
      "aped": 4503,
      "urb": 4504,
      "Ġelements": 4505,
      "ĠKevin": 4506,
      "Ġinstitutions": 4507,
      "ĠLtd": 4508,
      "Ġattend": 4509,
      "overy": 4510,
      "Ġpal": 4511,
      "Ġchoose": 4512,
      "atically": 4513,
      "Ġpersu": 4514,
      "ĠHu": 4515,
      "eria": 4516,
      "Ġserved": 4517,
      "Ġcontain": 4518,
      "ĠClub": 4519,
      "Ġlatest": 4520,
      "Ġcorrespond": 4521,
      "ircraft": 4522,
      "Ġlose": 4523,
      "Ġidentified": 4524,
      "Ġfill": 4525,
      "Ġrelief": 4526,
      "Ġstret": 4527,
      "Ġwinter": 4528,
      "Ġinternal": 4529,
      "Ġprogrammes": 4530,
      "Ġtrial": 4531,
      "bon": 4532,
      "Ġdismiss": 4533,
      "Ġeth": 4534,
      "Ġfamous": 4535,
      "aud": 4536,
      "Ġunderst": 4537,
      "ĠCollege": 4538,
      "Ġdifficulty": 4539,
      "Ġstim": 4540,
      "Ġexcellent": 4541,
      "Ġdelight": 4542,
      "Ġreferred": 4543,
      "aken": 4544,
      "Ġfollows": 4545,
      "Ch": 4546,
      "Ġrefused": 4547,
      "Ġanimal": 4548,
      "EA": 4549,
      "Ġtalks": 4550,
      "Ġaward": 4551,
      "Ġweather": 4552,
      "Ġbattle": 4553,
      "ipped": 4554,
      "izing": 4555,
      "usi": 4556,
      "rible": 4557,
      "Ġfactor": 4558,
      "isher": 4559,
      "Ġreality": 4560,
      "amm": 4561,
      "down": 4562,
      "Ġaren": 4563,
      "Ġasking": 4564,
      "Ġfaith": 4565,
      "Ġsurpris": 4566,
      "bridge": 4567,
      "ĠVictor": 4568,
      "Ġwit": 4569,
      "Ġwhis": 4570,
      "Ġsave": 4571,
      "Ġearn": 4572,
      "IG": 4573,
      "Ġusers": 4574,
      "Ġpair": 4575,
      "Ġgar": 4576,
      "Ġwatched": 4577,
      "Ġegg": 4578,
      "Ġdiscovered": 4579,
      "Ġcoast": 4580,
      "Ġbuildings": 4581,
      "Ġseeing": 4582,
      "Ġtechnical": 4583,
      "Ġaccommod": 4584,
      "Ġbreath": 4585,
      "Ġscreen": 4586,
      "Ġtraffic": 4587,
      "Ġsomewhere": 4588,
      "ĠIrish": 4589,
      "Ġgrounds": 4590,
      "ĠCur": 4591,
      "Ġdiag": 4592,
      "ĠParis": 4593,
      "Ġassessment": 4594,
      "ronic": 4595,
      "Ġfinding": 4596,
      "ĠJapanese": 4597,
      "sell": 4598,
      "ĠRef": 4599,
      "Ġnoted": 4600,
      "Ġbath": 4601,
      "leen": 4602,
      "Ġideal": 4603,
      "Ġreplace": 4604,
      "Ġprecise": 4605,
      "ĠJon": 4606,
      "Ġautom": 4607,
      "ifying": 4608,
      "Ġcoffee": 4609,
      "Ġfashion": 4610,
      "ĠWind": 4611,
      "Erm": 4612,
      "Ġdefe": 4613,
      "Ġpension": 4614,
      "Ġentit": 4615,
      "Ġlegs": 4616,
      "Ġrelease": 4617,
      "hered": 4618,
      "ĠSue": 4619,
      "ĠIts": 4620,
      "Ġmm": 4621,
      "Ġfunds": 4622,
      "formation": 4623,
      "Ġrid": 4624,
      "Ġsick": 4625,
      "Ġraise": 4626,
      "Ġstarting": 4627,
      "Ġlit": 4628,
      "Ġonto": 4629,
      "Ġdetailed": 4630,
      "Ah": 4631,
      "Ġdriving": 4632,
      "Ġconscious": 4633,
      "Ġguarant": 4634,
      "Ġneither": 4635,
      "Ġsitu": 4636,
      "onom": 4637,
      "Ġmanner": 4638,
      "icket": 4639,
      "Ġchallenge": 4640,
      "ĠSur": 4641,
      "Ġbloody": 4642,
      "ĠHome": 4643,
      "Ġpp": 4644,
      "Ġkeeping": 4645,
      "Ġemer": 4646,
      "Ġreligious": 4647,
      "atre": 4648,
      "Ġfle": 4649,
      "inburgh": 4650,
      "Ġreasonable": 4651,
      "Ġadmitted": 4652,
      "ography": 4653,
      "Ġhyp": 4654,
      "Ġunable": 4655,
      "ĠJoan": 4656,
      "ĠMike": 4657,
      "ĠChristopher": 4658,
      "Ġheat": 4659,
      "Ġsubstantial": 4660,
      "rates": 4661,
      "ĠEach": 4662,
      "ams": 4663,
      "Ġpercent": 4664,
      "ĠNever": 4665,
      "Ġcultural": 4666,
      "Ġtree": 4667,
      "Ġcharges": 4668,
      "Ġjump": 4669,
      "Ġdeveloping": 4670,
      "aging": 4671,
      "war": 4672,
      "ĠCarl": 4673,
      "Ġmanufacture": 4674,
      "Ġthank": 4675,
      "Ġcrim": 4676,
      "Ġaffected": 4677,
      "ocal": 4678,
      "ĠResearch": 4679,
      "Ġdistrict": 4680,
      "Ġweap": 4681,
      "ĠChapter": 4682,
      "ented": 4683,
      "Ġwatching": 4684,
      "Ġbanks": 4685,
      "Ġelder": 4686,
      "Ġalright": 4687,
      "Ġmum": 4688,
      "Ġchanging": 4689,
      "Ġcong": 4690,
      "Ġwid": 4691,
      "Ġaccur": 4692,
      "Ġseat": 4693,
      "Ġattitude": 4694,
      "Ġweekend": 4695,
      "ĠJes": 4696,
      "Ġmarg": 4697,
      "athan": 4698,
      "Ġcompleted": 4699,
      "Ġaircraft": 4700,
      "ounds": 4701,
      "Ġfootball": 4702,
      "ander": 4703,
      "ilst": 4704,
      "ped": 4705,
      "Ġpicked": 4706,
      "Ġdig": 4707,
      "Ġlaid": 4708,
      "Ġreserv": 4709,
      "AY": 4710,
      "Ġregional": 4711,
      "Ġturning": 4712,
      "Ġtwelve": 4713,
      "Ġconstruct": 4714,
      "Ġrequirements": 4715,
      "rael": 4716,
      "Ġcounty": 4717,
      "Ġwalking": 4718,
      "Ġphilos": 4719,
      "Ġtwice": 4720,
      "ĠTrans": 4721,
      "Ġmurder": 4722,
      "Ġsuitable": 4723,
      "Ġacadem": 4724,
      "ĠEdinburgh": 4725,
      "Ġimmediate": 4726,
      "Ġarchitect": 4727,
      "Ġdistribution": 4728,
      "Ġrang": 4729,
      "aked": 4730,
      "Ġcalls": 4731,
      "Ġnation": 4732,
      "ĠIndeed": 4733,
      "igned": 4734,
      "Ġtelling": 4735,
      "itors": 4736,
      "Ġcommission": 4737,
      "Ġfundament": 4738,
      "Ġsigned": 4739,
      "ĠMond": 4740,
      "Ġmine": 4741,
      "stead": 4742,
      "ĠWel": 4743,
      "Ġrelax": 4744,
      "Ġtonight": 4745,
      "ila": 4746,
      "Ġincor": 4747,
      "Ġshut": 4748,
      "ĠFurther": 4749,
      "that": 4750,
      "standing": 4751,
      "Ġblock": 4752,
      "ĠBrown": 4753,
      "ĠJose": 4754,
      "eper": 4755,
      "rations": 4756,
      "raid": 4757,
      "ĠWood": 4758,
      "Ġunemployment": 4759,
      "Ġwine": 4760,
      "ulum": 4761,
      "Ġapplications": 4762,
      "Ġpapers": 4763,
      "ĠRod": 4764,
      "Ġhung": 4765,
      "abled": 4766,
      "Ġpurposes": 4767,
      "win": 4768,
      "ĠLeague": 4769,
      "Ġroute": 4770,
      "Ġthin": 4771,
      "Ġchosen": 4772,
      "Ġeasier": 4773,
      "Ġflight": 4774,
      "Ġcas": 4775,
      "ĠSomet": 4776,
      "Ġsuc": 4777,
      "Ġrelationships": 4778,
      "Ġclin": 4779,
      "ĠEv": 4780,
      "Ġremoved": 4781,
      "osc": 4782,
      "Ġlargest": 4783,
      "aven": 4784,
      "Ġought": 4785,
      "Ġlunch": 4786,
      "ĠDist": 4787,
      "Ġaccomp": 4788,
      "Ġofficials": 4789,
      "Ġconstruction": 4790,
      "Ġcapacity": 4791,
      "agues": 4792,
      "uting": 4793,
      "Ġstrategy": 4794,
      "Ġfed": 4795,
      "Ġdefined": 4796,
      "ortunately": 4797,
      "hand": 4798,
      "Ġentered": 4799,
      "Ġlie": 4800,
      "ĠKathleen": 4801,
      "utional": 4802,
      "Ġenthusi": 4803,
      "Ġselection": 4804,
      "Ġclasses": 4805,
      "iation": 4806,
      "Ġsubm": 4807,
      "venue": 4808,
      "Ġhappens": 4809,
      "Ġtechniques": 4810,
      "och": 4811,
      "wing": 4812,
      "ĠRuth": 4813,
      "ĠGree": 4814,
      "Ġmarkets": 4815,
      "ĠYour": 4816,
      "Ġmaster": 4817,
      "Ġexpensive": 4818,
      "iveness": 4819,
      "Ġinsurance": 4820,
      "uls": 4821,
      "Ġuser": 4822,
      "Ġcompon": 4823,
      "Ġissued": 4824,
      "ciples": 4825,
      "Ġwalls": 4826,
      "gie": 4827,
      "Ġship": 4828,
      "Ġbear": 4829,
      "Ġwidely": 4830,
      "Ġsho": 4831,
      "Ġvideo": 4832,
      "aug": 4833,
      "Ġcam": 4834,
      "kins": 4835,
      "Ġhomes": 4836,
      "ĠLy": 4837,
      "Ġmir": 4838,
      "ĠSandra": 4839,
      "AP": 4840,
      "eff": 4841,
      "ogue": 4842,
      "Ġjudge": 4843,
      "more": 4844,
      "Ġexecutive": 4845,
      "ĠBu": 4846,
      "edd": 4847,
      "Ġabsence": 4848,
      "Ġconvention": 4849,
      "Ġprofession": 4850,
      "Ġagricult": 4851,
      "All": 4852,
      "Ġplanned": 4853,
      "Ġrough": 4854,
      "ĠOver": 4855,
      "rab": 4856,
      "Ġdemands": 4857,
      "Ġthrow": 4858,
      "ĠKeith": 4859,
      "Ġpure": 4860,
      "Ġsentence": 4861,
      "Ġfourth": 4862,
      "ĠCentral": 4863,
      "Ġdinner": 4864,
      "asm": 4865,
      "Ġsites": 4866,
      "ĠBoard": 4867,
      "Ġrent": 4868,
      "Ġsymb": 4869,
      "rig": 4870,
      "icked": 4871,
      "Ġexpend": 4872,
      "Ġcarrying": 4873,
      "Ġpatterns": 4874,
      "Ġnecessarily": 4875,
      "Ġoffers": 4876,
      "zy": 4877,
      "Ġminister": 4878,
      "Ġchemical": 4879,
      "itiz": 4880,
      "Ġsuspect": 4881,
      "elled": 4882,
      "Ġequally": 4883,
      "Ġprofits": 4884,
      "UT": 4885,
      "ĠLiver": 4886,
      "Ġreaction": 4887,
      "Ġsupported": 4888,
      "Ġdivision": 4889,
      "ĠMajor": 4890,
      "Ġacid": 4891,
      "Ġwelcome": 4892,
      "Ġgrey": 4893,
      "Ġdistingu": 4894,
      "Ġregist": 4895,
      "Ġreplaced": 4896,
      "Ġsucceed": 4897,
      "outhern": 4898,
      "Ġrecommend": 4899,
      "ĠLou": 4900,
      "Ġcommitment": 4901,
      "Did": 4902,
      "mosp": 4903,
      "Ġhell": 4904,
      "pat": 4905,
      "Ġseek": 4906,
      "sex": 4907,
      "ĠCorp": 4908,
      "Ġoperations": 4909,
      "Ġafford": 4910,
      "ĠMem": 4911,
      "Ġtrib": 4912,
      "Ġcourts": 4913,
      "ait": 4914,
      "ĠDec": 4915,
      "Ġunderstood": 4916,
      "IM": 4917,
      "aling": 4918,
      "Ġgentle": 4919,
      "Ġarrangements": 4920,
      "Ġdropped": 4921,
      "Ġtotally": 4922,
      "Ġdrawing": 4923,
      "Ġrural": 4924,
      "Ġnotes": 4925,
      "ĠIB": 4926,
      "Ġfrequently": 4927,
      "ĠSch": 4928,
      "Ġrecognition": 4929,
      "agement": 4930,
      "known": 4931,
      "Ġperman": 4932,
      "Ġprove": 4933,
      "Ġrefere": 4934,
      "ĠCH": 4935,
      "itudes": 4936,
      "ĠHam": 4937,
      "Ġrevolution": 4938,
      "ĠEconom": 4939,
      "Ġhousehold": 4940,
      "Ġdealing": 4941,
      "Ġemployees": 4942,
      "Ġfurn": 4943,
      "oral": 4944,
      "Ġvent": 4945,
      "ĠCounty": 4946,
      "ĠRev": 4947,
      "mbly": 4948,
      "Ġoperating": 4949,
      "Ġclosely": 4950,
      "Ġunlikely": 4951,
      "essed": 4952,
      "Ġdiscipl": 4953,
      "ula": 4954,
      "Ġaccord": 4955,
      "oles": 4956,
      "Ġproperly": 4957,
      "Ġsad": 4958,
      "ibilities": 4959,
      "Ġlovely": 4960,
      "alle": 4961,
      "Ġbedroom": 4962,
      "Ġpackage": 4963,
      "Ġopportunities": 4964,
      "ĠSystem": 4965,
      "Ġconn": 4966,
      "rence": 4967,
      "zen": 4968,
      "ĠBro": 4969,
      "Ġmagaz": 4970,
      "Ġafraid": 4971,
      "Ġcrisis": 4972,
      "Ġadministration": 4973,
      "Ġinev": 4974,
      "Ġprocedure": 4975,
      "Ġselect": 4976,
      "Ġunivers": 4977,
      "Ġpictures": 4978,
      "pen": 4979,
      "lim": 4980,
      "Ġexperienced": 4981,
      "Ġlady": 4982,
      "ucking": 4983,
      "Ġopposite": 4984,
      "Ġdangerous": 4985,
      "ĠCom": 4986,
      "Ġatmosp": 4987,
      "Ġfingers": 4988,
      "Ġdesk": 4989,
      "ads": 4990,
      "Ġspring": 4991,
      "ĠStephen": 4992,
      "mm": 4993,
      "IR": 4994,
      "Ġseriously": 4995,
      "oo": 4996,
      "raq": 4997,
      "ĠDave": 4998,
      "aine": 4999,
      "Ġfocus": 5000,
      "olved": 5001,
      "Ġefforts": 5002,
      "oucester": 5003,
      "Ġeducational": 5004,
      "orter": 5005,
      "Ġsought": 5006,
      "Ġoccurred": 5007,
      "Ġdiet": 5008,
      "riculum": 5009,
      "Ġempty": 5010,
      "Ġprojects": 5011,
      "Ġsecretary": 5012,
      "Ġcolon": 5013,
      "When": 5014,
      "Ġisol": 5015,
      "ĠRussian": 5016,
      "ĠBarry": 5017,
      "ĠWho": 5018,
      "ĠDarlington": 5019,
      "abeth": 5020,
      "Ġuns": 5021,
      "Ġgrass": 5022,
      "Ġvital": 5023,
      "Ġflo": 5024,
      "rehens": 5025,
      "oking": 5026,
      "Ġlibrary": 5027,
      "ĠLiverpool": 5028,
      "ĠDef": 5029,
      "Ġeval": 5030,
      "idden": 5031,
      "Ġadopted": 5032,
      "actions": 5033,
      "wich": 5034,
      "Ġcritical": 5035,
      "enced": 5036,
      "ĠMad": 5037,
      "Ġorganization": 5038,
      "Ġboat": 5039,
      "idi": 5040,
      "Ġbirds": 5041,
      "ĠThree": 5042,
      "ĠMod": 5043,
      "Ġpartly": 5044,
      "ATION": 5045,
      "Ġfreedom": 5046,
      "Ġelections": 5047,
      "unched": 5048,
      "Ġfields": 5049,
      "Ġexpand": 5050,
      "Ġprocesses": 5051,
      "ĠService": 5052,
      "Ġgames": 5053,
      "Ġunp": 5054,
      "Ġmanagers": 5055,
      "Ġstrike": 5056,
      "CH": 5057,
      "with": 5058,
      "Ġintellig": 5059,
      "Ġsuffered": 5060,
      "Ġaudience": 5061,
      "Ġfile": 5062,
      "Ġprinciples": 5063,
      "Ġconfident": 5064,
      "ĠCong": 5065,
      "Ġended": 5066,
      "ĠInter": 5067,
      "ails": 5068,
      "Ġplayer": 5069,
      "gun": 5070,
      "Ġyouth": 5071,
      "Ġappearance": 5072,
      "OM": 5073,
      "Ġrepresented": 5074,
      "âĢ": 5075,
      "Ġadvance": 5076,
      "icip": 5077,
      "Ġpieces": 5078,
      "ĠEnd": 5079,
      "Ġmental": 5080,
      "ĠGary": 5081,
      "Ġviolence": 5082,
      "ĠSarah": 5083,
      "Ġemphasis": 5084,
      "Ġweren": 5085,
      "ĠYeah": 5086,
      "ĠBrenda": 5087,
      "rat": 5088,
      "Ġaband": 5089,
      "ĠLyn": 5090,
      "Ġrevealed": 5091,
      "Ġforgot": 5092,
      "unction": 5093,
      "Ġpil": 5094,
      "Ġcontribution": 5095,
      "Ġscientific": 5096,
      "new": 5097,
      "Ġconsideration": 5098,
      "Ġuses": 5099,
      "ĠCarol": 5100,
      "Ġselling": 5101,
      "Ġliked": 5102,
      "ensions": 5103,
      "Ġdesire": 5104,
      "Ġmoral": 5105,
      "Ġruns": 5106,
      "ĠDespite": 5107,
      "Ġdie": 5108,
      "Ġvictory": 5109,
      "Ġexpenditure": 5110,
      "Now": 5111,
      "orses": 5112,
      "ĠForeign": 5113,
      "Ġelected": 5114,
      "ĠPri": 5115,
      "ĠFriday": 5116,
      "Ġextended": 5117,
      "Ġcommunication": 5118,
      "ĠMill": 5119,
      "Ġcommitted": 5120,
      "Ġimagine": 5121,
      "Ġwindows": 5122,
      "Ġtow": 5123,
      "ĠThose": 5124,
      "Ġindex": 5125,
      "Ġlearned": 5126,
      "ĠMet": 5127,
      "quiry": 5128,
      "Ġguid": 5129,
      "Ġdestroy": 5130,
      "Ġgain": 5131,
      "Ġcool": 5132,
      "embered": 5133,
      "ĠManc": 5134,
      "Ġcolleagues": 5135,
      "lease": 5136,
      "ĠConservative": 5137,
      "Ġsharp": 5138,
      "ĠIsrael": 5139,
      "uties": 5140,
      "Ġsounds": 5141,
      "ey": 5142,
      "Ġwealth": 5143,
      "ĠPet": 5144,
      "Ġdrop": 5145,
      "Ġintention": 5146,
      "Ġtill": 5147,
      "vation": 5148,
      "urd": 5149,
      "Ġroy": 5150,
      "Ġsquare": 5151,
      "ocracy": 5152,
      "cknow": 5153,
      "Ġfunctions": 5154,
      "ĠDevelop": 5155,
      "Ġfighting": 5156,
      "iel": 5157,
      "ionship": 5158,
      "ĠSteve": 5159,
      "ront": 5160,
      "ĠPen": 5161,
      "Ġrepeated": 5162,
      "lls": 5163,
      "Ġremaining": 5164,
      "Ġdomin": 5165,
      "Ġnerv": 5166,
      "ĠJesus": 5167,
      "inent": 5168,
      "Ġstated": 5169,
      "Ġadjust": 5170,
      "alt": 5171,
      "Ġbroke": 5172,
      "Ġterrit": 5173,
      "iring": 5174,
      "Ġpayment": 5175,
      "orters": 5176,
      "tes": 5177,
      "Ġhero": 5178,
      "ĠFre": 5179,
      "Ġowner": 5180,
      "Ġnodd": 5181,
      "Ġvast": 5182,
      "Ġwest": 5183,
      "ĠDiv": 5184,
      "ĠCast": 5185,
      "Ġfeelings": 5186,
      "ĠIraq": 5187,
      "ĠFOR": 5188,
      "Ġfinance": 5189,
      "illy": 5190,
      "ĠJoseph": 5191,
      "Ġkiss": 5192,
      "hetic": 5193,
      "Ġbeside": 5194,
      "Ġlies": 5195,
      "Ġrecognised": 5196,
      "Ġspokes": 5197,
      "Ġprocedures": 5198,
      "Ġexcess": 5199,
      "Ġwilling": 5200,
      "owed": 5201,
      "ĠEliz": 5202,
      "can": 5203,
      "Ġreplied": 5204,
      "Ġrequires": 5205,
      "Ġelsewhere": 5206,
      "Ġsilence": 5207,
      "Ġroof": 5208,
      "Ġconversation": 5209,
      "bb": 5210,
      "ĠEs": 5211,
      "Ġrooms": 5212,
      "Ġarticle": 5213,
      "Ġstro": 5214,
      "ora": 5215,
      "Ġdelay": 5216,
      "Ġtape": 5217,
      "omin": 5218,
      "Ġdaily": 5219,
      "Ġborrow": 5220,
      "ĠUSA": 5221,
      "Ġoption": 5222,
      "ĠDen": 5223,
      "Ġvan": 5224,
      "Ġacknow": 5225,
      "As": 5226,
      "Ġhearing": 5227,
      "ureau": 5228,
      "Ġmeetings": 5229,
      "itely": 5230,
      "Ġsav": 5231,
      "ana": 5232,
      "ns": 5233,
      "ĠTur": 5234,
      "Ġheight": 5235,
      "ĠFar": 5236,
      "Ġisland": 5237,
      "Ġtall": 5238,
      "Ġvolume": 5239,
      "Ġsport": 5240,
      "ette": 5241,
      "Ġalloc": 5242,
      "Ġemployed": 5243,
      "Ġsurprised": 5244,
      "lets": 5245,
      "ada": 5246,
      "Ġreleased": 5247,
      "elling": 5248,
      "Ġhistorical": 5249,
      "Ġremembered": 5250,
      "ĠWed": 5251,
      "Ġble": 5252,
      "Ġpock": 5253,
      "Where": 5254,
      "Ġintroduction": 5255,
      "Ġroyal": 5256,
      "Ġefficient": 5257,
      "Ġordered": 5258,
      "Ġspeaking": 5259,
      "Ġobserved": 5260,
      "abor": 5261,
      "Ġattractive": 5262,
      "Ġtiny": 5263,
      "Ġfro": 5264,
      "Ġdisappoint": 5265,
      "Ġbrain": 5266,
      "ĠAir": 5267,
      "Ġlisten": 5268,
      "ĠKingdom": 5269,
      "Ġfilled": 5270,
      "itz": 5271,
      "Ġmodels": 5272,
      "quar": 5273,
      "Ġheads": 5274,
      "Ġyounger": 5275,
      "Ġdrug": 5276,
      "Ġfault": 5277,
      "Ġoutl": 5278,
      "rum": 5279,
      "ĠMonday": 5280,
      "ĠItalian": 5281,
      "Ġenorm": 5282,
      "operation": 5283,
      "Ġeast": 5284,
      "Ġeffectively": 5285,
      "Ġencourage": 5286,
      "ĠLa": 5287,
      "ĠCompany": 5288,
      "Ġflowers": 5289,
      "uable": 5290,
      "eration": 5291,
      "Ġrein": 5292,
      "Ġnoticed": 5293,
      "ĠSl": 5294,
      "Ġunus": 5295,
      "Ġreck": 5296,
      "ourse": 5297,
      "Ġserve": 5298,
      "Ġequival": 5299,
      "ĠChild": 5300,
      "ĠMaggie": 5301,
      "Ġbrown": 5302,
      "Ġenjoyed": 5303,
      "Ġhoped": 5304,
      "Ġconstant": 5305,
      "Ġgreatest": 5306,
      "ĠIBM": 5307,
      "Al": 5308,
      "Ġcentres": 5309,
      "Ġshared": 5310,
      "ĠGold": 5311,
      "Ġshops": 5312,
      "ĠItaly": 5313,
      "Ġwitness": 5314,
      "Ġdrugs": 5315,
      "Ġentitled": 5316,
      "ĠElizabeth": 5317,
      "ĠLib": 5318,
      "Ġbillion": 5319,
      "Can": 5320,
      "Ġoffering": 5321,
      "Ġsets": 5322,
      "Ġurban": 5323,
      "Ġschemes": 5324,
      "Ġplate": 5325,
      "alling": 5326,
      "ĠBir": 5327,
      "osis": 5328,
      "Ġdepos": 5329,
      "Ġabsolutely": 5330,
      "ching": 5331,
      "Ġokay": 5332,
      "Mr": 5333,
      "Ġworst": 5334,
      "Ġconnection": 5335,
      "Ġcontinuing": 5336,
      "ĠRel": 5337,
      "Ġrailway": 5338,
      "Ġpleasure": 5339,
      "Ġthousands": 5340,
      "ords": 5341,
      "Ġwhereas": 5342,
      "Ġdriver": 5343,
      "gu": 5344,
      "ĠSusan": 5345,
      "Ġpartner": 5346,
      "Ġpray": 5347,
      "ĠEnvironment": 5348,
      "TS": 5349,
      "Ġalt": 5350,
      "Ġhighest": 5351,
      "Ġeverybody": 5352,
      "Ġentry": 5353,
      "iments": 5354,
      "Ġadequ": 5355,
      "Ġconfirmed": 5356,
      "ĠEvelyn": 5357,
      "Ġcook": 5358,
      "ĠHot": 5359,
      "Ġstore": 5360,
      "Ġorders": 5361,
      "Ġfrag": 5362,
      "Ġfundamental": 5363,
      "Ġfacts": 5364,
      "Ġidentify": 5365,
      "ĠMus": 5366,
      "Ġmaximum": 5367,
      "ĠManchester": 5368,
      "Ġbusy": 5369,
      "usive": 5370,
      "ĠChair": 5371,
      "Ġtrend": 5372,
      "Ġreduction": 5373,
      "Ġflex": 5374,
      "Ġlect": 5375,
      "ĠJoyce": 5376,
      "Ġpurs": 5377,
      "isa": 5378,
      "ĠAccording": 5379,
      "Ġwear": 5380,
      "Ġjourney": 5381,
      "which": 5382,
      "Ġcontained": 5383,
      "Ġcapable": 5384,
      "ĠBefore": 5385,
      "ola": 5386,
      "chers": 5387,
      "ĠMid": 5388,
      "ache": 5389,
      "Ġsurprise": 5390,
      "ĠProfess": 5391,
      "Ġcareful": 5392,
      "ĠJew": 5393,
      "Ġaccused": 5394,
      "Who": 5395,
      "iciency": 5396,
      "Ġorganisations": 5397,
      "Ġcrack": 5398,
      "pet": 5399,
      "Ġpleased": 5400,
      "roat": 5401,
      "Ġminimum": 5402,
      "path": 5403,
      "range": 5404,
      "wick": 5405,
      "Ġattempts": 5406,
      "ĠAustralia": 5407,
      "annel": 5408,
      "ĠDou": 5409,
      "Ġdepends": 5410,
      "Ġguide": 5411,
      "century": 5412,
      "spe": 5413,
      "Ġwider": 5414,
      "Ġadapt": 5415,
      "Ġcheap": 5416,
      "ker": 5417,
      "ĠDel": 5418,
      "Ġincorpor": 5419,
      "roud": 5420,
      "Ġestimated": 5421,
      "ĠIndust": 5422,
      "vy": 5423,
      "onn": 5424,
      "ooth": 5425,
      "Ġshock": 5426,
      "Ġjournal": 5427,
      "ĠInstitute": 5428,
      "Ġshook": 5429,
      "Ġice": 5430,
      "Ġbare": 5431,
      "Ġhat": 5432,
      "Ġsecure": 5433,
      "ĠWater": 5434,
      "Ġenable": 5435,
      "ĠMum": 5436,
      "Ġdevelopments": 5437,
      "Ġnegative": 5438,
      "Ġscore": 5439,
      "Good": 5440,
      "Ġmotion": 5441,
      "Ġadvis": 5442,
      "rating": 5443,
      "Ġactions": 5444,
      "Ġrealised": 5445,
      "aph": 5446,
      "ĠHarry": 5447,
      "gest": 5448,
      "Ġhom": 5449,
      "Ġmembership": 5450,
      "Ġatmosphere": 5451,
      "Ġgoals": 5452,
      "Ġliqu": 5453,
      "ĠHill": 5454,
      "Ġsolid": 5455,
      "Ġinvestigation": 5456,
      "Ġgraph": 5457,
      "Ġelderly": 5458,
      "rust": 5459,
      "Ġvary": 5460,
      "Ġapproved": 5461,
      "Ġgeneration": 5462,
      "rison": 5463,
      "Ġuncertain": 5464,
      "uine": 5465,
      "CE": 5466,
      "Ġsir": 5467,
      "icians": 5468,
      "Ġmilk": 5469,
      "Ġunique": 5470,
      "Ġpenal": 5471,
      "Ġbranch": 5472,
      "Ġfellow": 5473,
      "ints": 5474,
      "ĠRepublic": 5475,
      "vest": 5476,
      "ĠJackie": 5477,
      "ushing": 5478,
      "Ġcitiz": 5479,
      "imal": 5480,
      "Ġsole": 5481,
      "Ġfruit": 5482,
      "under": 5483,
      "OP": 5484,
      "ĠNic": 5485,
      "Ġwearing": 5486,
      "Ġsweet": 5487,
      "Ġcharged": 5488,
      "Ġdesper": 5489,
      "Ġmetal": 5490,
      "rep": 5491,
      "Ġrare": 5492,
      "Ġaffairs": 5493,
      "Ġbomb": 5494,
      "ĠDun": 5495,
      "Ġfright": 5496,
      "Ġpushed": 5497,
      "ĠAgain": 5498,
      "ĠSing": 5499,
      "inct": 5500,
      "apes": 5501,
      "ST": 5502,
      "pire": 5503,
      "Ġdetect": 5504,
      "Ġalle": 5505,
      "?\"": 5506,
      "Ġestate": 5507,
      "Ġtrip": 5508,
      "Ġshoulder": 5509,
      "Ġphr": 5510,
      "ĠChina": 5511,
      "Ġexhibition": 5512,
      "Ġded": 5513,
      "Ġexternal": 5514,
      "pective": 5515,
      "Ġpra": 5516,
      "Ġresident": 5517,
      "akers": 5518,
      "Ġscar": 5519,
      "oret": 5520,
      "pton": 5521,
      "Ġvalid": 5522,
      "Ġrestaur": 5523,
      "Ġfifteen": 5524,
      "Ġliterature": 5525,
      "Ġimproved": 5526,
      "Are": 5527,
      "Ġcro": 5528,
      "Ġupper": 5529,
      "Ġlean": 5530,
      "Ġsigns": 5531,
      "Ġbringing": 5532,
      "ĠJulie": 5533,
      "ĠHugh": 5534,
      "bled": 5535,
      "Ġdescription": 5536,
      "Ġkinds": 5537,
      "Ġlips": 5538,
      "Ġsignificance": 5539,
      "Ġclients": 5540,
      "Ġnodded": 5541,
      "Ġleadership": 5542,
      "Ġswim": 5543,
      "Ġtack": 5544,
      "ĠEll": 5545,
      "Ġinjury": 5546,
      "ĠCat": 5547,
      "ĠLand": 5548,
      "osure": 5549,
      "Ġdecline": 5550,
      "Ġdefinition": 5551,
      "Ġhorses": 5552,
      "Ġexplanation": 5553,
      "eath": 5554,
      "Ġplain": 5555,
      "Ġtroops": 5556,
      "Ġsixty": 5557,
      "CC": 5558,
      "Ġphen": 5559,
      "Ġconce": 5560,
      "ĠDay": 5561,
      "point": 5562,
      "vention": 5563,
      "ĠWhe": 5564,
      "ĠJonathan": 5565,
      "Ġhurt": 5566,
      "ĠAlso": 5567,
      "Ġsust": 5568,
      "Ġmicro": 5569,
      "Ġshoot": 5570,
      "ĠPrince": 5571,
      "ĠLeeds": 5572,
      "Ġstreets": 5573,
      "Ġbiggest": 5574,
      "rier": 5575,
      "ĠBBC": 5576,
      "Ġsimpl": 5577,
      "Ġdeliber": 5578,
      "ĠPolice": 5579,
      "ĠRail": 5580,
      "Ġincident": 5581,
      "Ġpoet": 5582,
      "Ġgrown": 5583,
      "Ġattitudes": 5584,
      "Ġrequest": 5585,
      "Ġpaying": 5586,
      "Ġloved": 5587,
      "Ġstrongly": 5588,
      "Ġinflation": 5589,
      "Ġreaders": 5590,
      "clock": 5591,
      "uit": 5592,
      "Ġcontains": 5593,
      "ĠCabinet": 5594,
      "gn": 5595,
      "Ġnamed": 5596,
      "erous": 5597,
      "Ġshad": 5598,
      "Ġrising": 5599,
      "Ġseeking": 5600,
      "Ġpassing": 5601,
      "ellect": 5602,
      "Ġcompens": 5603,
      "Ġmonitor": 5604,
      "ĠBook": 5605,
      "icks": 5606,
      "ĠDid": 5607,
      "Ġseats": 5608,
      "stairs": 5609,
      "Ġfavourite": 5610,
      "otic": 5611,
      "ios": 5612,
      "Ġmob": 5613,
      "Ġrapidly": 5614,
      "uters": 5615,
      "Ġgenuine": 5616,
      "Ġneighbour": 5617,
      "Ġenh": 5618,
      "ĠUs": 5619,
      "Ġenem": 5620,
      "Ġrot": 5621,
      "Ġfly": 5622,
      "ouncill": 5623,
      "Ġreact": 5624,
      "writ": 5625,
      "Ġcontrolled": 5626,
      "ĠIndia": 5627,
      "oked": 5628,
      "Ġnineteen": 5629,
      "Ġsample": 5630,
      "Ġtests": 5631,
      "icy": 5632,
      "Ġacademic": 5633,
      "prise": 5634,
      "coh": 5635,
      "Ġfal": 5636,
      "utory": 5637,
      "Ġmachines": 5638,
      "rill": 5639,
      "Ġuniversity": 5640,
      "Ġgranted": 5641,
      "era": 5642,
      "orial": 5643,
      "Ġprotest": 5644,
      "worth": 5645,
      "Ġsch": 5646,
      "ulating": 5647,
      "kin": 5648,
      "ugg": 5649,
      "aughed": 5650,
      "bel": 5651,
      "wide": 5652,
      "met": 5653,
      "she": 5654,
      "ĠDa": 5655,
      "Ġninety": 5656,
      "Ġteeth": 5657,
      "Ġbread": 5658,
      "Ġattrib": 5659,
      "Ġacting": 5660,
      "Ġencouraged": 5661,
      "ĠAfrican": 5662,
      "aser": 5663,
      "Ġlaughed": 5664,
      "Ġguard": 5665,
      "ĠNick": 5666,
      "Ġconcer": 5667,
      "ĠSupp": 5668,
      "anna": 5669,
      "Ġdraft": 5670,
      "Ġhonest": 5671,
      "Ġradical": 5672,
      "ĠRog": 5673,
      "Ġswitch": 5674,
      "Ġfalling": 5675,
      "ĠTechn": 5676,
      "Ġbeneath": 5677,
      "gow": 5678,
      "Ġtail": 5679,
      "pm": 5680,
      "Ġcolumn": 5681,
      "ĠNi": 5682,
      "Ġplenty": 5683,
      "Ġourselves": 5684,
      "uate": 5685,
      "Ġdat": 5686,
      "Ġwondered": 5687,
      "Ġpool": 5688,
      "ĠSP": 5689,
      "Ġdoors": 5690,
      "gent": 5691,
      "rine": 5692,
      "Ġsmell": 5693,
      "Ġsli": 5694,
      "ĠConst": 5695,
      "ino": 5696,
      "ĠChe": 5697,
      "Ġstories": 5698,
      "Ġexamination": 5699,
      "aren": 5700,
      "Ġcreation": 5701,
      "Ġcauses": 5702,
      "Ġconver": 5703,
      "IP": 5704,
      "Ġlaunched": 5705,
      "Ġmanage": 5706,
      "Ġcurriculum": 5707,
      "ĠGloucester": 5708,
      "Ġsomewhat": 5709,
      "ĠYorkshire": 5710,
      "inese": 5711,
      "Ġcriticism": 5712,
      "ĠMic": 5713,
      "EW": 5714,
      "ĠJones": 5715,
      "rous": 5716,
      "osa": 5717,
      "Ġescape": 5718,
      "Ġdeclared": 5719,
      "isms": 5720,
      "ĠFigure": 5721,
      "Ġtechnique": 5722,
      "Ġtransl": 5723,
      "Ġsevere": 5724,
      "ERS": 5725,
      "Ġassociation": 5726,
      "Ġmad": 5727,
      "Ġwhilst": 5728,
      "Ġentertain": 5729,
      "ĠBern": 5730,
      "Ġrational": 5731,
      "ĠDevelopment": 5732,
      "Ġnewspaper": 5733,
      "Ġfarmers": 5734,
      "ordon": 5735,
      "hab": 5736,
      "inding": 5737,
      "Ġconclusion": 5738,
      "Ġcloser": 5739,
      "Ġgaz": 5740,
      "Ġwonderful": 5741,
      "Ġvac": 5742,
      "ude": 5743,
      "Ġimplications": 5744,
      "Ġaged": 5745,
      "Ġwet": 5746,
      "Ġdust": 5747,
      "eding": 5748,
      "Ġgrew": 5749,
      "Ġstructures": 5750,
      "Ġanaly": 5751,
      "Ġsettlement": 5752,
      "Ġdrew": 5753,
      "Ġworried": 5754,
      "Ġancient": 5755,
      "Ġoverl": 5756,
      "Ġretire": 5757,
      "Ġimpression": 5758,
      "AG": 5759,
      "Ġindicated": 5760,
      "ĠLIF": 5761,
      "Ġlaws": 5762,
      "Ġcomprehens": 5763,
      "Ġphase": 5764,
      "Ġpractices": 5765,
      "iddles": 5766,
      "race": 5767,
      "Ġobjects": 5768,
      "holders": 5769,
      "Ġcrucial": 5770,
      "Ġrob": 5771,
      "ĠTrust": 5772,
      "Sh": 5773,
      "sm": 5774,
      "asy": 5775,
      "Ġtypical": 5776,
      "utation": 5777,
      "Ġconven": 5778,
      "Ġexplo": 5779,
      "Ġpurchase": 5780,
      "Ġdiscover": 5781,
      "Ġsurely": 5782,
      "Ġretain": 5783,
      "Ġhappening": 5784,
      "ĠOut": 5785,
      "Ġcombination": 5786,
      "Ġconsequences": 5787,
      "Ġbond": 5788,
      "ella": 5789,
      "Ġpayments": 5790,
      "Ġunre": 5791,
      "Ġtemperature": 5792,
      "ĠCle": 5793,
      "Ġdocuments": 5794,
      "Ġequivalent": 5795,
      "don": 5796,
      "Ġanybody": 5797,
      "ĠSpain": 5798,
      "Ġtun": 5799,
      "ĠWednes": 5800,
      "iform": 5801,
      "Ġhabit": 5802,
      "ĠArmy": 5803,
      "Ġsecondary": 5804,
      "Ġfaces": 5805,
      "Ġbid": 5806,
      "ĠGlas": 5807,
      "Ġcontracts": 5808,
      "Ġnoise": 5809,
      "Ġdivided": 5810,
      "amber": 5811,
      "Ġyellow": 5812,
      "ilty": 5813,
      "ĠGall": 5814,
      "Ġknowing": 5815,
      "ESP": 5816,
      "anda": 5817,
      "ĠUnix": 5818,
      "tion": 5819,
      "ĠMarx": 5820,
      "Ġvisitors": 5821,
      "ĠRad": 5822,
      "illing": 5823,
      "ĠCongress": 5824,
      "Ġmarketing": 5825,
      "Ġtone": 5826,
      "Ġchest": 5827,
      "Ġsections": 5828,
      "Ġthanks": 5829,
      "Ġdoll": 5830,
      "ifications": 5831,
      "Ġstrict": 5832,
      "Ġsky": 5833,
      "atively": 5834,
      "For": 5835,
      "Okay": 5836,
      "Ġintellect": 5837,
      "ĠLew": 5838,
      "ĠLast": 5839,
      "Ġconstitu": 5840,
      "making": 5841,
      "Ġbuying": 5842,
      "Ġcustomer": 5843,
      "UL": 5844,
      "Ġhunt": 5845,
      "Ġdeleg": 5846,
      "Ġassumed": 5847,
      "Ġhole": 5848,
      "Ġlying": 5849,
      "Ġsilver": 5850,
      "Ġcolours": 5851,
      "ĠRac": 5852,
      "Ġperfectly": 5853,
      "Ġopposed": 5854,
      "Ġstruggle": 5855,
      "ĠGen": 5856,
      "Ġinner": 5857,
      "rical": 5858,
      "Ġlinked": 5859,
      "ĠPhilip": 5860,
      "Ġthoughts": 5861,
      "bre": 5862,
      "Ġpasseng": 5863,
      "Ġveget": 5864,
      "umber": 5865,
      "Ġpa": 5866,
      "asks": 5867,
      "Ġvia": 5868,
      "cont": 5869,
      "eping": 5870,
      "ĠBus": 5871,
      "ogether": 5872,
      "Ġargue": 5873,
      "Ġassets": 5874,
      "Ġreli": 5875,
      "Ġlawy": 5876,
      "ĠTerry": 5877,
      "swe": 5878,
      "Ġtrading": 5879,
      "usal": 5880,
      "ĠChief": 5881,
      "Fig": 5882,
      "ĠAlbert": 5883,
      ".:": 5884,
      "ĠFinally": 5885,
      "Ġagency": 5886,
      "Ġinvited": 5887,
      "Ġbadly": 5888,
      "Ġdu": 5889,
      "ĠTimes": 5890,
      "ĠTown": 5891,
      "Ġsequence": 5892,
      "vin": 5893,
      "Ġnose": 5894,
      "Ġsnow": 5895,
      "Ġfab": 5896,
      "Ġfasc": 5897,
      "Ġfinish": 5898,
      "Ġmovements": 5899,
      "Ġmeal": 5900,
      "ĠIndian": 5901,
      "Ġfur": 5902,
      "Ġmassive": 5903,
      "ĠLat": 5904,
      "Ġwheel": 5905,
      "Ġobjectives": 5906,
      "ĠPlan": 5907,
      "Ġvisited": 5908,
      "Ġnineteenth": 5909,
      "Ġprincipal": 5910,
      "ĠWelsh": 5911,
      "Ġincreases": 5912,
      "Ġterrible": 5913,
      "Ġobjective": 5914,
      "ĠFrancis": 5915,
      "ĠTable": 5916,
      "Ġspons": 5917,
      "ĠRussia": 5918,
      "Ġinvolving": 5919,
      "Ġgovernments": 5920,
      "Ġorganiz": 5921,
      "Ġlinks": 5922,
      "Ġstared": 5923,
      "ington": 5924,
      "inda": 5925,
      "Ġlights": 5926,
      "ĠFour": 5927,
      "Ġsmooth": 5928,
      "Ġpeas": 5929,
      "Ġjustice": 5930,
      "Ġappointment": 5931,
      "Ġbridge": 5932,
      "stone": 5933,
      "Ġtalked": 5934,
      "Ġcombined": 5935,
      "Ġinterpretation": 5936,
      "ĠAc": 5937,
      "ĠGard": 5938,
      "Ġblow": 5939,
      "inter": 5940,
      "ĠMuseum": 5941,
      "Ġflu": 5942,
      "Ġfactory": 5943,
      "chang": 5944,
      "Just": 5945,
      "Ġfaced": 5946,
      "ture": 5947,
      "ĠSil": 5948,
      "itar": 5949,
      "Ġwarning": 5950,
      "cipl": 5951,
      "Ġcloud": 5952,
      "Ġsuffering": 5953,
      "Ġeighty": 5954,
      "Ġstayed": 5955,
      "iders": 5956,
      "Ġbrand": 5957,
      "Ġdescribe": 5958,
      "ĠGeoffrey": 5959,
      "ĠDate": 5960,
      "arrass": 5961,
      "Ġinput": 5962,
      "Ġreply": 5963,
      "ĠJoe": 5964,
      "Ġvision": 5965,
      "Ġcontrols": 5966,
      "Ġpages": 5967,
      "Ġproposal": 5968,
      "Â°": 5969,
      "orne": 5970,
      "Ġallowing": 5971,
      "ĠNevertheless": 5972,
      "ĠDivision": 5973,
      "Ġallows": 5974,
      "Ġpermanent": 5975,
      "Ġfuel": 5976,
      "olar": 5977,
      "Ġcrew": 5978,
      "ĠIT": 5979,
      "Ġvirtually": 5980,
      "Ġsubsequent": 5981,
      "AD": 5982,
      "Ġunions": 5983,
      "Ġcalling": 5984,
      "law": 5985,
      "ĠChinese": 5986,
      "Ġinvolves": 5987,
      "Ġwithdraw": 5988,
      "ĠDev": 5989,
      "ĠMartine": 5990,
      "Ġcontrovers": 5991,
      "Ġcriminal": 5992,
      "ĠWednesday": 5993,
      "Ġsam": 5994,
      "ĠGlasgow": 5995,
      "rary": 5996,
      "elly": 5997,
      "Ġblind": 5998,
      "Ġcatal": 5999,
      "Ġ#": 6000,
      "Ġsheet": 6001,
      "Ġinvolvement": 6002,
      "amic": 6003,
      "Ġpromised": 6004,
      "ria": 6005,
      "Ġglad": 6006,
      "Ġsan": 6007,
      "Ġhelping": 6008,
      "ĠGrand": 6009,
      "Ġtired": 6010,
      "Ġmanufacturing": 6011,
      "ulous": 6012,
      "Ġends": 6013,
      "ĠCass": 6014,
      "Ġimper": 6015,
      "ologists": 6016,
      "Ġ=": 6017,
      "Ġflying": 6018,
      "ĠInstead": 6019,
      "ĠNich": 6020,
      "Ġselected": 6021,
      "Ġcontemporary": 6022,
      "ĠMiddles": 6023,
      "Ġseconds": 6024,
      "ĠPublic": 6025,
      "ĠAndy": 6026,
      "Ġplaint": 6027,
      "Ġbrill": 6028,
      "Ġadvertising": 6029,
      "aylor": 6030,
      "ĠLee": 6031,
      "Ġmaintained": 6032,
      "Ġcere": 6033,
      "Ġbegun": 6034,
      "Ġhasn": 6035,
      "ĠTerence": 6036,
      "ym": 6037,
      "Ġregions": 6038,
      "Ġaims": 6039,
      "Ġdistinction": 6040,
      "AF": 6041,
      "Ġmixed": 6042,
      "Ġdepth": 6043,
      "Ġparalle": 6044,
      "Ġlistening": 6045,
      "Ġbehalf": 6046,
      "Ġcontaining": 6047,
      "Ġwelf": 6048,
      "Ġadvanced": 6049,
      "Ġcities": 6050,
      "Ġstages": 6051,
      "ĠStand": 6052,
      "Ġabsor": 6053,
      "Ġgast": 6054,
      "edy": 6055,
      "Ġhopes": 6056,
      "Ġrarely": 6057,
      "Ġamongst": 6058,
      "Ġjack": 6059,
      "rees": 6060,
      "Ġassistance": 6061,
      "Ġvehicle": 6062,
      "Ġalleged": 6063,
      "ĠArab": 6064,
      "Ġneare": 6065,
      "Ġagent": 6066,
      "Ġindicate": 6067,
      "Ġpu": 6068,
      "Ġstruck": 6069,
      "Ġmissed": 6070,
      "Ġenormous": 6071,
      "tenance": 6072,
      "Ġbreakfast": 6073,
      "Ġplat": 6074,
      "ĠUl": 6075,
      "Ġlots": 6076,
      "Ġtowns": 6077,
      "Ġwelfare": 6078,
      "Ġsoil": 6079,
      "Ġpassage": 6080,
      "Ġtal": 6081,
      "Ġmedium": 6082,
      "Ġguilty": 6083,
      "Ġsession": 6084,
      "urally": 6085,
      "Ġshel": 6086,
      "aved": 6087,
      "Ġoperate": 6088,
      "Ġfunding": 6089,
      "itis": 6090,
      "tery": 6091,
      "ĠHead": 6092,
      "Ġlandsc": 6093,
      "Ġ+": 6094,
      "ograp": 6095,
      "Ġembarrass": 6096,
      "Ġsympt": 6097,
      "Ġcorporate": 6098,
      "ĠSqu": 6099,
      "Ġoffices": 6100,
      "Ġsynt": 6101,
      "ĠAdam": 6102,
      "ĠAS": 6103,
      "oz": 6104,
      "Ġsac": 6105,
      "issions": 6106,
      "Thank": 6107,
      "Ġproducing": 6108,
      "inating": 6109,
      "Ġcig": 6110,
      "ĠYoung": 6111,
      "Ġindependence": 6112,
      "Ġcomplain": 6113,
      "Ġheavily": 6114,
      "ĠLes": 6115,
      "Ġcollege": 6116,
      "Ġmissing": 6117,
      "Ġconsidering": 6118,
      "Ġbottle": 6119,
      "uts": 6120,
      "Ġbureau": 6121,
      "Ġwinning": 6122,
      "ĠJud": 6123,
      "bal": 6124,
      "ĠPC": 6125,
      "Ġsettled": 6126,
      "Ġeating": 6127,
      "Ġunw": 6128,
      "Ġnorthern": 6129,
      "ĠChamp": 6130,
      "Ġdatab": 6131,
      "Ġplastic": 6132,
      "Ġleads": 6133,
      "ĠDirector": 6134,
      "Ġphenomen": 6135,
      "cript": 6136,
      "Ġmultip": 6137,
      "oday": 6138,
      "Ġward": 6139,
      "Ġalive": 6140,
      "fe": 6141,
      "Ġcode": 6142,
      "Ġperiods": 6143,
      "Ġaccommodation": 6144,
      "Ġprovisions": 6145,
      "Ġstatements": 6146,
      "Ġkeen": 6147,
      "Ġtransm": 6148,
      "ĠGordon": 6149,
      "ras": 6150,
      "UC": 6151,
      "Ġlift": 6152,
      "Ġarranged": 6153,
      "Ġpositions": 6154,
      "Ġpainting": 6155,
      "crib": 6156,
      "Ġpresum": 6157,
      "Ġtaste": 6158,
      "ĠGill": 6159,
      "Ġcart": 6160,
      "Ġunusual": 6161,
      "Ġcontinues": 6162,
      "Ġthreatened": 6163,
      "Ġalcoh": 6164,
      "Ġshift": 6165,
      "Ġcope": 6166,
      "Ġspecialist": 6167,
      "ĠAuthor": 6168,
      "Ġbelieves": 6169,
      "Ġtub": 6170,
      "ĠJen": 6171,
      "Ġaccompan": 6172,
      "Ġglob": 6173,
      "ĠBetty": 6174,
      "ĠSpan": 6175,
      "Ġacquired": 6176,
      "Ġfool": 6177,
      "Ġexpans": 6178,
      "Ġsignificantly": 6179,
      "Ġgram": 6180,
      "ĠTw": 6181,
      "Ġcomments": 6182,
      "erted": 6183,
      "Ġoriginally": 6184,
      "Ġsemi": 6185,
      "Ġsocieties": 6186,
      "ĠArch": 6187,
      "Ġimprovement": 6188,
      "rance": 6189,
      "Ġreflected": 6190,
      "Ġow": 6191,
      "Ġx": 6192,
      "ĠLady": 6193,
      "Ġassume": 6194,
      "Ġproceedings": 6195,
      "Ġvisual": 6196,
      "Ġemployers": 6197,
      "Ġpin": 6198,
      "Ġextensive": 6199,
      "utch": 6200,
      "Ġleaf": 6201,
      "ĠAsh": 6202,
      "Ġshoulders": 6203,
      "Ġrejected": 6204,
      "ipp": 6205,
      "ĠNov": 6206,
      "Ġwarned": 6207,
      "osl": 6208,
      "ĠGar": 6209,
      "oyd": 6210,
      "Ġstudied": 6211,
      "ĠWilson": 6212,
      "borough": 6213,
      "lude": 6214,
      "Ġperformed": 6215,
      "Ġprompt": 6216,
      "jection": 6217,
      "Ġevident": 6218,
      "Ġartist": 6219,
      "Ġrecording": 6220,
      "Ġproperties": 6221,
      "Ġuniform": 6222,
      "Ġministers": 6223,
      "OD": 6224,
      "place": 6225,
      "ĠCamp": 6226,
      "Ġdoctors": 6227,
      "inton": 6228,
      "Ġanywhere": 6229,
      "alls": 6230,
      "Ġplaintiff": 6231,
      "Ġwound": 6232,
      "AB": 6233,
      "Ġcuts": 6234,
      "Ġnobody": 6235,
      "Ġfunny": 6236,
      "Ġrecession": 6237,
      "Ġdecor": 6238,
      "comm": 6239,
      "]?'": 6240,
      "Ġframework": 6241,
      "ĠMean": 6242,
      "Ġyield": 6243,
      "Ġdetermine": 6244,
      "gen": 6245,
      "Ġgod": 6246,
      "uman": 6247,
      "ĠMatthe": 6248,
      "Ġgro": 6249,
      "ĠOpen": 6250,
      "ailed": 6251,
      "Ġstarts": 6252,
      "Ġspokesman": 6253,
      "icing": 6254,
      "Ġrig": 6255,
      "Ġliquid": 6256,
      "Ġtank": 6257,
      "Ġcandidate": 6258,
      "Have": 6259,
      "ĠHospital": 6260,
      "Ġidentity": 6261,
      "Ġweapons": 6262,
      "Ġcheek": 6263,
      "Ġdogs": 6264,
      "hire": 6265,
      "ĠWal": 6266,
      "Ġkids": 6267,
      "ĠAud": 6268,
      "ĠOb": 6269,
      "Ġtransform": 6270,
      "Ġreader": 6271,
      "Ġsmoke": 6272,
      "Ġrug": 6273,
      "Ġafterwards": 6274,
      "Ġru": 6275,
      "pered": 6276,
      "Ġsituations": 6277,
      "ertific": 6278,
      "Ġregularly": 6279,
      "Ġmagazine": 6280,
      "Ġtor": 6281,
      "Ġapprox": 6282,
      "earing": 6283,
      "Ġsplit": 6284,
      "friend": 6285,
      "ivered": 6286,
      "Ġrealise": 6287,
      "Ġattached": 6288,
      "pected": 6289,
      "Ġfirmly": 6290,
      "Ġcriteria": 6291,
      "Ġoccasions": 6292,
      "rand": 6293,
      "Ġfallen": 6294,
      "nic": 6295,
      "ophy": 6296,
      "Ġorganised": 6297,
      "Ġforgotten": 6298,
      "HS": 6299,
      "Ġquietly": 6300,
      "Ġtaught": 6301,
      "Ġdance": 6302,
      "ĠPost": 6303,
      "Ġindustries": 6304,
      "Ġconventional": 6305,
      "Ġcancer": 6306,
      "rain": 6307,
      "Ġdepartments": 6308,
      "uk": 6309,
      "Ġwave": 6310,
      "Ġloan": 6311,
      "Ġvaluable": 6312,
      "ĠThird": 6313,
      "ĠReport": 6314,
      "ĠSometimes": 6315,
      "bro": 6316,
      "ĠArea": 6317,
      "Ġconsumer": 6318,
      "ĠDur": 6319,
      "angers": 6320,
      "Ġmuseum": 6321,
      "Ġmood": 6322,
      "ĠProfessor": 6323,
      "etary": 6324,
      "Ġlaunch": 6325,
      "ĠLl": 6326,
      "Ġwing": 6327,
      "ĠTest": 6328,
      "ĠSC": 6329,
      "Ġconcentration": 6330,
      "Ġcab": 6331,
      "Ġshouldn": 6332,
      "Ġpossess": 6333,
      "Ġhill": 6334,
      "Ġprosec": 6335,
      "Ġthinks": 6336,
      "Ġconcerns": 6337,
      "Ġangry": 6338,
      "Ġexception": 6339,
      "ESPAN": 6340,
      "azz": 6341,
      "Ġcomfortable": 6342,
      "Ġsuspic": 6343,
      "organ": 6344,
      "Ġforth": 6345,
      "ĠCatholic": 6346,
      "rency": 6347,
      "Ġtheatre": 6348,
      "Ġhandle": 6349,
      "Ġpush": 6350,
      "gage": 6351,
      "ita": 6352,
      "Ġroll": 6353,
      "Ġinstrument": 6354,
      "ĠSimilar": 6355,
      "ĠDNA": 6356,
      "ste": 6357,
      "ĠServices": 6358,
      "luding": 6359,
      "EP": 6360,
      "Ġtheme": 6361,
      "ĠDoctor": 6362,
      "MP": 6363,
      "bu": 6364,
      "ĠForest": 6365,
      "Ġboss": 6366,
      "ĠThatcher": 6367,
      "Ġresear": 6368,
      "ĠNorman": 6369,
      "ĠDistrict": 6370,
      "Ġloyal": 6371,
      "AND": 6372,
      "umph": 6373,
      "iat": 6374,
      "ĠFed": 6375,
      "iven": 6376,
      "bles": 6377,
      "ero": 6378,
      "Ġinformed": 6379,
      "ĠNews": 6380,
      "otte": 6381,
      "Ġpublish": 6382,
      "To": 6383,
      "Ġpregn": 6384,
      "Ġcharacters": 6385,
      "Ġfinger": 6386,
      "ĠHist": 6387,
      "Ġdipl": 6388,
      "Ġmap": 6389,
      "Ġloose": 6390,
      "Ġabroad": 6391,
      "Ġteams": 6392,
      "Ġcharacteristics": 6393,
      "Ġdependent": 6394,
      "Ġduties": 6395,
      "Ġreluct": 6396,
      "An": 6397,
      "llor": 6398,
      "ĠAnth": 6399,
      "Ġpersons": 6400,
      "Ġlosses": 6401,
      "TH": 6402,
      "Ġformation": 6403,
      "ensity": 6404,
      "ĠMax": 6405,
      "Ġchain": 6406,
      "Ġarmed": 6407,
      "ishment": 6408,
      "Ġshru": 6409,
      "ĠLewis": 6410,
      "ĠLIFESPAN": 6411,
      "ĠForm": 6412,
      "Ġfalse": 6413,
      "II": 6414,
      "Ġsouthern": 6415,
      "iable": 6416,
      "ya": 6417,
      "ĠHol": 6418,
      "Ġcutting": 6419,
      "ĠBas": 6420,
      "ĠJos": 6421,
      "Ġmistake": 6422,
      "Ġdramatic": 6423,
      "One": 6424,
      "Ġdenied": 6425,
      "Ġcandidates": 6426,
      "ĠRem": 6427,
      "ĠGentle": 6428,
      "Ġmaintenance": 6429,
      "Ġdirectors": 6430,
      "Ġtears": 6431,
      "Ġoffence": 6432,
      "astern": 6433,
      "Ġpreserv": 6434,
      "Ġpromise": 6435,
      "Ġannounce": 6436,
      "ĠMembers": 6437,
      "teenth": 6438,
      "Ġconfirm": 6439,
      "ĠMiddle": 6440,
      "Ġloud": 6441,
      "Ġpreced": 6442,
      "ĠThurs": 6443,
      "Ġperce": 6444,
      "Ġemerged": 6445,
      "Ġflood": 6446,
      "Ġarguments": 6447,
      "Ġcompetitive": 6448,
      "itals": 6449,
      "Ġmulti": 6450,
      "Ġgate": 6451,
      "izes": 6452,
      "Ġcards": 6453,
      "ĠChairman": 6454,
      "ĠTrade": 6455,
      "Ġanticip": 6456,
      "Ġhyd": 6457,
      "Ġ*": 6458,
      "Ġil": 6459,
      "ĠMur": 6460,
      "gal": 6461,
      "Ġwestern": 6462,
      "Ġmel": 6463,
      "Ġillness": 6464,
      "ama": 6465,
      "Ġreputation": 6466,
      "ĠDet": 6467,
      "Ġquot": 6468,
      "Ġfacing": 6469,
      "Ġing": 6470,
      "Ġapproval": 6471,
      "ĠPR": 6472,
      "Ġwriter": 6473,
      "Ġnotion": 6474,
      "ĠSection": 6475,
      "On": 6476,
      "ĠMcC": 6477,
      "rete": 6478,
      "Ġgather": 6479,
      "inny": 6480,
      "swered": 6481,
      "Ġborder": 6482,
      "Ġgained": 6483,
      "ĠMatthew": 6484,
      "Ġdecade": 6485,
      "ĠManagement": 6486,
      "Ġanswered": 6487,
      "Ġliability": 6488,
      "Ġhighlight": 6489,
      "Ġproud": 6490,
      "usions": 6491,
      "Ġrelating": 6492,
      "Ġdeliver": 6493,
      "ĠÎ": 6494,
      "inations": 6495,
      "Ġoutcome": 6496,
      "ĠWalk": 6497,
      "ilding": 6498,
      "Ġcraft": 6499,
      "Ġinno": 6500,
      "ĠAdd": 6501,
      "Ġitem": 6502,
      "Ġadmit": 6503,
      "Ġdelic": 6504,
      "Ġlocation": 6505,
      "Ġoverse": 6506,
      "Ġfriendly": 6507,
      "ĠHotel": 6508,
      "Ġstations": 6509,
      "ĠNichol": 6510,
      "Ġsubstit": 6511,
      "Ġsteel": 6512,
      "Ġreligion": 6513,
      "Ġunex": 6514,
      "Ġrecovery": 6515,
      "Ġsomehow": 6516,
      "Ġroads": 6517,
      "Ġgently": 6518,
      "ĠTory": 6519,
      "Ġacknowled": 6520,
      "Ġstorm": 6521,
      "Ġsuffer": 6522,
      "Ġscream": 6523,
      "brough": 6524,
      "upid": 6525,
      "Ġsensitive": 6526,
      "Ġexamine": 6527,
      "icate": 6528,
      "ĠNeil": 6529,
      "cles": 6530,
      "acing": 6531,
      "ĠRome": 6532,
      "ĠJac": 6533,
      "asts": 6534,
      "Ġwaited": 6535,
      "ĠTaylor": 6536,
      "aming": 6537,
      "ĠBR": 6538,
      "Ġpublication": 6539,
      "ĠPatrick": 6540,
      "Ġrecommended": 6541,
      "ĠWomen": 6542,
      "Ġdefeat": 6543,
      "rich": 6544,
      "Ġcitizens": 6545,
      "Ġturns": 6546,
      "Ġaside": 6547,
      "omy": 6548,
      "ĠLucy": 6549,
      "ĠWall": 6550,
      "Ġincl": 6551,
      "MS": 6552,
      "Ġestablishment": 6553,
      "Ġlicence": 6554,
      "Ġliberal": 6555,
      "Ġacceptable": 6556,
      "ĠMember": 6557,
      "ĠCommon": 6558,
      "Ġspecifically": 6559,
      "Ġexpansion": 6560,
      "ĠMale": 6561,
      "Ġvir": 6562,
      "inity": 6563,
      "Ġham": 6564,
      "Ġtasks": 6565,
      "Ġpit": 6566,
      "uration": 6567,
      "Ġshif": 6568,
      "Ġlifted": 6569,
      "ĠBelfast": 6570,
      "irect": 6571,
      "ĠMinistry": 6572,
      "Ġrepresentatives": 6573,
      "top": 6574,
      "Ġtemporary": 6575,
      "Ġdiagn": 6576,
      "Ġvoluntary": 6577,
      "Ġrecognise": 6578,
      "Ġmeat": 6579,
      "berg": 6580,
      "icted": 6581,
      "gypt": 6582,
      "sels": 6583,
      "Ġtells": 6584,
      "Ġdiplom": 6585,
      "ĠHold": 6586,
      "Ġdeter": 6587,
      "then": 6588,
      "Ġcomparison": 6589,
      "Ġstands": 6590,
      "book": 6591,
      "Ġlingu": 6592,
      "Ġtrained": 6593,
      "Ġdeeply": 6594,
      "ĠCastle": 6595,
      "ini": 6596,
      "Ġmarks": 6597,
      "Come": 6598,
      "ĠSum": 6599,
      "urches": 6600,
      "Ġreprodu": 6601,
      "Ġneut": 6602,
      "Ġdemanded": 6603,
      "Ġpremises": 6604,
      "Ġintellectual": 6605,
      "Ġho": 6606,
      "Ġox": 6607,
      "asp": 6608,
      "Ġstars": 6609,
      "Ġconsent": 6610,
      "Ġamaz": 6611,
      "Ġlucky": 6612,
      "Ġvul": 6613,
      "cons": 6614,
      "ocol": 6615,
      "ĠTues": 6616,
      "ĠCambridge": 6617,
      "ĠTit": 6618,
      "ĠHaving": 6619,
      "Ġemotional": 6620,
      "agraph": 6621,
      "Ġdial": 6622,
      "Ġbusinesses": 6623,
      "Ġbeauty": 6624,
      "Ġblank": 6625,
      "Ġinsist": 6626,
      "Ġowned": 6627,
      "Ġadvent": 6628,
      "Ġavo": 6629,
      "Ġeggs": 6630,
      "Ġexamined": 6631,
      "acle": 6632,
      "Ġengineering": 6633,
      "onic": 6634,
      "eman": 6635,
      "Ġyards": 6636,
      "Ġcenturies": 6637,
      "Ġrepresentation": 6638,
      "Ġwished": 6639,
      "Ġgap": 6640,
      "Ġattempted": 6641,
      "Ġretail": 6642,
      "lers": 6643,
      "Ġfitted": 6644,
      "Ġaimed": 6645,
      "asion": 6646,
      "Ġagencies": 6647,
      "Ġcoat": 6648,
      "Ġmountain": 6649,
      "Ġdivid": 6650,
      "Ġsees": 6651,
      "Ġcalm": 6652,
      "ĠPalace": 6653,
      "ĠSpanish": 6654,
      "Ġlosing": 6655,
      "ĠSea": 6656,
      "Ġsurprising": 6657,
      "Ġthorough": 6658,
      "Ġkick": 6659,
      "rows": 6660,
      "Ġefficiency": 6661,
      "Ġspoken": 6662,
      "Ġrom": 6663,
      "Ġalter": 6664,
      "ickets": 6665,
      "Ġmostly": 6666,
      "Ġpartnership": 6667,
      "mat": 6668,
      "ĠIC": 6669,
      "Ġemergency": 6670,
      "ĠWat": 6671,
      "ĠCommons": 6672,
      "ogen": 6673,
      "Ġartists": 6674,
      "Ġgotta": 6675,
      "mingham": 6676,
      "ĠMoreover": 6677,
      "olit": 6678,
      "ĠEgypt": 6679,
      "Ġshopping": 6680,
      "Ġagricultural": 6681,
      "Ġsports": 6682,
      "ĠAngel": 6683,
      "ĠRoger": 6684,
      "Ġevolution": 6685,
      "Ġremove": 6686,
      "Ġwages": 6687,
      "ĠDown": 6688,
      "ĠMeanwhile": 6689,
      "urse": 6690,
      "Ġanger": 6691,
      "ĠLocal": 6692,
      "Ġplays": 6693,
      "Ġdemocracy": 6694,
      "Ġstatutory": 6695,
      "Ġterror": 6696,
      "Ġexceed": 6697,
      "Ġ('": 6698,
      "Ġadequate": 6699,
      "burn": 6700,
      "Ġexperiences": 6701,
      "ki": 6702,
      "Ġchart": 6703,
      "Ġresc": 6704,
      "ĠThursday": 6705,
      "Ġdealt": 6706,
      "Ġilleg": 6707,
      "Ġattended": 6708,
      "Ġreward": 6709,
      "Ġprocessing": 6710,
      "ĠON": 6711,
      "Ġdad": 6712,
      "ĠLisa": 6713,
      "Ġkid": 6714,
      "ĠChance": 6715,
      "agon": 6716,
      "Ġworker": 6717,
      "ĠSix": 6718,
      "Ġskill": 6719,
      "Ġabuse": 6720,
      "Ġregime": 6721,
      "ĠCrown": 6722,
      "Ġmolec": 6723,
      "ĠEnid": 6724,
      "ĠAmong": 6725,
      "Ġinnoc": 6726,
      "ĠMiddlesbrough": 6727,
      "orous": 6728,
      "Ġast": 6729,
      "Ġprivile": 6730,
      "Ġju": 6731,
      "Ġagents": 6732,
      "Ġhanded": 6733,
      "ĠRachel": 6734,
      "Ġcommunities": 6735,
      "ĠThough": 6736,
      "ĠWindows": 6737,
      "Ġtheories": 6738,
      "ĠPL": 6739,
      "Ġremarkable": 6740,
      "ĠCatherine": 6741,
      "Ġconstra": 6742,
      "istan": 6743,
      "life": 6744,
      "Ġpeak": 6745,
      "Ġsupporters": 6746,
      "ĠWH": 6747,
      "Ġtheoret": 6748,
      "Ġdrove": 6749,
      "Ġparallel": 6750,
      "Ġnom": 6751,
      "Ġimposed": 6752,
      "SE": 6753,
      "SR": 6754,
      "Ġstable": 6755,
      "Ġabst": 6756,
      "aire": 6757,
      "Ġfold": 6758,
      "Ġlimits": 6759,
      "Ġarrested": 6760,
      "Ġpocket": 6761,
      "Ġintroduce": 6762,
      "Ġdesp": 6763,
      "Ġcollected": 6764,
      "ois": 6765,
      "herent": 6766,
      "Ġrepresentative": 6767,
      "Ġsurvive": 6768,
      "ĠCross": 6769,
      "Ġoptions": 6770,
      "Ġconsequence": 6771,
      "ĠLanc": 6772,
      "Ġgest": 6773,
      "Ġfix": 6774,
      "cho": 6775,
      "ĠChel": 6776,
      "quarters": 6777,
      "coming": 6778,
      "Ġhes": 6779,
      "Ġjoy": 6780,
      "Ġcountryside": 6781,
      "Ġbigger": 6782,
      "edding": 6783,
      "orted": 6784,
      "long": 6785,
      "Ġdirected": 6786,
      "Ġawareness": 6787,
      "Ġinstructions": 6788,
      "Ġwage": 6789,
      "ĠStan": 6790,
      "Ġnegotiations": 6791,
      "Ġclubs": 6792,
      "wen": 6793,
      "Ġerror": 6794,
      "Ġindu": 6795,
      "Ġburst": 6796,
      "Ġdelivery": 6797,
      "ĠToday": 6798,
      "Ġmetres": 6799,
      "ĠGreek": 6800,
      "IA": 6801,
      "Ġcasual": 6802,
      "Ġhundreds": 6803,
      "yeah": 6804,
      "Ġprime": 6805,
      "Ġfears": 6806,
      "Ġroutine": 6807,
      "othe": 6808,
      "Ġeleven": 6809,
      "pes": 6810,
      "itated": 6811,
      "ĠElect": 6812,
      "Ġshoes": 6813,
      "apse": 6814,
      "anches": 6815,
      "isure": 6816,
      "ĠTurn": 6817,
      "osal": 6818,
      "ĠPrim": 6819,
      "Ġsatisfied": 6820,
      "Ġstring": 6821,
      "Ġmoves": 6822,
      "ĠFather": 6823,
      "ĠJess": 6824,
      "liver": 6825,
      "Ġexport": 6826,
      "Ġnewly": 6827,
      "ependent": 6828,
      "haust": 6829,
      "Ġpale": 6830,
      "Ġalleg": 6831,
      "ĠPo": 6832,
      "Ġupset": 6833,
      "Ġanswers": 6834,
      "Ġderived": 6835,
      "ĠDefence": 6836,
      "ĠAnthony": 6837,
      "vor": 6838,
      "Ġrepublic": 6839,
      "ĠKore": 6840,
      "Ġdressed": 6841,
      "Ġguess": 6842,
      "resents": 6843,
      "Ġprev": 6844,
      "ĠEarth": 6845,
      "Ġpollution": 6846,
      "Ġfulf": 6847,
      "bours": 6848,
      "Ġnearby": 6849,
      "Ġhealthy": 6850,
      "ĠYO": 6851,
      "odes": 6852,
      "Ġplane": 6853,
      "Ġsuccessfully": 6854,
      "Ġsilent": 6855,
      "Ġfee": 6856,
      "Ġwooden": 6857,
      "Ġcreating": 6858,
      "Ġscope": 6859,
      "Ġtempt": 6860,
      "ĠCra": 6861,
      "ĠBishop": 6862,
      "Ġnav": 6863,
      "Ġcream": 6864,
      "rin": 6865,
      "Ġcott": 6866,
      "Ġbitter": 6867,
      "ĠColin": 6868,
      "Ġautumn": 6869,
      "car": 6870,
      "run": 6871,
      "Ġsurg": 6872,
      "Ġmal": 6873,
      "ĠWhich": 6874,
      "Ġfrust": 6875,
      "ĠOrgan": 6876,
      "Ġstupid": 6877,
      "comp": 6878,
      "ĠProg": 6879,
      "ico": 6880,
      "ĠBirmingham": 6881,
      "Ġmyst": 6882,
      "Ġmile": 6883,
      "Ġminority": 6884,
      "ĠBusiness": 6885,
      "ĠChildren": 6886,
      "omer": 6887,
      "Ġacts": 6888,
      "Ġmotiv": 6889,
      "Ġresistance": 6890,
      "ESS": 6891,
      "Ġlandl": 6892,
      "Ġfib": 6893,
      "ĠSan": 6894,
      "Ġsupplied": 6895,
      "Ġfans": 6896,
      "ĠIran": 6897,
      "imp": 6898,
      "Ġsugar": 6899,
      "ĠPan": 6900,
      "Ġrepresents": 6901,
      "Ġgrin": 6902,
      "iser": 6903,
      "ello": 6904,
      "Ġoccurs": 6905,
      "Ġhoping": 6906,
      "Ġdefendant": 6907,
      "esh": 6908,
      "ĠCorn": 6909,
      "Ġoverseas": 6910,
      "ĠTuesday": 6911,
      "ĠDad": 6912,
      "ĠHave": 6913,
      "Ġrhy": 6914,
      "Ġarrival": 6915,
      "Ġextension": 6916,
      "uce": 6917,
      "pread": 6918,
      "ourage": 6919,
      "Ġsoldiers": 6920,
      "ĠWilliams": 6921,
      "Ġcoach": 6922,
      "Ġresign": 6923,
      "Ġain": 6924,
      "Ġintent": 6925,
      "Ġrefuge": 6926,
      "ĠRon": 6927,
      "Ġsed": 6928,
      "Ġsubsequently": 6929,
      "amin": 6930,
      "ĠLar": 6931,
      "Ġimages": 6932,
      "aura": 6933,
      "Ġdyn": 6934,
      "Ġconcerning": 6935,
      "Ġconnected": 6936,
      "attered": 6937,
      "Ġguitar": 6938,
      "oty": 6939,
      "rors": 6940,
      "Ġtur": 6941,
      "Ġrenew": 6942,
      "Ġgreatly": 6943,
      "Ġcigaret": 6944,
      "Ġgre": 6945,
      "Ġcomprehensive": 6946,
      "Ġjun": 6947,
      "Ġeditor": 6948,
      "Ġexplos": 6949,
      "Ġintervention": 6950,
      "Ġstuck": 6951,
      "Ġarise": 6952,
      "ĠStock": 6953,
      "ĠDick": 6954,
      "Ġinher": 6955,
      "lym": 6956,
      "Ġseventy": 6957,
      "ĠCharlotte": 6958,
      "Ġcategories": 6959,
      "nam": 6960,
      "Ġextraord": 6961,
      "ĠSee": 6962,
      "Ġattacks": 6963,
      "Of": 6964,
      "cers": 6965,
      "grad": 6966,
      "raction": 6967,
      "Ġnaturally": 6968,
      "ĠDonald": 6969,
      "cel": 6970,
      "ĠAsse": 6971,
      "addy": 6972,
      "itably": 6973,
      "Ġfilms": 6974,
      "Ġfurniture": 6975,
      "Ġstairs": 6976,
      "archy": 6977,
      "Ġessentially": 6978,
      "ĠLong": 6979,
      "ĠAdm": 6980,
      "eless": 6981,
      "Ġec": 6982,
      "inson": 6983,
      "Ġpriority": 6984,
      "Ġscr": 6985,
      "idespread": 6986,
      "Ġprecisely": 6987,
      "Ġinsisted": 6988,
      "ĠIII": 6989,
      "Ġfifth": 6990,
      "ĠFair": 6991,
      "Ġclar": 6992,
      "Ġelectricity": 6993,
      "water": 6994,
      "Ġtact": 6995,
      "ĠRus": 6996,
      "burg": 6997,
      "hemat": 6998,
      "Ġpig": 6999,
      "Ġinspect": 7000,
      "chant": 7001,
      "apping": 7002,
      "Ġdrinking": 7003,
      "ĠAT": 7004,
      "Ġspecified": 7005,
      "ĠOliver": 7006,
      "Ġadministrative": 7007,
      "Ġsheep": 7008,
      "cks": 7009,
      "ĠSheila": 7010,
      "Ġrank": 7011,
      "Ġwriters": 7012,
      "going": 7013,
      "ĠGentleman": 7014,
      "Ġassault": 7015,
      "ĠBarb": 7016,
      "ashing": 7017,
      "ĠLiz": 7018,
      "Ġfindings": 7019,
      "Ġmeasured": 7020,
      "ĠLook": 7021,
      "Ġcomputers": 7022,
      "Ġretirement": 7023,
      "Ġmixture": 7024,
      "rade": 7025,
      "Ġexplicit": 7026,
      "Ġexciting": 7027,
      "ĠFund": 7028,
      "inking": 7029,
      "Ġaccompanied": 7030,
      "uity": 7031,
      "Ġknock": 7032,
      "Ġrespectively": 7033,
      "rapy": 7034,
      "irable": 7035,
      "Then": 7036,
      "wart": 7037,
      "ĠEqu": 7038,
      "Ġreceiving": 7039,
      "do": 7040,
      "ections": 7041,
      "Ġbarg": 7042,
      "uli": 7043,
      "Ġclock": 7044,
      "inced": 7045,
      "Ġreass": 7046,
      "ĠFam": 7047,
      "Ġacquis": 7048,
      "Ġjudgment": 7049,
      "ographer": 7050,
      "ĠAv": 7051,
      "adequ": 7052,
      "Ġgrate": 7053,
      "bum": 7054,
      "ĠShar": 7055,
      "Ġfishing": 7056,
      "Ġrear": 7057,
      "eting": 7058,
      "Ġarrangement": 7059,
      "Ġax": 7060,
      "Ġrequirement": 7061,
      "Ġregulations": 7062,
      "ĠClass": 7063,
      "ona": 7064,
      "Ġparish": 7065,
      "Ġoccasionally": 7066,
      "ĠHay": 7067,
      "ĠLuke": 7068,
      "fere": 7069,
      "Ġinquiry": 7070,
      "illa": 7071,
      "ĠUp": 7072,
      "Ġalcohol": 7073,
      "roph": 7074,
      "Ġtough": 7075,
      "Ġcausing": 7076,
      "ĠÃ": 7077,
      "Ġbits": 7078,
      "ĠKar": 7079,
      "Ġregistered": 7080,
      "Ġfeels": 7081,
      "Ġhosp": 7082,
      "Ġdispute": 7083,
      "ĠPRO": 7084,
      "ĠKatherine": 7085,
      "ĠSol": 7086,
      "Ġapproaches": 7087,
      "Ġresulting": 7088,
      "ĠMother": 7089,
      "Ġinitiative": 7090,
      "Ġcovering": 7091,
      "ĠEst": 7092,
      "ĠBarn": 7093,
      "Ġconsumption": 7094,
      "Ġtransferred": 7095,
      "Ġextract": 7096,
      "ĠSuper": 7097,
      "Ġwidespread": 7098,
      "Ġadults": 7099,
      "Ġpassion": 7100,
      "outs": 7101,
      "Ġdecre": 7102,
      "ĠNigel": 7103,
      "oub": 7104,
      "ĠCD": 7105,
      "Ġplatform": 7106,
      "Ġlock": 7107,
      "ĠCard": 7108,
      "Ġcarbon": 7109,
      "Ġtesting": 7110,
      "eries": 7111,
      "Ġexists": 7112,
      "Ġruling": 7113,
      "Ġdiscl": 7114,
      "Ġexpectations": 7115,
      "ĠCorpor": 7116,
      "ipping": 7117,
      "Ġgradually": 7118,
      "ĠWashing": 7119,
      "Ġbroadcast": 7120,
      "Ġcategory": 7121,
      "Ġbegins": 7122,
      "Ġinjured": 7123,
      "Ġexhaust": 7124,
      "ĠPhill": 7125,
      "umes": 7126,
      "Ġpace": 7127,
      "Ġlin": 7128,
      "Ġsty": 7129,
      "ĠLife": 7130,
      "Ġcopies": 7131,
      "Ġlisted": 7132,
      "Ġutter": 7133,
      "Ġremote": 7134,
      "Ġclause": 7135,
      "Ġtravelling": 7136,
      "Ġbrings": 7137,
      "Ġcore": 7138,
      "omach": 7139,
      "Ġshortly": 7140,
      "ĠMen": 7141,
      "Ġabol": 7142,
      "Ġrival": 7143,
      "occ": 7144,
      "Ġmurd": 7145,
      "ĠDian": 7146,
      "ĠLiberal": 7147,
      "Ġbreach": 7148,
      "Ġconvinced": 7149,
      "abel": 7150,
      "ophistic": 7151,
      "Ġphrase": 7152,
      "ato": 7153,
      "ĠKent": 7154,
      "Ġdrama": 7155,
      "ĠEconomic": 7156,
      "Ġdiscrim": 7157,
      "Ġsignal": 7158,
      "orage": 7159,
      "Ġcler": 7160,
      "Ġresolution": 7161,
      "Ġtension": 7162,
      "Ġresidents": 7163,
      "Ġrecover": 7164,
      "Ġnervous": 7165,
      "Ġmere": 7166,
      "Ġencl": 7167,
      "Ġhelpful": 7168,
      "Ġbrilliant": 7169,
      "Ġbutter": 7170,
      "Ġguarantee": 7171,
      "Ġliber": 7172,
      "Ġlabor": 7173,
      "Ġven": 7174,
      "Ġpromote": 7175,
      "Ġcurtain": 7176,
      "Ġpink": 7177,
      "ĠCy": 7178,
      "Ġdrift": 7179,
      "five": 7180,
      "Ġignored": 7181,
      "aunt": 7182,
      "Ġparagraph": 7183,
      "abilities": 7184,
      "ĠEastern": 7185,
      "Ġscen": 7186,
      "appy": 7187,
      "Ġextend": 7188,
      "Ġpaintings": 7189,
      "ĠChancellor": 7190,
      "Ġconcluded": 7191,
      "Ġfabric": 7192,
      "Ġload": 7193,
      "Ġdisappeared": 7194,
      "asters": 7195,
      "olve": 7196,
      "Ġves": 7197,
      "Ġcha": 7198,
      "VE": 7199,
      "Ġaffair": 7200,
      "ĠSecurity": 7201,
      "ptions": 7202,
      "Ġdriven": 7203,
      "ĠMuch": 7204,
      "Ġguests": 7205,
      "OC": 7206,
      "Ġphilosophy": 7207,
      "Ġrestaurant": 7208,
      "Ġsons": 7209,
      "Ġaccounting": 7210,
      "Ġmedic": 7211,
      "Ġthroat": 7212,
      "Ġawful": 7213,
      "irk": 7214,
      "Ġrand": 7215,
      "ĠUnf": 7216,
      "Ġpoliticians": 7217,
      "Ġreturning": 7218,
      "vant": 7219,
      "Ġune": 7220,
      "ĠHy": 7221,
      "Ġspite": 7222,
      "Ġpermission": 7223,
      "ARD": 7224,
      "Ġscientists": 7225,
      "pic": 7226,
      "Ġcomponents": 7227,
      "iest": 7228,
      "Ġelectronic": 7229,
      "Ġrecognized": 7230,
      "Ġvo": 7231,
      "IB": 7232,
      "Ġpossession": 7233,
      "Ġvotes": 7234,
      "Ġsaved": 7235,
      "retion": 7236,
      "owing": 7237,
      "uated": 7238,
      "ĠCare": 7239,
      "ĠAssembly": 7240,
      "Ġchap": 7241,
      "Ġlandscape": 7242,
      "ĠDal": 7243,
      "Ġrestricted": 7244,
      "Ġrum": 7245,
      "Ġbranches": 7246,
      "Ġinitially": 7247,
      "Go": 7248,
      "Ġsteam": 7249,
      "castle": 7250,
      "Ġdestroyed": 7251,
      "ĠWashington": 7252,
      "rants": 7253,
      "Ġride": 7254,
      "ĠInformation": 7255,
      "Ġobst": 7256,
      "Ġhelps": 7257,
      "Ġnewspapers": 7258,
      "Ġearnings": 7259,
      "Ġstomach": 7260,
      "Ġparliamentary": 7261,
      "Ġmanif": 7262,
      "Ġbreaking": 7263,
      "asty": 7264,
      ".]": 7265,
      "ĠSel": 7266,
      "ĠSubject": 7267,
      "ĠPlease": 7268,
      "Ġsuggestion": 7269,
      "Ġcycle": 7270,
      "ĠFe": 7271,
      "Ġmarry": 7272,
      "Ġtrem": 7273,
      "ĠGinny": 7274,
      "Ġped": 7275,
      "Ġbeach": 7276,
      "Ġdiscount": 7277,
      "Ġconfront": 7278,
      "Ġpilot": 7279,
      "Ġment": 7280,
      "idays": 7281,
      "asure": 7282,
      "Ġfinds": 7283,
      "Ġaer": 7284,
      "ĠAtt": 7285,
      "ĠJustice": 7286,
      "ĠDemocratic": 7287,
      "Ġmission": 7288,
      "Ġoccupied": 7289,
      "Ġfert": 7290,
      "Ġunh": 7291,
      "Ġsymptoms": 7292,
      "market": 7293,
      "Ġconservation": 7294,
      "sea": 7295,
      "Ġprimarily": 7296,
      "Let": 7297,
      "Or": 7298,
      "ĠVir": 7299,
      "Ġpreparation": 7300,
      "Ġpipe": 7301,
      "Ġconsistent": 7302,
      "aus": 7303,
      "Ġunknown": 7304,
      "Ġdelivered": 7305,
      "Ġpromotion": 7306,
      "Ġinadequ": 7307,
      "ĠLater": 7308,
      "ĠIS": 7309,
      "Ġpresentation": 7310,
      "Ġsolic": 7311,
      "Ġhate": 7312,
      "ĠWithin": 7313,
      "Ġnumerous": 7314,
      "orse": 7315,
      "Ġphotographs": 7316,
      "ĠIris": 7317,
      "Ġneat": 7318,
      "Ġdisch": 7319,
      "Ġsake": 7320,
      "Ġblame": 7321,
      "Ġdegrees": 7322,
      "Ġpreferred": 7323,
      "ĠSH": 7324,
      "Ġglo": 7325,
      "ĠBos": 7326,
      "ka": 7327,
      "Ġdarkness": 7328,
      "Ġcomplicated": 7329,
      "lisher": 7330,
      "Ġpitch": 7331,
      "esty": 7332,
      "Ġglobal": 7333,
      "Ġbeer": 7334,
      "Ġownership": 7335,
      "dale": 7336,
      "Ġalongside": 7337,
      "jud": 7338,
      "olen": 7339,
      "Ġemployer": 7340,
      "ĠLittle": 7341,
      "Ġsuperv": 7342,
      "estival": 7343,
      "erek": 7344,
      "sect": 7345,
      "sters": 7346,
      "iated": 7347,
      "itched": 7348,
      "Ġfant": 7349,
      "Ġsupplies": 7350,
      "ĠComputer": 7351,
      "ĠCON": 7352,
      "ĠBev": 7353,
      "factory": 7354,
      "Ġassumption": 7355,
      "Ġpron": 7356,
      "Ġconstantly": 7357,
      "Ġcrossed": 7358,
      "Ġliterary": 7359,
      "Ġraising": 7360,
      "ĠDoes": 7361,
      "ĠOffic": 7362,
      "Ġbureauc": 7363,
      "ĠBush": 7364,
      "Ġadding": 7365,
      "Ġtreaty": 7366,
      "Look": 7367,
      "lessly": 7368,
      "Ġamounts": 7369,
      "Ġenemy": 7370,
      "Ġtrick": 7371,
      "Ġmig": 7372,
      "ĠMosc": 7373,
      "Ġtie": 7374,
      "ĠJohnson": 7375,
      "Ġsurrounding": 7376,
      "Ġflower": 7377,
      "Ġmortgage": 7378,
      "okes": 7379,
      "ruption": 7380,
      "ĠPrin": 7381,
      "Ġcharacteristic": 7382,
      "Ġhoriz": 7383,
      "Ġinhib": 7384,
      "rag": 7385,
      "Ġperspective": 7386,
      "Ġreasonably": 7387,
      "ĠDub": 7388,
      "Ġautonom": 7389,
      "Ġdominant": 7390,
      "Ġmothers": 7391,
      "Ġdatabase": 7392,
      "ective": 7393,
      "Ġdivor": 7394,
      "Ġconducted": 7395,
      "Ġcurrency": 7396,
      "mary": 7397,
      "Ġhidden": 7398,
      "ĠAC": 7399,
      "Ġconcentrate": 7400,
      "Ġrandom": 7401,
      "ĠÂ": 7402,
      "ĠThrough": 7403,
      "Ġgolf": 7404,
      "uan": 7405,
      "Ġhide": 7406,
      "Ġabandoned": 7407,
      "ulpt": 7408,
      "Ġregister": 7409,
      "athered": 7410,
      "Ġhence": 7411,
      "uled": 7412,
      "Ġoppon": 7413,
      "Ġenterprise": 7414,
      "At": 7415,
      "Re": 7416,
      "estion": 7417,
      "ĠCos": 7418,
      "ĠDer": 7419,
      "Ġshareholders": 7420,
      "Ġwishes": 7421,
      "Ġwedding": 7422,
      "cipline": 7423,
      "ĠAtl": 7424,
      "Ġlegit": 7425,
      "ĠMarsh": 7426,
      "Ġstream": 7427,
      "Ġdiscussions": 7428,
      "ĠGulf": 7429,
      "iona": 7430,
      "ologies": 7431,
      "Ġsorts": 7432,
      "Ġchances": 7433,
      "Ġachievement": 7434,
      "Ġsupplement": 7435,
      "Ġvisits": 7436,
      "Ġwinner": 7437,
      "ĠEric": 7438,
      "Ġresulted": 7439,
      "EST": 7440,
      "Ġelim": 7441,
      "Ġcircle": 7442,
      "Ġprotein": 7443,
      "ĠTrevor": 7444,
      "Ġbriefly": 7445,
      "Ġsymbol": 7446,
      "ĠNet": 7447,
      "Ġdisg": 7448,
      "UP": 7449,
      "Ġrecall": 7450,
      "Ġsoci": 7451,
      "Ġmoments": 7452,
      "ennis": 7453,
      "ĠWould": 7454,
      "ĠClar": 7455,
      "Ġmic": 7456,
      "ĠMot": 7457,
      "free": 7458,
      "Ġlecture": 7459,
      "Ġdismissed": 7460,
      "Ġprinted": 7461,
      "Ġvulner": 7462,
      "ĠKh": 7463,
      "edge": 7464,
      "Ġtools": 7465,
      "ĠAdrian": 7466,
      "Ġguidance": 7467,
      "Ġcaptain": 7468,
      "Ġvehicles": 7469,
      "ieth": 7470,
      "Ġterritory": 7471,
      "plus": 7472,
      "Ġfewer": 7473,
      "Ġfier": 7474,
      "Ġplot": 7475,
      "Ġreducing": 7476,
      "Ġmusical": 7477,
      "Ġteach": 7478,
      "Ġanxious": 7479,
      "Ġaltogether": 7480,
      "Ġvig": 7481,
      "Ġpractition": 7482,
      "uv": 7483,
      "yes": 7484,
      "isp": 7485,
      "Ġsophistic": 7486,
      "Ġprivat": 7487,
      "related": 7488,
      "ician": 7489,
      "ĠSally": 7490,
      "umped": 7491,
      "ĠFollow": 7492,
      "ĠMir": 7493,
      "ighed": 7494,
      "Ġemployee": 7495,
      "Ġstamp": 7496,
      "Ġvolunte": 7497,
      "Ġpressed": 7498,
      "ller": 7499,
      "ĠBrist": 7500,
      "ĠVen": 7501,
      "iforn": 7502,
      "Ġbirthday": 7503,
      "Ġthrown": 7504,
      "ĠAff": 7505,
      "avour": 7506,
      "ensus": 7507,
      "ĠCarole": 7508,
      "called": 7509,
      "Ġmatches": 7510,
      "za": 7511,
      "Ġstructural": 7512,
      "Ġchurches": 7513,
      "Ġrealized": 7514,
      "Ġtruly": 7515,
      "Ġtiss": 7516,
      "Ġpainted": 7517,
      "ĠLloyd": 7518,
      "tra": 7519,
      "ĠLeon": 7520,
      "Ġcondem": 7521,
      "Ġadvoc": 7522,
      "low": 7523,
      "Ġfet": 7524,
      "Ġease": 7525,
      "ĠCr": 7526,
      "ĠMont": 7527,
      "zing": 7528,
      "Ġrevenue": 7529,
      "ĠCertain": 7530,
      "ĠAuthority": 7531,
      "ĠDerek": 7532,
      "enda": 7533,
      "ige": 7534,
      "ertificate": 7535,
      "ĠAD": 7536,
      "Ġmov": 7537,
      "Ġconsiderably": 7538,
      "Ġfaster": 7539,
      "Ġbell": 7540,
      "ittees": 7541,
      "Ġsalt": 7542,
      "Ġtendency": 7543,
      "ĠGrant": 7544,
      "iece": 7545,
      "ĠSwed": 7546,
      "ĠCap": 7547,
      "verty": 7548,
      "Ġorganizations": 7549,
      "Ġthrew": 7550,
      "ounced": 7551,
      "Ġimpressive": 7552,
      "Ġshadow": 7553,
      "Ġages": 7554,
      "ĠTime": 7555,
      "Ġobsc": 7556,
      "ville": 7557,
      "Ġfought": 7558,
      "Ġnevertheless": 7559,
      "Ġsympath": 7560,
      "Ġunexpected": 7561,
      "ĠAlice": 7562,
      "tingham": 7563,
      "ĠCaliforn": 7564,
      "Ġnurse": 7565,
      "Ġvaried": 7566,
      "Ġstir": 7567,
      "Ġarts": 7568,
      "Ġengaged": 7569,
      "xic": 7570,
      "Ġsteady": 7571,
      "Ġboost": 7572,
      "Ġsupporting": 7573,
      "ĠDemocr": 7574,
      "Ġoutstanding": 7575,
      "Ġpoverty": 7576,
      "ĠLords": 7577,
      "inging": 7578,
      "just": 7579,
      "issa": 7580,
      "Ġvariable": 7581,
      "Ġsurvival": 7582,
      "Ġtong": 7583,
      "Ġnut": 7584,
      "ĠBoy": 7585,
      "Ġtwent": 7586,
      "ĠGal": 7587,
      "Ġdiscipline": 7588,
      "Ġaccurate": 7589,
      "Aye": 7590,
      "Ġvic": 7591,
      "Ġexperts": 7592,
      "Ġapproached": 7593,
      "ĠZeal": 7594,
      "Ġratio": 7595,
      "Ġputs": 7596,
      "Ġattacked": 7597,
      "Ġscored": 7598,
      "Ġsurve": 7599,
      "Ġenthusiasm": 7600,
      "rem": 7601,
      "ĠHung": 7602,
      "Ġtheoretical": 7603,
      "Ġyours": 7604,
      "Ġpersonnel": 7605,
      "Ġalbum": 7606,
      "inder": 7607,
      "Ġintelligence": 7608,
      "ĠViet": 7609,
      "Ġadvantages": 7610,
      "opy": 7611,
      "ĠRiver": 7612,
      "Ġdisabled": 7613,
      "bell": 7614,
      "Ġcot": 7615,
      "utor": 7616,
      "Ġpanel": 7617,
      "Ġtables": 7618,
      "Ġchat": 7619,
      "Ġcompensation": 7620,
      "ĠBru": 7621,
      "Ġcontrad": 7622,
      "ĠAL": 7623,
      "Ġstones": 7624,
      "Ġpill": 7625,
      "ologist": 7626,
      "Ġentrance": 7627,
      "Ġarrive": 7628,
      "ĠBa": 7629,
      "ĠMicro": 7630,
      "ĠLane": 7631,
      "enses": 7632,
      "ĠMinisters": 7633,
      "ĠUnfortunately": 7634,
      "Ġhal": 7635,
      "celer": 7636,
      "Ġclassical": 7637,
      "Ġtouched": 7638,
      "Ġstiff": 7639,
      "Ġclassic": 7640,
      "Ġfiles": 7641,
      "ĠCanada": 7642,
      "ĠRen": 7643,
      "Ġdish": 7644,
      "Ġcovers": 7645,
      "Ġvisible": 7646,
      "Ġredund": 7647,
      "ĠAlison": 7648,
      "ĠCommunist": 7649,
      "Ġwore": 7650,
      "Ġlanguages": 7651,
      "Ġsquad": 7652,
      "Ġintr": 7653,
      "ĠMoscow": 7654,
      "Ġreadily": 7655,
      "Ġchampion": 7656,
      "ĠKu": 7657,
      "Ġmechanism": 7658,
      "ntil": 7659,
      "ĠTransport": 7660,
      "Ġdistur": 7661,
      "ĠPress": 7662,
      "ĠProv": 7663,
      "Ġchalleng": 7664,
      "Ġhandling": 7665,
      "Ġattracted": 7666,
      "Ġfo": 7667,
      "ĠOkay": 7668,
      "born": 7669,
      "ĠHong": 7670,
      "SP": 7671,
      "Ġsoul": 7672,
      "mill": 7673,
      "Ġeverywhere": 7674,
      "Ġforecast": 7675,
      "Ġinstruct": 7676,
      "Ġdevice": 7677,
      "Ġfrequency": 7678,
      "Ġsolicitor": 7679,
      "Ġproof": 7680,
      "ĠSimilarly": 7681,
      "ĠBristol": 7682,
      "Ġbother": 7683,
      "agan": 7684,
      "EF": 7685,
      "whel": 7686,
      "Ġgang": 7687,
      "ĠCome": 7688,
      "Ġexperiments": 7689,
      "Ġkilling": 7690,
      "Ġsou": 7691,
      "ilton": 7692,
      "ĠPalest": 7693,
      "Ġhanging": 7694,
      "Ġbull": 7695,
      "Ġapplies": 7696,
      "Ġcricket": 7697,
      "ĠCro": 7698,
      "ĠConn": 7699,
      "Ġwaters": 7700,
      "Ġyard": 7701,
      "Ġfalls": 7702,
      "ĠSpecial": 7703,
      "Ġvoc": 7704,
      "rose": 7705,
      "ĠBig": 7706,
      "Ġintense": 7707,
      "Ġracing": 7708,
      "Ġprepare": 7709,
      "ĠLynn": 7710,
      "fall": 7711,
      "xual": 7712,
      "ĠKong": 7713,
      "Ġcoinc": 7714,
      "Ġminds": 7715,
      "ĠProt": 7716,
      "Ġconvey": 7717,
      "ĠLaura": 7718,
      "ĠLor": 7719,
      "ij": 7720,
      "Ġresponsibilities": 7721,
      "ĠFord": 7722,
      "active": 7723,
      "Ġsup": 7724,
      "Ġteen": 7725,
      "Ġaddressed": 7726,
      "Ġsentences": 7727,
      "Ġje": 7728,
      "Ġconcentrated": 7729,
      "Ġmail": 7730,
      "ĠWhit": 7731,
      "ds": 7732,
      "Ġeastern": 7733,
      "itate": 7734,
      "Ġseg": 7735,
      "Ġpond": 7736,
      "Ġoptim": 7737,
      "Ġencouraging": 7738,
      "ĠColl": 7739,
      "Ġstepped": 7740,
      "Ġlob": 7741,
      "Ġcomposition": 7742,
      "Ġvice": 7743,
      "Ġworksh": 7744,
      "Ġresort": 7745,
      "ĠEmma": 7746,
      "Ġdemocratic": 7747,
      "ĠManager": 7748,
      "Ġmodule": 7749,
      "Ġbrothers": 7750,
      "Ġretired": 7751,
      "ĠScience": 7752,
      "ĠTreat": 7753,
      "Ġdelighted": 7754,
      "rage": 7755,
      "Ġprize": 7756,
      "nis": 7757,
      "essions": 7758,
      "Ġspare": 7759,
      "Ġpersonality": 7760,
      "Ġarbit": 7761,
      "Ġunderlying": 7762,
      "ĠPolit": 7763,
      "Ġprisoners": 7764,
      "Ġvisiting": 7765,
      "Ġsin": 7766,
      "Ġdefinitely": 7767,
      "Ġchose": 7768,
      "Ġears": 7769,
      "Ġdominated": 7770,
      "ĠDanny": 7771,
      "Ġamend": 7772,
      "Ġjacket": 7773,
      "Ġhier": 7774,
      "Ġcharity": 7775,
      "Ġhospitals": 7776,
      "anes": 7777,
      "Ġheaded": 7778,
      "ĠAmericans": 7779,
      "Ġconstitution": 7780,
      "Ġcomprom": 7781,
      "weight": 7782,
      "Ġvillages": 7783,
      "cean": 7784,
      "power": 7785,
      "Ġsuperior": 7786,
      "Ġreaching": 7787,
      "urt": 7788,
      "ĠNext": 7789,
      "Ġmyth": 7790,
      "Ġsatisfaction": 7791,
      "Ġautomatically": 7792,
      "Ġdistant": 7793,
      "orship": 7794,
      "Ġmanaging": 7795,
      "ĠNothing": 7796,
      "Ġcontributions": 7797,
      "Ġflag": 7798,
      "Ġservants": 7799,
      "Ġstorage": 7800,
      "ourable": 7801,
      "Ġvictims": 7802,
      "Ġclinical": 7803,
      "acked": 7804,
      "Ġresidential": 7805,
      "ĠHard": 7806,
      "Ġconfusion": 7807,
      "Ġshouted": 7808,
      "ĠNat": 7809,
      "uction": 7810,
      "leep": 7811,
      "Ġstolen": 7812,
      "icester": 7813,
      "Ġrevers": 7814,
      "rogen": 7815,
      "Ġmirror": 7816,
      "hall": 7817,
      "ĠBell": 7818,
      "Ġundertaken": 7819,
      "ĠLatin": 7820,
      "pay": 7821,
      "stream": 7822,
      "Ġeighteen": 7823,
      "Ġtriumph": 7824,
      "ILL": 7825,
      "Ġgift": 7826,
      "ĠIns": 7827,
      "Ġaccum": 7828,
      "Ġstaying": 7829,
      "Ġrocks": 7830,
      "Ġdemonstrated": 7831,
      "Ġisolated": 7832,
      "ĠHolly": 7833,
      "rot": 7834,
      "Ġturnover": 7835,
      "Ġglanced": 7836,
      "Ġimplementation": 7837,
      "Ġdiam": 7838,
      "Ġextraordinary": 7839,
      "Ġlocked": 7840,
      "Ġgreet": 7841,
      "IST": 7842,
      "VER": 7843,
      "Ġfucking": 7844,
      "ĠYear": 7845,
      "Ġexpense": 7846,
      "ĠNottingham": 7847,
      "Ġtended": 7848,
      "Ġom": 7849,
      "oded": 7850,
      "Ġlikes": 7851,
      "Ġparam": 7852,
      "Ġclassroom": 7853,
      "ĠAppeal": 7854,
      "Ġsculpt": 7855,
      "ĠWhether": 7856,
      "ĠPower": 7857,
      "Ġknife": 7858,
      "Ġsounded": 7859,
      "asury": 7860,
      "ĠCapt": 7861,
      "Ġregret": 7862,
      "Ġobservation": 7863,
      "Ġtent": 7864,
      "Ġlists": 7865,
      "ĠSk": 7866,
      "ographical": 7867,
      "Ġreforms": 7868,
      "ĠAy": 7869,
      "ĠStaff": 7870,
      "Ġserving": 7871,
      "Ġholds": 7872,
      "bar": 7873,
      "Ġeighteenth": 7874,
      "Ġrely": 7875,
      "ĠZealand": 7876,
      "ĠDiscipline": 7877,
      "ĠHad": 7878,
      "ĠCher": 7879,
      "ĠNewcastle": 7880,
      "pled": 7881,
      "Ġcouncils": 7882,
      "glas": 7883,
      "apped": 7884,
      "Ġinstinct": 7885,
      "nings": 7886,
      "Ġshirt": 7887,
      "Ġillustrated": 7888,
      "orton": 7889,
      "Ġdisag": 7890,
      "norm": 7891,
      "Ġwash": 7892,
      "Ġcrown": 7893,
      "Ġpercentage": 7894,
      "Ġinevitable": 7895,
      "Ġfees": 7896,
      "ĠBelg": 7897,
      "Ġirre": 7898,
      "Ġroles": 7899,
      "Ġcake": 7900,
      "Ġcried": 7901,
      "Ġfan": 7902,
      "';": 7903,
      "Ġtoler": 7904,
      "Ġleather": 7905,
      "iner": 7906,
      "Ġassistant": 7907,
      "Ġrepeat": 7908,
      "Ġwaves": 7909,
      "ĠThank": 7910,
      "ĠVery": 7911,
      "Ġdetermination": 7912,
      "Any": 7913,
      "advant": 7914,
      "Ġdict": 7915,
      "Ġsamples": 7916,
      "ĠBal": 7917,
      "ĠOpp": 7918,
      "Ġinfection": 7919,
      "Ġtap": 7920,
      "cked": 7921,
      "Ġchildhood": 7922,
      "apel": 7923,
      "Ġtested": 7924,
      "Ġfortun": 7925,
      "Ġrib": 7926,
      "Ġcouncill": 7927,
      "orb": 7928,
      "ĠHaw": 7929,
      "Ġovert": 7930,
      "ĠStill": 7931,
      "Ġsurvived": 7932,
      "Ġbon": 7933,
      "ĠTer": 7934,
      "ques": 7935,
      "Ġmathemat": 7936,
      "Ġcryst": 7937,
      "idy": 7938,
      "Ġheading": 7939,
      "Ġneighbours": 7940,
      "Ġwashing": 7941,
      "agers": 7942,
      "Ġpursu": 7943,
      "oubted": 7944,
      "othing": 7945,
      "Ġdisaster": 7946,
      "Ġedition": 7947,
      "ĠBay": 7948,
      "Ġclimate": 7949,
      "Ġcontents": 7950,
      "Ġcontribute": 7951,
      "Ġdeliberately": 7952,
      "rix": 7953,
      "Ġgrab": 7954,
      "Ġpleasant": 7955,
      "Ġovercome": 7956,
      "ĠPrimary": 7957,
      "Ġdesigns": 7958,
      "Ġexcit": 7959,
      "inem": 7960,
      "ĠRussell": 7961,
      "ĠWy": 7962,
      "Ġspark": 7963,
      "Ġcontrary": 7964,
      "DP": 7965,
      "Ġjur": 7966,
      "ecutive": 7967,
      "Ġ(Â£": 7968,
      "inery": 7969,
      "ĠSup": 7970,
      "ĠSche": 7971,
      "ĠDean": 7972,
      "Ġvariation": 7973,
      "Ġsongs": 7974,
      "ĠLouis": 7975,
      "Ġwire": 7976,
      "Ġgathered": 7977,
      "osh": 7978,
      "Ġreveal": 7979,
      "imens": 7980,
      "Ġspectac": 7981,
      "ĠTake": 7982,
      "ĠHoward": 7983,
      "Ġqualified": 7984,
      "Ġbills": 7985,
      "irts": 7986,
      "Ġstatistics": 7987,
      "Ġcalculated": 7988,
      "Ġsavings": 7989,
      "olds": 7990,
      "Ġcheer": 7991,
      "Ġgolden": 7992,
      "Ġchick": 7993,
      "Ġpressures": 7994,
      "Ġbom": 7995,
      "aneous": 7996,
      "master": 7997,
      "Ġstrategic": 7998,
      "ĠFer": 7999,
      "Ġunemployed": 8000,
      "olt": 8001,
      "Cl": 8002,
      "Ġdying": 8003,
      "icity": 8004,
      "ĠKaren": 8005,
      "Ġcamera": 8006,
      "Ġtied": 8007,
      "atis": 8008,
      "IGH": 8009,
      "ĠSever": 8010,
      "Ġsched": 8011,
      "icitors": 8012,
      "Ġexposed": 8013,
      "Because": 8014,
      "they": 8015,
      "ĠStudies": 8016,
      "Ġirrit": 8017,
      "Ġrhyth": 8018,
      "Ġsail": 8019,
      "Ġdisk": 8020,
      "Ġsending": 8021,
      "Ġreception": 8022,
      "geant": 8023,
      "Ġleisure": 8024,
      "Ġdozen": 8025,
      "ĠMPs": 8026,
      "unning": 8027,
      "Ġflour": 8028,
      "pired": 8029,
      "ĠLam": 8030,
      "ĠSystems": 8031,
      "ĠDouglas": 8032,
      "ĠIndustry": 8033,
      "abs": 8034,
      "Ġacute": 8035,
      "Ġsensible": 8036,
      "')": 8037,
      "Ġcomponent": 8038,
      "ipt": 8039,
      "Ġestimate": 8040,
      "Ġweakness": 8041,
      "zed": 8042,
      "Ġspin": 8043,
      "Ġpenalty": 8044,
      "Ġgrateful": 8045,
      "Ġdescribes": 8046,
      "Ġviolent": 8047,
      "Ġburning": 8048,
      "Ġthereby": 8049,
      "Ġrelie": 8050,
      "ĠFront": 8051,
      "Ġsmoking": 8052,
      "Ġsinging": 8053,
      "inger": 8054,
      "lla": 8055,
      "Ġlux": 8056,
      "Ġconj": 8057,
      "Ġhonour": 8058,
      "Ġholes": 8059,
      "Ġoverwhel": 8060,
      "Ġstrategies": 8061,
      "Ġdread": 8062,
      "enders": 8063,
      "Ġspr": 8064,
      "Ġchampionship": 8065,
      "Ġconstitutional": 8066,
      "itative": 8067,
      "Ġappreciate": 8068,
      "Ġagreements": 8069,
      "Ġdeaf": 8070,
      "acc": 8071,
      "ĠGet": 8072,
      "ographic": 8073,
      "ĠLibrary": 8074,
      "ĠPrem": 8075,
      "Ġadopt": 8076,
      "Ġdates": 8077,
      "Ġjudges": 8078,
      "Ġexpertise": 8079,
      "Ġauth": 8080,
      "Ġster": 8081,
      "Ġnights": 8082,
      "Ġpul": 8083,
      "ĠBat": 8084,
      "Ġmoon": 8085,
      "Ġtaxes": 8086,
      "Ġconcepts": 8087,
      "after": 8088,
      "ĠTen": 8089,
      "ĠType": 8090,
      "Ġbearing": 8091,
      "elines": 8092,
      "Ġcircuit": 8093,
      "ĠMaybe": 8094,
      "chest": 8095,
      "Ġbasically": 8096,
      "case": 8097,
      "ĠVer": 8098,
      "ĠFurthermore": 8099,
      "Ġtum": 8100,
      "Ġfaint": 8101,
      "ĠWithout": 8102,
      "Ġpsychological": 8103,
      "Ġthir": 8104,
      "ĠMass": 8105,
      "Ġrecip": 8106,
      "Ġsmiling": 8107,
      "Ã¨": 8108,
      "inals": 8109,
      "ĠExp": 8110,
      "Ġspell": 8111,
      "Will": 8112,
      "Ġparticipation": 8113,
      "Ġinevitably": 8114,
      "Ġconsists": 8115,
      "arn": 8116,
      "ĠCre": 8117,
      "colm": 8118,
      "ĠBow": 8119,
      "ieval": 8120,
      "Ġconcrete": 8121,
      "Ġbathroom": 8122,
      "Ġrepair": 8123,
      "Ġcontinuous": 8124,
      "Ġdepri": 8125,
      "Ġswimming": 8126,
      "Ġconvenient": 8127,
      "oir": 8128,
      "Ġdamp": 8129,
      "Ġbuyer": 8130,
      "ĠBrad": 8131,
      "Ġcorrid": 8132,
      "Ġevaluation": 8133,
      "ĠDC": 8134,
      "igg": 8135,
      "Ġevil": 8136,
      "Ġstronger": 8137,
      "ITH": 8138,
      "Ġboxes": 8139,
      "Ġnursing": 8140,
      "Ġdisadvant": 8141,
      "Ġpros": 8142,
      "ĠVirgin": 8143,
      "onym": 8144,
      "Ġsurgery": 8145,
      "Ġ/": 8146,
      "ĠWay": 8147,
      "ECT": 8148,
      "Ġpresumably": 8149,
      "Ġhaz": 8150,
      "Ġgardens": 8151,
      "Ġtargets": 8152,
      "ĠAP": 8153,
      "cliff": 8154,
      "Ġconsultation": 8155,
      "play": 8156,
      "Ġmode": 8157,
      "Ġreturns": 8158,
      "Ġpersist": 8159,
      "Ġcleared": 8160,
      "Ar": 8161,
      "rob": 8162,
      "Ġwrites": 8163,
      "Ġrestrictions": 8164,
      "quiries": 8165,
      "Ġstab": 8166,
      "Ġstaring": 8167,
      "Ġsucceeded": 8168,
      "avia": 8169,
      "Ġassemb": 8170,
      "Ġrect": 8171,
      "iverse": 8172,
      "riff": 8173,
      "ĠDisc": 8174,
      "ĠSteven": 8175,
      "vell": 8176,
      "Ġgenerated": 8177,
      "aimed": 8178,
      "Ġcow": 8179,
      "Ġrelatives": 8180,
      "ĠChristine": 8181,
      "Ġacceptance": 8182,
      "ĠBroad": 8183,
      "agger": 8184,
      "ĠInstitution": 8185,
      "Ġtort": 8186,
      "atures": 8187,
      "ĠAnna": 8188,
      "Ġdamaged": 8189,
      "ĠAustralian": 8190,
      "ĠCharlie": 8191,
      "Ġmanufacturers": 8192,
      "ĠCa": 8193,
      "Ġdecent": 8194,
      "Ġmodest": 8195,
      "Ġkil": 8196,
      "Ġpride": 8197,
      "UM": 8198,
      "Ġresponses": 8199,
      "Ġmurm": 8200,
      "sen": 8201,
      "ĠDutch": 8202,
      "ĠOwen": 8203,
      "Ġstriking": 8204,
      "Ġretained": 8205,
      "ĠPop": 8206,
      "Ġinfluenced": 8207,
      "Ġconsciousness": 8208,
      "Ġhook": 8209,
      "Ġanxiety": 8210,
      "Ex": 8211,
      "Ġhed": 8212,
      "ĠCalifornia": 8213,
      "ĠField": 8214,
      "agg": 8215,
      "ĠAffairs": 8216,
      "Ġsufficiently": 8217,
      "Ġresource": 8218,
      "Ġexplore": 8219,
      "Ġkeeps": 8220,
      "ĠMarc": 8221,
      "Your": 8222,
      "wall": 8223,
      "ĠAh": 8224,
      "Ġenforce": 8225,
      "Ġprotected": 8226,
      "ALL": 8227,
      "Ġneutral": 8228,
      "OK": 8229,
      "Ġwanna": 8230,
      "Ġheaven": 8231,
      "oster": 8232,
      "Ġassign": 8233,
      "esc": 8234,
      "riers": 8235,
      "ĠHart": 8236,
      "Ġinstall": 8237,
      "Ġfounded": 8238,
      "Ġconstructed": 8239,
      "Ġmonitoring": 8240,
      "Ġdun": 8241,
      "Ġrelate": 8242,
      "ĠSoft": 8243,
      "TA": 8244,
      "Ġcurve": 8245,
      "Ġbinding": 8246,
      "omfort": 8247,
      "ĠOper": 8248,
      "Ġapproximately": 8249,
      "Ġquoted": 8250,
      "Ġrisks": 8251,
      "Ġdisplayed": 8252,
      "nament": 8253,
      "ĠCL": 8254,
      "ortion": 8255,
      "Ġultimately": 8256,
      "Ġgiant": 8257,
      "ĠHa": 8258,
      "ĠVol": 8259,
      "Ġfrightened": 8260,
      "Ġproduces": 8261,
      "Ġcommonly": 8262,
      "throp": 8263,
      "Ġinvestors": 8264,
      "Per": 8265,
      "ĠMalcolm": 8266,
      "Ġcattle": 8267,
      "isons": 8268,
      "Ġcollapse": 8269,
      "ias": 8270,
      "cut": 8271,
      "Ġacquisition": 8272,
      "Ġawarded": 8273,
      "Ġarticles": 8274,
      "ĠBerlin": 8275,
      "ĠTechnology": 8276,
      "Ġburden": 8277,
      "ĠEngine": 8278,
      "Ġroot": 8279,
      "Ġacceler": 8280,
      "Ġloans": 8281,
      "Ġexisted": 8282,
      "Ġrecommendations": 8283,
      "Ġchecked": 8284,
      "ĠRober": 8285,
      "ĠMorris": 8286,
      "Ġladies": 8287,
      "Ġreplacement": 8288,
      "Ġtrous": 8289,
      "aux": 8290,
      "techn": 8291,
      "Ġexcitement": 8292,
      "ctive": 8293,
      "Ġgross": 8294,
      "ĠNon": 8295,
      "Ġdevoted": 8296,
      "ĠLow": 8297,
      "Ġwanting": 8298,
      "ĠVictoria": 8299,
      "ss": 8300,
      "ĠMount": 8301,
      "ĠAngela": 8302,
      "Ġmanip": 8303,
      "Ġpurely": 8304,
      "Ġmild": 8305,
      "Ġnative": 8306,
      "umps": 8307,
      "Ġcarpet": 8308,
      "Ġadvised": 8309,
      "hill": 8310,
      "Ġlord": 8311,
      "andal": 8312,
      "Ġpoetry": 8313,
      "bow": 8314,
      "orders": 8315,
      "Ġdiscovery": 8316,
      "Ġinjuries": 8317,
      "Ġsuggesting": 8318,
      "ĠHoly": 8319,
      "Ġeleg": 8320,
      "Ġspiritual": 8321,
      "level": 8322,
      "orate": 8323,
      "Ġholidays": 8324,
      "Ġwra": 8325,
      "ĠRy": 8326,
      "ĠEmploy": 8327,
      "ĠNHS": 8328,
      "Ġlocated": 8329,
      "Ġoccasional": 8330,
      "Ġslipped": 8331,
      "Ġcock": 8332,
      "acon": 8333,
      "Ġships": 8334,
      "fan": 8335,
      "ĠStat": 8336,
      "ggy": 8337,
      "ĠSen": 8338,
      "Ġmillions": 8339,
      "ĠRE": 8340,
      "Ġglance": 8341,
      "Ġinstitution": 8342,
      "Ġcottage": 8343,
      "Ġfourteen": 8344,
      "Ġparad": 8345,
      "Ġgrave": 8346,
      "Ġimproving": 8347,
      "ĠRoss": 8348,
      "bish": 8349,
      "nat": 8350,
      "Ġmarginal": 8351,
      "ĠEle": 8352,
      "Ġhypothes": 8353,
      "van": 8354,
      "dis": 8355,
      "itual": 8356,
      "Ġupstairs": 8357,
      "Ġdecades": 8358,
      "Ġclosing": 8359,
      "oning": 8360,
      "dule": 8361,
      "ĠVictorian": 8362,
      "Ġfederal": 8363,
      "ĠRoy": 8364,
      "ĠLiber": 8365,
      "forced": 8366,
      "Ġrelaxed": 8367,
      "cely": 8368,
      "Ġinstruments": 8369,
      "ĠRailway": 8370,
      "agne": 8371,
      "ressing": 8372,
      "ĠGrace": 8373,
      "Ġtip": 8374,
      "ĠGil": 8375,
      "ĠNEW": 8376,
      "Ġcoup": 8377,
      "Ġtends": 8378,
      "ĠApart": 8379,
      "Ġqualities": 8380,
      "cription": 8381,
      "Ġsilly": 8382,
      "erie": 8383,
      "Ġindirect": 8384,
      "Ġdistinguished": 8385,
      "ĠIsl": 8386,
      "ĠFlore": 8387,
      "pass": 8388,
      "ĠGreg": 8389,
      "Ġassumptions": 8390,
      "Ġimagination": 8391,
      "ĠRadio": 8392,
      "iate": 8393,
      "Ġwake": 8394,
      "ĠTem": 8395,
      "Ġcollective": 8396,
      "Ġpreparing": 8397,
      "ĠCaroline": 8398,
      "itarian": 8399,
      "ida": 8400,
      "aneously": 8401,
      "Ġfemin": 8402,
      "ione": 8403,
      "necess": 8404,
      "ailing": 8405,
      "ĠWhatever": 8406,
      "ĠSeveral": 8407,
      "Ġsixth": 8408,
      "ersonal": 8409,
      "Ġmanifest": 8410,
      "father": 8411,
      "Ġflesh": 8412,
      "Ġsixteen": 8413,
      "Ġintegrated": 8414,
      "upp": 8415,
      "AST": 8416,
      "Ġdeals": 8417,
      "Ġswall": 8418,
      "Ġangle": 8419,
      "Ġsubsidi": 8420,
      "Ġbacked": 8421,
      "viously": 8422,
      "host": 8423,
      "Ġmanual": 8424,
      "Ġdirty": 8425,
      "Ġobser": 8426,
      "Ġpublishing": 8427,
      "Ġperceived": 8428,
      "Ġvit": 8429,
      "Ġdiscretion": 8430,
      "Ġslip": 8431,
      "ĠCountry": 8432,
      "Ġorganized": 8433,
      "Ġdrivers": 8434,
      "bey": 8435,
      "ĠGuard": 8436,
      "Ġpow": 8437,
      "Ġexplains": 8438,
      "four": 8439,
      "aks": 8440,
      "iano": 8441,
      "Ġpassengers": 8442,
      "ĠFollowing": 8443,
      "Some": 8444,
      "hedral": 8445,
      "Ġsurf": 8446,
      "ĠAlexander": 8447,
      "da": 8448,
      "ĠLim": 8449,
      "Ġque": 8450,
      "Ġpresents": 8451,
      "Ġexcluded": 8452,
      "forward": 8453,
      "ĠArts": 8454,
      "cribed": 8455,
      "occup": 8456,
      "Ġleague": 8457,
      "Ġpossibilities": 8458,
      "ELL": 8459,
      "Ġfer": 8460,
      "ĠLo": 8461,
      "Ġroots": 8462,
      "ĠBridge": 8463,
      "soft": 8464,
      "Ġmodules": 8465,
      "Ġruled": 8466,
      "Ġlone": 8467,
      "ĠHand": 8468,
      "Ġboots": 8469,
      "Ġstrain": 8470,
      "Ġfrequent": 8471,
      "ĠDurham": 8472,
      "irds": 8473,
      "Ġthrust": 8474,
      "ĠFive": 8475,
      "Ġalarm": 8476,
      "Ġpuzz": 8477,
      "Ġlinguistic": 8478,
      "Ġcooking": 8479,
      "ĠProgram": 8480,
      "pert": 8481,
      "olph": 8482,
      "ĠVick": 8483,
      "Ġtopic": 8484,
      "Ġsteep": 8485,
      "Ġpotentially": 8486,
      "sl": 8487,
      "Ġinhab": 8488,
      "Ġsleeping": 8489,
      "Ġbone": 8490,
      "ĠMu": 8491,
      "ĠFle": 8492,
      "ouses": 8493,
      "Ġburied": 8494,
      "Ġjudgement": 8495,
      "Ġvulnerable": 8496,
      "oma": 8497,
      "ĠBack": 8498,
      "Ġmagic": 8499,
      "ga": 8500,
      "there": 8501,
      "rene": 8502,
      "ĠGermans": 8503,
      "umbled": 8504,
      "Ġcomplaints": 8505,
      "gement": 8506,
      "isd": 8507,
      "Ġcrash": 8508,
      "icking": 8509,
      "Ġpoem": 8510,
      "Ġinfin": 8511,
      "Ġcheese": 8512,
      "minster": 8513,
      "tr": 8514,
      "Ġstressed": 8515,
      "ĠMatt": 8516,
      "Ġnearest": 8517,
      "Ġconfused": 8518,
      "scale": 8519,
      "Ġpacked": 8520,
      "ucle": 8521,
      "Ġsharply": 8522,
      "Ġlaughing": 8523,
      "Ġwhispered": 8524,
      "zil": 8525,
      "stein": 8526,
      "Ġtongue": 8527,
      "See": 8528,
      "ĠHo": 8529,
      "Ġsophisticated": 8530,
      "wind": 8531,
      "Ġknees": 8532,
      "Ġvalley": 8533,
      "Ġconfined": 8534,
      "Ġauthors": 8535,
      "oubtedly": 8536,
      "ĠDam": 8537,
      "Ġwhenever": 8538,
      "Ġmonop": 8539,
      "ĠTour": 8540,
      "zech": 8541,
      "tt": 8542,
      "Ġdemonstrate": 8543,
      "urred": 8544,
      "Ġcompuls": 8545,
      "Ġinteraction": 8546,
      "Ġsuperb": 8547,
      "iii": 8548,
      "Ġbuck": 8549,
      "Ġdemanding": 8550,
      "Ġencoun": 8551,
      "oric": 8552,
      "Ġdeficit": 8553,
      "ĠConference": 8554,
      "Ġlayer": 8555,
      "Ġrefuse": 8556,
      "Ġboundaries": 8557,
      "ĠCivil": 8558,
      "rawn": 8559,
      "Ġdepending": 8560,
      "Ġethnic": 8561,
      "cca": 8562,
      "ĠSupreme": 8563,
      "two": 8564,
      "Ġmountains": 8565,
      "Ġbeliefs": 8566,
      "Ġrecon": 8567,
      "Ġimpressed": 8568,
      "ĠDublin": 8569,
      "Ġwondering": 8570,
      "Ġpupil": 8571,
      "Ġpermitted": 8572,
      "onel": 8573,
      "Ġcoloured": 8574,
      "Ġharder": 8575,
      "ĠNicholas": 8576,
      "ago": 8577,
      "Ġlav": 8578,
      "Ġformat": 8579,
      "ĠHelena": 8580,
      "Ġattempting": 8581,
      "Ġpersuade": 8582,
      "west": 8583,
      "Ġmachinery": 8584,
      "Ġvert": 8585,
      "atoes": 8586,
      "keeper": 8587,
      "ĠKelly": 8588,
      "Ġridic": 8589,
      "alys": 8590,
      "quis": 8591,
      "ĠLeicester": 8592,
      "ĠMex": 8593,
      "Ġmemories": 8594,
      "arling": 8595,
      "ĠDi": 8596,
      "Ġinsect": 8597,
      "Ġvague": 8598,
      "ĠDuke": 8599,
      "Ġseparated": 8600,
      "arer": 8601,
      "Ġvariations": 8602,
      "Ġdefine": 8603,
      "Ġboards": 8604,
      "Ġcompletion": 8605,
      "ĠTreasury": 8606,
      "ĠScots": 8607,
      "Ġindicates": 8608,
      "ĠUlster": 8609,
      "Ġjustified": 8610,
      "comed": 8611,
      "Ġdesperate": 8612,
      "ĠRet": 8613,
      "Ġexchang": 8614,
      "Ġlip": 8615,
      "Ġclever": 8616,
      "Ġinvestigate": 8617,
      "Ġunsu": 8618,
      "Ġlanding": 8619,
      "Ġupd": 8620,
      "Ġversions": 8621,
      "Ġdeaths": 8622,
      "Ġindication": 8623,
      "Ġzero": 8624,
      "Ġpetrol": 8625,
      "Ġah": 8626,
      "Ġsubsc": 8627,
      "Ġantib": 8628,
      "Ġheadquarters": 8629,
      "Ġsolutions": 8630,
      "ĠCaptain": 8631,
      "Cos": 8632,
      "Ġcater": 8633,
      "ums": 8634,
      "Ġdies": 8635,
      "Ġlod": 8636,
      "rue": 8637,
      "Does": 8638,
      "ping": 8639,
      "Ġglasses": 8640,
      "Ġignore": 8641,
      "Ġbot": 8642,
      "ĠGer": 8643,
      "Ġpublicity": 8644,
      "Ġdistributed": 8645,
      "ĠTherefore": 8646,
      "appro": 8647,
      "east": 8648,
      "ĠOlym": 8649,
      "Ġraw": 8650,
      "Ġcommunications": 8651,
      "ugosl": 8652,
      "Ġexcuse": 8653,
      "Ġquantity": 8654,
      "child": 8655,
      "Ġthri": 8656,
      "ĠBry": 8657,
      "Ġsna": 8658,
      "ĠHeath": 8659,
      "orie": 8660,
      "ifies": 8661,
      "Ġrecruit": 8662,
      "Ġstudying": 8663,
      "Ġterrif": 8664,
      "Ġbatt": 8665,
      "Ġmultiple": 8666,
      "ĠMaster": 8667,
      "Ġconsiderations": 8668,
      "ĠPak": 8669,
      "ĠAbout": 8670,
      "ĠHistory": 8671,
      "Ġinstant": 8672,
      "Ġhers": 8673,
      "Ġcommittees": 8674,
      "Ġguy": 8675,
      "fr": 8676,
      "Ġconsol": 8677,
      "Ġtin": 8678,
      "ador": 8679,
      "osexual": 8680,
      "Ġhills": 8681,
      "ĠEN": 8682,
      "ocation": 8683,
      "Ġassembly": 8684,
      "Ġestimates": 8685,
      "Ġinches": 8686,
      "Ġtaxation": 8687,
      "Ġcous": 8688,
      "orious": 8689,
      "Ġargues": 8690,
      "Ġuniversities": 8691,
      "Ġregarding": 8692,
      "Ġbands": 8693,
      "Ġuniversal": 8694,
      "ĠCzech": 8695,
      "ĠChampionship": 8696,
      "Ġsectors": 8697,
      "ounded": 8698,
      "ampton": 8699,
      "Ġultimate": 8700,
      "Ġresearchers": 8701,
      "Ġski": 8702,
      "ais": 8703,
      "Ġvoted": 8704,
      "Ġacted": 8705,
      "Ġjumped": 8706,
      "Ġbuff": 8707,
      "ights": 8708,
      "Ġnurses": 8709,
      "ĠFarm": 8710,
      "apsed": 8711,
      "ĠTop": 8712,
      "Ġportra": 8713,
      "erent": 8714,
      "ĠExecutive": 8715,
      "Ġimprovements": 8716,
      "Ġwelcomed": 8717,
      "Ġrugby": 8718,
      "ashes": 8719,
      "ĠStefan": 8720,
      "Ġstrengthen": 8721,
      "Ġintegration": 8722,
      "Ġillegal": 8723,
      "ĠClear": 8724,
      "ppy": 8725,
      "boy": 8726,
      "Ġending": 8727,
      "Ġinterrupt": 8728,
      "Ġsuspended": 8729,
      "Ġsoftly": 8730,
      "Ġtool": 8731,
      "ĠFree": 8732,
      "ĠUntil": 8733,
      "Ġsharing": 8734,
      "ĠRud": 8735,
      "Ġconverted": 8736,
      "Ġreverse": 8737,
      "Ġannouncement": 8738,
      "ho": 8739,
      "Ġmud": 8740,
      "Ġduck": 8741,
      "Ġsurrounded": 8742,
      "ĠFA": 8743,
      "Be": 8744,
      "ulus": 8745,
      "Ġcloth": 8746,
      "Ġequation": 8747,
      "Ġincent": 8748,
      "Ġpoison": 8749,
      "Ġpersonally": 8750,
      "Ġcontributed": 8751,
      "Ġmedicine": 8752,
      "Ġgains": 8753,
      "ĠAgricult": 8754,
      "ani": 8755,
      "Ġincred": 8756,
      "Ġstretch": 8757,
      "Ġinterviews": 8758,
      "Ġcastle": 8759,
      "Ġmonetary": 8760,
      "Ġlease": 8761,
      "Ġbrick": 8762,
      "Ġcreative": 8763,
      "Ġbreed": 8764,
      "Ġhumour": 8765,
      "Mar": 8766,
      "Ġnations": 8767,
      "ĠFort": 8768,
      "Ġassert": 8769,
      "Ġwholly": 8770,
      "Ġstudio": 8771,
      "Ġsimult": 8772,
      "Ġtransaction": 8773,
      "box": 8774,
      "Ġdestruction": 8775,
      "via": 8776,
      "made": 8777,
      "Ġbars": 8778,
      "ĠCP": 8779,
      "Ġasc": 8780,
      "Ġdeparture": 8781,
      "Ġpaused": 8782,
      "ĠHon": 8783,
      "rying": 8784,
      "Ġsyn": 8785,
      "Ġinstruction": 8786,
      "ĠOrder": 8787,
      "Ġsquee": 8788,
      "Ġcheaper": 8789,
      "ĠDennis": 8790,
      "Ġchannel": 8791,
      "Ġdressing": 8792,
      "ĠIndependent": 8793,
      "ynes": 8794,
      "Ġbeaten": 8795,
      "Ġtransition": 8796,
      "Ġliable": 8797,
      "Ġpulling": 8798,
      "Ġflexible": 8799,
      "Ġplates": 8800,
      "Ġflew": 8801,
      "ĠFR": 8802,
      "Ġunity": 8803,
      "Ġtremend": 8804,
      "aping": 8805,
      "Ġbeds": 8806,
      "lock": 8807,
      "ĠWord": 8808,
      "ĠLove": 8809,
      "Ġlesson": 8810,
      "itage": 8811,
      "ĠAber": 8812,
      "Ġvend": 8813,
      "Ġreminded": 8814,
      "Ġwings": 8815,
      "Ġfolk": 8816,
      "style": 8817,
      "liest": 8818,
      "Ġgenerous": 8819,
      "ĠValley": 8820,
      "awn": 8821,
      "Ġasleep": 8822,
      "Ġmini": 8823,
      "Ġsheets": 8824,
      "ĠKate": 8825,
      "Ġurged": 8826,
      "Ġimplied": 8827,
      "arded": 8828,
      "Ġunnecess": 8829,
      "Ġelectron": 8830,
      "Ġinformal": 8831,
      "igation": 8832,
      "Ġinstitutional": 8833,
      "operative": 8834,
      "ĠBrazil": 8835,
      "Ġjudicial": 8836,
      "Ġgaze": 8837,
      "erman": 8838,
      "Ġpremium": 8839,
      "Ġlamp": 8840,
      "Ġbulk": 8841,
      "MENT": 8842,
      "Ġaston": 8843,
      "ĠVAT": 8844,
      "Ġdeserv": 8845,
      "Ġmemor": 8846,
      "Ġprominent": 8847,
      "Ġbabies": 8848,
      "Ġweekly": 8849,
      "Ġmagist": 8850,
      "Ġceiling": 8851,
      "Ġrestra": 8852,
      "avy": 8853,
      "ĠStewart": 8854,
      "Ġrepresenting": 8855,
      "Ġarchitecture": 8856,
      "Ġclimbed": 8857,
      "erb": 8858,
      "Ġadvertis": 8859,
      "Ġtimber": 8860,
      "Ġsurprisingly": 8861,
      "ĠSpir": 8862,
      "Ġinadequate": 8863,
      "Ġles": 8864,
      "Ġartific": 8865,
      "ĠEssex": 8866,
      "ffield": 8867,
      "Ġresigned": 8868,
      "Ġtexts": 8869,
      "efully": 8870,
      "des": 8871,
      "ppers": 8872,
      "atell": 8873,
      "ĠTot": 8874,
      "ĠAunt": 8875,
      "umin": 8876,
      "Ġjew": 8877,
      "thel": 8878,
      "Ġcleaning": 8879,
      "Ġlogical": 8880,
      "Ġsurge": 8881,
      "Ġchann": 8882,
      "Ġknocked": 8883,
      "Ġcritics": 8884,
      "ĠCertainly": 8885,
      "Ġtwentieth": 8886,
      "Ġorange": 8887,
      "Ġmeals": 8888,
      "Ġagenda": 8889,
      "Ġhunting": 8890,
      "ĠDiana": 8891,
      "Ġpublisher": 8892,
      "Ġbreathing": 8893,
      "itter": 8894,
      "omal": 8895,
      "ĠEmily": 8896,
      "Ġcontempl": 8897,
      "Ġdistinguish": 8898,
      "sts": 8899,
      "ĠRoberts": 8900,
      "ĠFamily": 8901,
      "Ġdancing": 8902,
      "Ġtenant": 8903,
      "ĠAtlantic": 8904,
      "Ġfrown": 8905,
      "Ġenl": 8906,
      "Ġassessed": 8907,
      "ĠGovern": 8908,
      "Ġdreams": 8909,
      "Ġbent": 8910,
      "Ġjury": 8911,
      "Ġsaving": 8912,
      "Ġdrunk": 8913,
      "ĠFinance": 8914,
      "ĠFinancial": 8915,
      "IDS": 8916,
      "ships": 8917,
      "Ġsurre": 8918,
      "Ġcatalogue": 8919,
      "looking": 8920,
      "ĠTor": 8921,
      "Ġmedieval": 8922,
      "Ġlake": 8923,
      "Ġnotably": 8924,
      "Ġexempt": 8925,
      "Ġlandlord": 8926,
      "Ġregulation": 8927,
      "Ġcotton": 8928,
      "sk": 8929,
      "Ġ...": 8930,
      "Ġexposure": 8931,
      "istical": 8932,
      "Ġgrants": 8933,
      "Ġventure": 8934,
      "rets": 8935,
      "rome": 8936,
      "Ġcarriage": 8937,
      "ĠFood": 8938,
      "ĠYugosl": 8939,
      "ĠPounds": 8940,
      "Ooh": 8941,
      "Ġalien": 8942,
      "Ġsubmitted": 8943,
      "Ġprofessionals": 8944,
      "Ġcourage": 8945,
      "aws": 8946,
      "Ġinfant": 8947,
      "Ġlistened": 8948,
      "Ġstead": 8949,
      "Ġneglig": 8950,
      "Ġgenes": 8951,
      "ĠCould": 8952,
      "Ġchocol": 8953,
      "ĠPakistan": 8954,
      "aration": 8955,
      "ĠBed": 8956,
      "ensed": 8957,
      "Ġgrim": 8958,
      "Ġcapitalist": 8959,
      "Ġfunctional": 8960,
      "Ġdeny": 8961,
      "llers": 8962,
      "Ġoral": 8963,
      "Ġclaiming": 8964,
      "ĠAudrey": 8965,
      "Ġdrinks": 8966,
      "Ġobligation": 8967,
      "andy": 8968,
      "Ġtrains": 8969,
      "ĠAsia": 8970,
      "Ġcoverage": 8971,
      "Ġmuc": 8972,
      "ĠHoll": 8973,
      "ĠFlorence": 8974,
      "ĠSi": 8975,
      "Ġdamages": 8976,
      "Ġgallery": 8977,
      "Ġfate": 8978,
      "Ġknee": 8979,
      "Ġdescript": 8980,
      "urities": 8981,
      "Ġscript": 8982,
      "Ġavoided": 8983,
      "Ġjurisd": 8984,
      "Ġstores": 8985,
      "Ġpatron": 8986,
      "Ġdimin": 8987,
      "Ġfeeding": 8988,
      "Ġphenomenon": 8989,
      "Ġblocks": 8990,
      "Ġtennis": 8991,
      "Ġelabor": 8992,
      "ygen": 8993,
      "Ġsul": 8994,
      "icide": 8995,
      "Ġstake": 8996,
      "ĠRow": 8997,
      "ĠOthers": 8998,
      "step": 8999,
      "Ġdrag": 9000,
      "Ġzone": 9001,
      "Ġseve": 9002,
      "ĠEX": 9003,
      "Ġassured": 9004,
      "fol": 9005,
      "ects": 9006,
      "Ġoffences": 9007,
      "Ġdiscourse": 9008,
      "Ġlearnt": 9009,
      "Ġtravelled": 9010,
      "IE": 9011,
      "encing": 9012,
      "Ġreven": 9013,
      "Ġdoct": 9014,
      "peror": 9015,
      "Ġlessons": 9016,
      "ĠConvention": 9017,
      "Ġcorrel": 9018,
      "Ġbowl": 9019,
      "DS": 9020,
      "Ġmortality": 9021,
      "ĠTri": 9022,
      "quest": 9023,
      "ĠJewish": 9024,
      "Ġvoices": 9025,
      "cliffe": 9026,
      "wait": 9027,
      "Ġscrew": 9028,
      "Ġcrossing": 9029,
      "âĢ¢": 9030,
      "ĠWalter": 9031,
      "Ġtickets": 9032,
      "Ġemotion": 9033,
      "Ġlawyers": 9034,
      "Ġcinem": 9035,
      "Ġreign": 9036,
      "IES": 9037,
      "matic": 9038,
      "ĠBright": 9039,
      "ĠCarrie": 9040,
      "GE": 9041,
      "Hello": 9042,
      "agn": 9043,
      "gate": 9044,
      "emen": 9045,
      "ĠCorporation": 9046,
      "Here": 9047,
      "ĠRO": 9048,
      "Ġrealize": 9049,
      "umping": 9050,
      "Ġformula": 9051,
      "Ġaggreg": 9052,
      "Ġwise": 9053,
      "Ġreliable": 9054,
      "inth": 9055,
      "ĠAlf": 9056,
      "Ġresponded": 9057,
      "mother": 9058,
      "Ġtoile": 9059,
      "ĠHug": 9060,
      "Ġbarely": 9061,
      "Un": 9062,
      "tenham": 9063,
      "Ġdisturb": 9064,
      "Ġdrawings": 9065,
      "ĠJosephine": 9066,
      "Ġoz": 9067,
      "pel": 9068,
      "Ġguest": 9069,
      "Ġmagnific": 9070,
      "acks": 9071,
      "Ġarising": 9072,
      "Ġreflects": 9073,
      "Ġmerg": 9074,
      "Ġdil": 9075,
      "ĠGiven": 9076,
      "Ġfoundation": 9077,
      "ĠTele": 9078,
      "Ġstored": 9079,
      "Ġagriculture": 9080,
      "Ġpushing": 9081,
      "igan": 9082,
      "Ġcust": 9083,
      "Ġincomp": 9084,
      "ĠAnyway": 9085,
      "erable": 9086,
      "Ġexperimental": 9087,
      "ĠPrincess": 9088,
      "Ġspo": 9089,
      "Ġinspe": 9090,
      "Ġcolleges": 9091,
      "ĠAge": 9092,
      "Ġannoy": 9093,
      "iler": 9094,
      "ĠPac": 9095,
      "asted": 9096,
      "Ġmoder": 9097,
      "Ġunfair": 9098,
      "Ġdisappointed": 9099,
      "Ġcm": 9100,
      "Ġcoalition": 9101,
      "ela": 9102,
      "ordin": 9103,
      "ĠDaniel": 9104,
      "bits": 9105,
      "Ġseed": 9106,
      "Ġjoining": 9107,
      "Ġinterpreted": 9108,
[...]
